{
  "version": "1.0",
  "truncation": null,
  "padding": null,
  "added_tokens": [
    {
      "id": 0,
      "content": "[PAD]",
      "single_word": false,
      "lstrip": false,
      "rstrip": false,
      "normalized": false,
      "special": true
    },
    {
      "id": 1,
      "content": "[UNK]",
      "single_word": false,
      "lstrip": false,
      "rstrip": false,
      "normalized": false,
      "special": true
    },
    {
      "id": 2,
      "content": "[CLS]",
      "single_word": false,
      "lstrip": false,
      "rstrip": false,
      "normalized": false,
      "special": true
    },
    {
      "id": 3,
      "content": "[SEP]",
      "single_word": false,
      "lstrip": false,
      "rstrip": false,
      "normalized": false,
      "special": true
    },
    {
      "id": 4,
      "content": "[MASK]",
      "single_word": false,
      "lstrip": false,
      "rstrip": false,
      "normalized": false,
      "special": true
    },
    {
      "id": 5,
      "content": "<s>",
      "single_word": false,
      "lstrip": false,
      "rstrip": false,
      "normalized": false,
      "special": true
    },
    {
      "id": 6,
      "content": "</s>",
      "single_word": false,
      "lstrip": false,
      "rstrip": false,
      "normalized": false,
      "special": true
    },
    {
      "id": 7,
      "content": "<pad>",
      "single_word": false,
      "lstrip": false,
      "rstrip": false,
      "normalized": false,
      "special": true
    }
  ],
  "normalizer": null,
  "pre_tokenizer": {
    "type": "Whitespace"
  },
  "post_processor": null,
  "decoder": null,
  "model": {
    "type": "BPE",
    "dropout": null,
    "unk_token": "[UNK]",
    "continuing_subword_prefix": null,
    "end_of_word_suffix": null,
    "fuse_unk": false,
    "byte_fallback": false,
    "ignore_merges": false,
    "vocab": {
      "[PAD]": 0,
      "[UNK]": 1,
      "[CLS]": 2,
      "[SEP]": 3,
      "[MASK]": 4,
      "<s>": 5,
      "</s>": 6,
      "<pad>": 7,
      "!": 8,
      "\"": 9,
      "'": 10,
      ")": 11,
      ",": 12,
      "-": 13,
      ".": 14,
      "0": 15,
      "1": 16,
      "2": 17,
      "3": 18,
      "4": 19,
      "5": 20,
      "6": 21,
      "8": 22,
      "9": 23,
      ":": 24,
      ";": 25,
      "=": 26,
      "A": 27,
      "B": 28,
      "C": 29,
      "D": 30,
      "E": 31,
      "F": 32,
      "G": 33,
      "H": 34,
      "I": 35,
      "J": 36,
      "K": 37,
      "L": 38,
      "M": 39,
      "N": 40,
      "O": 41,
      "P": 42,
      "Q": 43,
      "R": 44,
      "S": 45,
      "T": 46,
      "U": 47,
      "V": 48,
      "W": 49,
      "X": 50,
      "Y": 51,
      "Z": 52,
      "\\": 53,
      "a": 54,
      "b": 55,
      "c": 56,
      "d": 57,
      "e": 58,
      "f": 59,
      "g": 60,
      "h": 61,
      "i": 62,
      "j": 63,
      "k": 64,
      "l": 65,
      "m": 66,
      "n": 67,
      "o": 68,
      "p": 69,
      "q": 70,
      "r": 71,
      "s": 72,
      "t": 73,
      "u": 74,
      "v": 75,
      "w": 76,
      "x": 77,
      "y": 78,
      "z": 79,
      "ä": 80,
      "Ɔ": 81,
      "Ɛ": 82,
      "ƒ": 83,
      "ɔ": 84,
      "ɛ": 85,
      "ʋ": 86,
      "’": 87,
      "…": 88,
      "ℇ": 89,
      "Ↄ": 90,
      "wɔ": 91,
      "yɛ": 92,
      "na": 93,
      "no": 94,
      "bi": 95,
      "yi": 96,
      "so": 97,
      "aa": 98,
      "an": 99,
      "re": 100,
      "ne": 101,
      "si": 102,
      "de": 103,
      "te": 104,
      "ma": 105,
      "ko": 106,
      "mu": 107,
      "hɔ": 108,
      "hyɛ": 109,
      "nso": 110,
      "yina": 111,
      "wɔn": 112,
      "wa": 113,
      "ak": 114,
      "fo": 115,
      "baa": 116,
      "at": 117,
      "ho": 118,
      "gyina": 119,
      "ra": 120,
      "kɔ": 121,
      "pa": 122,
      "ni": 123,
      "be": 124,
      "ye": 125,
      "sa": 126,
      "se": 127,
      "tu": 128,
      "mm": 129,
      "ab": 130,
      "ku": 131,
      "fi": 132,
      "deɛ": 133,
      "baako": 134,
      "en": 135,
      "ro": 136,
      "kyɛ": 137,
      "ah": 138,
      "ri": 139,
      "foɔ": 140,
      "su": 141,
      "ta": 142,
      "dan": 143,
      "Wɔ": 144,
      "ani": 145,
      "bɔ": 146,
      "nsa": 147,
      "gu": 148,
      "do": 149,
      "akyi": 150,
      "rɔ": 151,
      "hw": 152,
      "to": 153,
      "di": 154,
      "ba": 155,
      "dz": 156,
      "Na": 157,
      "fu": 158,
      "po": 159,
      "nom": 160,
      "nipa": 161,
      "am": 162,
      "Mm": 163,
      "sisi": 164,
      "wɔre": 165,
      "we": 166,
      "ree": 167,
      "bo": 168,
      "taa": 169,
      "aho": 170,
      "ata": 171,
      "ebi": 172,
      "nn": 173,
      "anim": 174,
      "rɛ": 175,
      "ran": 176,
      "mmi": 177,
      "ua": 178,
      "kyɛn": 179,
      "tum": 180,
      "bree": 181,
      "nyina": 182,
      "suo": 183,
      "rima": 184,
      "bebree": 185,
      "hwɛ": 186,
      "da": 187,
      "ti": 188,
      "enu": 189,
      "tun": 190,
      "ɛn": 191,
      "nyinaa": 192,
      "ataa": 193,
      "yia": 194,
      "tuntum": 195,
      "ɔre": 196,
      "ki": 197,
      "kɔɔ": 198,
      "dze": 199,
      "fitaa": 200,
      "teɛ": 201,
      "ka": 202,
      "fra": 203,
      "nkyɛn": 204,
      "wo": 205,
      "mo": 206,
      "kɔkɔɔ": 207,
      "wu": 208,
      "ranteɛ": 209,
      "mmienu": 210,
      "yehyɛ": 211,
      "Nnipa": 212,
      "me": 213,
      "ɛna": 214,
      "kye": 215,
      "ad": 216,
      "ako": 217,
      "ya": 218,
      "eɛ": 219,
      "wan": 220,
      "ɛwɔ": 221,
      "Wɔn": 222,
      "kita": 223,
      "ɔn": 224,
      "mma": 225,
      "fam": 226,
      "ha": 227,
      "bea": 228,
      "Ebi": 229,
      "ahyia": 230,
      "pono": 231,
      "ten": 232,
      "hɔn": 233,
      "nam": 234,
      "aame": 235,
      "soro": 236,
      "neɛ": 237,
      "adeɛ": 238,
      "kwan": 239,
      "ɛyɛ": 240,
      "wɔde": 241,
      "ase": 242,
      "ɛse": 243,
      "hyɛn": 244,
      "doɔ": 245,
      "as": 246,
      "ɔhyɛ": 247,
      "nk": 248,
      "abɔ": 249,
      "esi": 250,
      "nnwa": 251,
      "kyi": 252,
      "nan": 253,
      "rɔfo": 254,
      "ɛɛ": 255,
      "ɛre": 256,
      "wuma": 257,
      "hyehyɛ": 258,
      "fa": 259,
      "ane": 260,
      "wi": 261,
      "abo": 262,
      "neɛma": 263,
      "tete": 264,
      "atwa": 265,
      "dua": 266,
      "fufu": 267,
      "le": 268,
      "mpa": 269,
      "ahosuo": 270,
      "kyerɛ": 271,
      "apa": 272,
      "twe": 273,
      "aako": 274,
      "ke": 275,
      "rɔfoɔ": 276,
      "gya": 277,
      "mfi": 278,
      "nto": 279,
      "ano": 280,
      "aka": 281,
      "pi": 282,
      "ɔm": 283,
      "bu": 284,
      "nsuo": 285,
      "Mma": 286,
      "daa": 287,
      "twa": 288,
      "mmaa": 289,
      "Maame": 290,
      "kaa": 291,
      "aku": 292,
      "ara": 293,
      "Baako": 294,
      "binom": 295,
      "sɛ": 296,
      "nneɛma": 297,
      "aba": 298,
      "tse": 299,
      "ban": 300,
      "gyinagyina": 301,
      "Mmaa": 302,
      "kura": 303,
      "mmarima": 304,
      "ayɛ": 305,
      "du": 306,
      "wadaa": 307,
      "ataade": 308,
      "kɛse": 309,
      "ɔfra": 310,
      "ar": 311,
      "ntoma": 312,
      "yewa": 313,
      "lo": 314,
      "ato": 315,
      "sra": 316,
      "yin": 317,
      "Nku": 318,
      "die": 319,
      "ag": 320,
      "ɔde": 321,
      "nko": 322,
      "akokɔ": 323,
      "kor": 324,
      "nnipa": 325,
      "san": 326,
      "ahyehyɛ": 327,
      "asi": 328,
      "ahyɛ": 329,
      "beaeɛ": 330,
      "ap": 331,
      "mp": 332,
      "Nk": 333,
      "aban": 334,
      "ekyi": 335,
      "ɔyɛ": 336,
      "dzi": 337,
      "ahodoɔ": 338,
      "fɛ": 339,
      "adwuma": 340,
      "nku": 341,
      "eranteɛ": 342,
      "mfo": 343,
      "agu": 344,
      "kɛseɛ": 345,
      "kɔn": 346,
      "tɔ": 347,
      "wura": 348,
      "nu": 349,
      "sradeɛ": 350,
      "ɛbi": 351,
      "li": 352,
      "fufuo": 353,
      "ade": 354,
      "ɛne": 355,
      "ru": 356,
      "baawa": 357,
      "akye": 358,
      "Mmarima": 359,
      "dwa": 360,
      "akonnwa": 361,
      "tenten": 362,
      "bl": 363,
      "nta": 364,
      "nin": 365,
      "Papa": 366,
      "kuta": 367,
      "Bi": 368,
      "beranteɛ": 369,
      "ue": 370,
      "ɛdan": 371,
      "wɔdze": 372,
      "ekyir": 373,
      "ama": 374,
      "Ɔbaa": 375,
      "barima": 376,
      "ea": 377,
      "hyia": 378,
      "afi": 379,
      "ɔmo": 380,
      "nsam": 381,
      "dɔm": 382,
      "tɔn": 383,
      "ahwe": 384,
      "atadeɛ": 385,
      "asa": 386,
      "mi": 387,
      "ɛhyɛ": 388,
      "paku": 389,
      "akɔ": 390,
      "tena": 391,
      "nua": 392,
      "dɛ": 393,
      "ɛnsa": 394,
      "bibi": 395,
      "maame": 396,
      "sɛn": 397,
      "kasa": 398,
      "nnua": 399,
      "ɛnna": 400,
      "ahaban": 401,
      "pii": 402,
      "nyi": 403,
      "ɛkyɛ": 404,
      "Nkurɔfoɔ": 405,
      "Abo": 406,
      "sia": 407,
      "ataadeɛ": 408,
      "pe": 409,
      "baabi": 410,
      "sere": 411,
      "ɔbaa": 412,
      "egyina": 413,
      "mono": 414,
      "pakuo": 415,
      "ɛte": 416,
      "wɔhyɛ": 417,
      "dwuma": 418,
      "aso": 419,
      "mmiɛnsa": 420,
      "boa": 421,
      "hɔnom": 422,
      "ren": 423,
      "papa": 424,
      "atade": 425,
      "Nko": 426,
      "rehwɛ": 427,
      "Mmeranteɛ": 428,
      "sua": 429,
      "he": 430,
      "hwi": 431,
      "adze": 432,
      "ntaa": 433,
      "ahwehwɛ": 434,
      "bobɔ": 435,
      "atar": 436,
      "anea": 437,
      "kete": 438,
      "Ebinom": 439,
      "able": 440,
      "Mmɔfra": 441,
      "obi": 442,
      "wom": 443,
      "enyi": 444,
      "row": 445,
      "akyire": 446,
      "Ab": 447,
      "ɔte": 448,
      "ago": 449,
      "mba": 450,
      "tene": 451,
      "wɔrehwɛ": 452,
      "adu": 453,
      "em": 454,
      "Ɛbi": 455,
      "raa": 456,
      "hwe": 457,
      "Ɛdan": 458,
      "asɔ": 459,
      "kuu": 460,
      "blue": 461,
      "ge": 462,
      "man": 463,
      "ataare": 464,
      "mmo": 465,
      "koto": 466,
      "wɔwɔ": 467,
      "kuo": 468,
      "gye": 469,
      "nnu": 470,
      "redi": 471,
      "gugu": 472,
      "duku": 473,
      "nsu": 474,
      "twerɛ": 475,
      "akata": 476,
      "wɔreyɛ": 477,
      "ebinom": 478,
      "tsena": 479,
      "Nnua": 480,
      "nipakuo": 481,
      "mmɔfra": 482,
      "kyɛw": 483,
      "pan": 484,
      "hu": 485,
      "Aberanteɛ": 486,
      "rankaa": 487,
      "Dan": 488,
      "sɔ": 489,
      "Ni": 490,
      "eɛnsa": 491,
      "fɛɛ": 492,
      "mfimfi": 493,
      "afa": 494,
      "ɔnkɔ": 495,
      "akokɔsradeɛ": 496,
      "table": 497,
      "niwa": 498,
      "gua": 499,
      "fufuw": 500,
      "mpaboa": 501,
      "Binom": 502,
      "nkonnwa": 503,
      "kak": 504,
      "sen": 505,
      "rebɔ": 506,
      "car": 507,
      "Obi": 508,
      "esisi": 509,
      "iɛ": 510,
      "nnan": 511,
      "rataa": 512,
      "mmeɛnsa": 513,
      "ebien": 514,
      "Po": 515,
      "esie": 516,
      "bɛ": 517,
      "dodoɔ": 518,
      "lisi": 519,
      "nwura": 520,
      "hi": 521,
      "saa": 522,
      "co": 523,
      "frankaa": 524,
      "ahwehwɛniwa": 525,
      "baayewa": 526,
      "mmɔ": 527,
      "ɛde": 528,
      "sk": 529,
      "Wɔde": 530,
      "hwiren": 531,
      "tsi": 532,
      "resa": 533,
      "Ko": 534,
      "atwe": 535,
      "anin": 536,
      "tiri": 537,
      "pɔnkɔ": 538,
      "afidie": 539,
      "Aba": 540,
      "Nnipakuo": 541,
      "reyɛ": 542,
      "twene": 543,
      "yie": 544,
      "Aborɔfo": 545,
      "wɔgyina": 546,
      "roni": 547,
      "tam": 548,
      "mfonin": 549,
      "ɛpono": 550,
      "aduane": 551,
      "la": 552,
      "ɛsi": 553,
      "nkwadaa": 554,
      "ɛhyɛn": 555,
      "fɛɛfɛ": 556,
      "pon": 557,
      "twi": 558,
      "Nkwadaa": 559,
      "llo": 560,
      "didi": 561,
      "afu": 562,
      "wɔte": 563,
      "Ba": 564,
      "fie": 565,
      "adaka": 566,
      "apagya": 567,
      "ɔɔre": 568,
      "wiem": 569,
      "enyim": 570,
      "egu": 571,
      "Ɔbaako": 572,
      "akɛse": 573,
      "Ɔhyɛ": 574,
      "Mmi": 575,
      "Mmo": 576,
      "Ɛna": 577,
      "wɔahyehyɛ": 578,
      "kan": 579,
      "pɔ": 580,
      "kama": 581,
      "deda": 582,
      "asɛ": 583,
      "nim": 584,
      "ɛnt": 585,
      "beebi": 586,
      "ente": 587,
      "pɛ": 588,
      "atu": 589,
      "abobɔ": 590,
      "ɛda": 591,
      "mask": 592,
      "mfimfini": 593,
      "abi": 594,
      "Bea": 595,
      "af": 596,
      "sor": 597,
      "ɔrehwɛ": 598,
      "ahyi": 599,
      "Nipa": 600,
      "kakra": 601,
      "go": 602,
      "ɔwɔ": 603,
      "atare": 604,
      "akyerɛ": 605,
      "yɛde": 606,
      "abu": 607,
      "fidie": 608,
      "polisi": 609,
      "agye": 610,
      "wɔyɛ": 611,
      "Barima": 612,
      "Mmranteɛ": 613,
      "abɔfra": 614,
      "rs": 615,
      "ɛnam": 616,
      "dɔ": 617,
      "kyɛnse": 618,
      "ll": 619,
      "tsir": 620,
      "nose": 621,
      "ve": 622,
      "rekɔ": 623,
      "bɔfra": 624,
      "yɛn": 625,
      "agorɔ": 626,
      "nwa": 627,
      "paa": 628,
      "panin": 629,
      "wea": 630,
      "nkum": 631,
      "ahoma": 632,
      "akyekye": 633,
      "Kaa": 634,
      "nke": 635,
      "gy": 636,
      "ɛntɛn": 637,
      "biri": 638,
      "sukuu": 639,
      "ahorow": 640,
      "adan": 641,
      "Mmienu": 642,
      "nenam": 643,
      "hone": 644,
      "wɔredi": 645,
      "Abranteɛ": 646,
      "kit": 647,
      "kente": 648,
      "nkɔ": 649,
      "niiɛ": 650,
      "Ɛhyɛn": 651,
      "ame": 652,
      "animfoɔ": 653,
      "nhyɛ": 654,
      "naa": 655,
      "retwa": 656,
      "mmeranteɛ": 657,
      "ahyiam": 658,
      "ɛso": 659,
      "esia": 660,
      "nkurɔfoɔ": 661,
      "besia": 662,
      "bibifoɔ": 663,
      "Aman": 664,
      "aberanteɛ": 665,
      "fɛfɛɛfɛ": 666,
      "Car": 667,
      "bɔɔ": 668,
      "Nsuo": 669,
      "nyin": 670,
      "tuo": 671,
      "dwumayɛ": 672,
      "wɔrebɔ": 673,
      "tsen": 674,
      "Ne": 675,
      "benkum": 676,
      "ahabanmono": 677,
      "maa": 678,
      "phone": 679,
      "ketewa": 680,
      "wɔhyehyɛ": 681,
      "kuro": 682,
      "fura": 683,
      "Abaayewa": 684,
      "lɔɔre": 685,
      "Nkurɔfo": 686,
      "baasa": 687,
      "aman": 688,
      "nifa": 689,
      "abɔn": 690,
      "aboa": 691,
      "asiesie": 692,
      "in": 693,
      "fofo": 694,
      "mme": 695,
      "top": 696,
      "biribi": 697,
      "Bo": 698,
      "Hɔn": 699,
      "Nyi": 700,
      "asisi": 701,
      "nhwiren": 702,
      "Nkonnwa": 703,
      "ɔso": 704,
      "anwea": 705,
      "tɛ": 706,
      "koro": 707,
      "firi": 708,
      "moto": 709,
      "bibire": 710,
      "atwerɛ": 711,
      "wɛ": 712,
      "ɔbaako": 713,
      "wɔnam": 714,
      "reen": 715,
      "baage": 716,
      "kyerɛkyerɛ": 717,
      "nea": 718,
      "mpo": 719,
      "ɔgyina": 720,
      "wɔro": 721,
      "nna": 722,
      "bebe": 723,
      "kiti": 724,
      "woe": 725,
      "hwene": 726,
      "llow": 727,
      "akɛseɛ": 728,
      "Adan": 729,
      "ndua": 730,
      "ɛbɔ": 731,
      "resere": 732,
      "krataa": 733,
      "pra": 734,
      "mmabaawa": 735,
      "sɛm": 736,
      "ntaade": 737,
      "Ababaawa": 738,
      "Ɔmo": 739,
      "Nyimpa": 740,
      "nsia": 741,
      "ɛgyina": 742,
      "dadeɛ": 743,
      "woma": 744,
      "Kor": 745,
      "yellow": 746,
      "aborɔfo": 747,
      "Su": 748,
      "aya": 749,
      "kɛntɛn": 750,
      "wogyina": 751,
      "bɛyɛ": 752,
      "ati": 753,
      "ronin": 754,
      "santene": 755,
      "nyimpa": 756,
      "beberee": 757,
      "akwadaa": 758,
      "bag": 759,
      "aptop": 760,
      "Abɔfra": 761,
      "dzɛ": 762,
      "nnum": 763,
      "Pono": 764,
      "abien": 765,
      "akyekyere": 766,
      "ɔno": 767,
      "ɔdze": 768,
      "Nneɛma": 769,
      "green": 770,
      "mpanimfoɔ": 771,
      "ɛmu": 772,
      "waa": 773,
      "ter": 774,
      "Ak": 775,
      "ɔma": 776,
      "kodoɔ": 777,
      "bɔtɔ": 778,
      "panyin": 779,
      "polisifoɔ": 780,
      "Amanfoɔ": 781,
      "ng": 782,
      "ɛnso": 783,
      "saw": 784,
      "agyina": 785,
      "tan": 786,
      "aki": 787,
      "dade": 788,
      "Mmaayewa": 789,
      "abe": 790,
      "fɔm": 791,
      "osi": 792,
      "hɛn": 793,
      "ɔɔ": 794,
      "Nnipadɔm": 795,
      "ɛɛma": 796,
      "Ako": 797,
      "ee": 798,
      "on": 799,
      "mua": 800,
      "kyiniiɛ": 801,
      "ntaadeɛ": 802,
      "ɛtete": 803,
      "asosɔ": 804,
      "Mmofra": 805,
      "Bu": 806,
      "Nwura": 807,
      "tee": 808,
      "nson": 809,
      "boo": 810,
      "ce": 811,
      "mmono": 812,
      "cle": 813,
      "wɔaka": 814,
      "Adwumayɛ": 815,
      "hyi": 816,
      "enyin": 817,
      "akyir": 818,
      "apata": 819,
      "sensɛn": 820,
      "frɛ": 821,
      "sie": 822,
      "pia": 823,
      "sraa": 824,
      "tewa": 825,
      "dwe": 826,
      "el": 827,
      "etwa": 828,
      "ir": 829,
      "tra": 830,
      "ahyɛnso": 831,
      "nno": 832,
      "whe": 833,
      "akita": 834,
      "cy": 835,
      "ogyina": 836,
      "soɔ": 837,
      "fira": 838,
      "mpan": 839,
      "ayi": 840,
      "bia": 841,
      "toma": 842,
      "abɔnten": 843,
      "dzɛmba": 844,
      "emu": 845,
      "kanea": 846,
      "benyin": 847,
      "afiri": 848,
      "Hyɛn": 849,
      "hye": 850,
      "mfidie": 851,
      "Ku": 852,
      "Ɔde": 853,
      "Wɔre": 854,
      "ck": 855,
      "egya": 856,
      "okita": 857,
      "ɛgu": 858,
      "wɔtɔn": 859,
      "Wɔhyɛ": 860,
      "nkɔmmɔ": 861,
      "Mfo": 862,
      "al": 863,
      "akwan": 864,
      "ket": 865,
      "wɔtete": 866,
      "cycle": 867,
      "anan": 868,
      "nwi": 869,
      "um": 870,
      "yaa": 871,
      "nkyɛnse": 872,
      "mfoni": 873,
      "dwam": 874,
      "ntam": 875,
      "ntadeɛ": 876,
      "Beaeɛ": 877,
      "Nhwiren": 878,
      "nkanea": 879,
      "Maamefoɔ": 880,
      "ɔbarima": 881,
      "sini": 882,
      "ridzi": 883,
      "buroni": 884,
      "hwehwɛ": 885,
      "adi": 886,
      "atenten": 887,
      "nwoma": 888,
      "ɛrekɔ": 889,
      "akura": 890,
      "dɛm": 891,
      "Nnu": 892,
      "lɔre": 893,
      "wen": 894,
      "foforɔ": 895,
      "kora": 896,
      "pagya": 897,
      "ɛɛfo": 898,
      "ebaasa": 899,
      "ɛho": 900,
      "rofoɔ": 901,
      "besiafo": 902,
      "ei": 903,
      "kwa": 904,
      "noa": 905,
      "rekasa": 906,
      "ɛrehwɛ": 907,
      "abammono": 908,
      "Gha": 909,
      "ate": 910,
      "laa": 911,
      "soso": 912,
      "dadze": 913,
      "ruwa": 914,
      "hel": 915,
      "mmerɛ": 916,
      "ur": 917,
      "ɔdan": 918,
      "abranteɛ": 919,
      "Wɔyɛ": 920,
      "wowɔ": 921,
      "kitakita": 922,
      "Be": 923,
      "abibifoɔ": 924,
      "kɛ": 925,
      "laptop": 926,
      "ndzɛmba": 927,
      "reba": 928,
      "bokiti": 929,
      "abofra": 930,
      "Mmabaawa": 931,
      "dziban": 932,
      "Ghana": 933,
      "Nsu": 934,
      "abaayewa": 935,
      "las": 936,
      "ahabammono": 937,
      "nkrataa": 938,
      "keteke": 939,
      "mmofra": 940,
      "Akwadaa": 941,
      "rakura": 942,
      "st": 943,
      "homa": 944,
      "kurakura": 945,
      "Wɔahyehyɛ": 946,
      "bofra": 947,
      "adua": 948,
      "wia": 949,
      "nketewa": 950,
      "brow": 951,
      "ɛtwa": 952,
      "noho": 953,
      "Nkrɔfoɔ": 954,
      "wiemhyɛn": 955,
      "bɛn": 956,
      "ɛsisi": 957,
      "mpoano": 958,
      "ahyɛnsodeɛ": 959,
      "wheel": 960,
      "tare": 961,
      "gyafoɔ": 962,
      "mfimfin": 963,
      "Akonnwa": 964,
      "Abu": 965,
      "cha": 966,
      "ehyia": 967,
      "Ɔbarima": 968,
      "ɛkyi": 969,
      "rekyerɛ": 970,
      "abue": 971,
      "brown": 972,
      "sika": 973,
      "amo": 974,
      "Baa": 975,
      "foro": 976,
      "funu": 977,
      "Mmayewa": 978,
      "Nkorɔfoɔ": 979,
      "afadeɛ": 980,
      "Nkurɔfokuo": 981,
      "abaa": 982,
      "daka": 983,
      "ɔpono": 984,
      "wɔahyia": 985,
      "korɔ": 986,
      "akonwa": 987,
      "lowe": 988,
      "atoto": 989,
      "mienu": 990,
      "resabea": 991,
      "kyerɛkyerɛni": 992,
      "faako": 993,
      "wɔatwerɛ": 994,
      "wabɔ": 995,
      "wɔrekɔ": 996,
      "Nipakuo": 997,
      "Adwumayɛfoɔ": 998,
      "ɛma": 999,
      "wɔkita": 1000,
      "famu": 1001,
      "abansoro": 1002,
      "Mmea": 1003,
      "ɛrebɔ": 1004,
      "ntar": 1005,
      "miiɛ": 1006,
      "didipono": 1007,
      "Wi": 1008,
      "bra": 1009,
      "ɛpo": 1010,
      "biara": 1011,
      "aseɛ": 1012,
      "ntama": 1013,
      "serew": 1014,
      "enyiwa": 1015,
      "Aso": 1016,
      "nsɛm": 1017,
      "wl": 1018,
      "ɔbɔ": 1019,
      "akyiri": 1020,
      "asɔre": 1021,
      "ababaawa": 1022,
      "edwuma": 1023,
      "ɛhyehyɛ": 1024,
      "tie": 1025,
      "Nkorɔfo": 1026,
      "kyɛnsee": 1027,
      "ves": 1028,
      "Dua": 1029,
      "ahyɛn": 1030,
      "ɛhyia": 1031,
      "rokɔ": 1032,
      "rika": 1033,
      "obiara": 1034,
      "whi": 1035,
      "Ɛpono": 1036,
      "wɔfrɛ": 1037,
      "resi": 1038,
      "den": 1039,
      "rante": 1040,
      "adwumayɛ": 1041,
      "Abofra": 1042,
      "Saa": 1043,
      "pata": 1044,
      "mmea": 1045,
      "ɔrebɔ": 1046,
      "asraa": 1047,
      "amena": 1048,
      "akwanhyia": 1049,
      "Akwan": 1050,
      "Ahyɛn": 1051,
      "ene": 1052,
      "yɔ": 1053,
      "bol": 1054,
      "met": 1055,
      "sensan": 1056,
      "bɔɔlo": 1057,
      "nnoɔma": 1058,
      "ɔne": 1059,
      "tor": 1060,
      "Nkanea": 1061,
      "Polisi": 1062,
      "kamakama": 1063,
      "asɛm": 1064,
      "chair": 1065,
      "Kanea": 1066,
      "Wo": 1067,
      "es": 1068,
      "wɔm": 1069,
      "wɔtsena": 1070,
      "kuruwa": 1071,
      "ball": 1072,
      "asen": 1073,
      "mpu": 1074,
      "rt": 1075,
      "Ɛbinom": 1076,
      "ɔdi": 1077,
      "horo": 1078,
      "benyi": 1079,
      "ahye": 1080,
      "ahwɛ": 1081,
      "ɔreyɛ": 1082,
      "asene": 1083,
      "nohoa": 1084,
      "om": 1085,
      "ɔkita": 1086,
      "refoɔ": 1087,
      "fon": 1088,
      "rahyɛ": 1089,
      "abɛɛfo": 1090,
      "kube": 1091,
      "colo": 1092,
      "helmet": 1093,
      "Ade": 1094,
      "Aban": 1095,
      "Do": 1096,
      "Deɛ": 1097,
      "efu": 1098,
      "glo": 1099,
      "ɛhɔ": 1100,
      "ɛhwɛ": 1101,
      "rɔba": 1102,
      "tow": 1103,
      "akasa": 1104,
      "bue": 1105,
      "cars": 1106,
      "Cars": 1107,
      "kurom": 1108,
      "Mfonin": 1109,
      "Apolisifoɔ": 1110,
      "ol": 1111,
      "ɛsoro": 1112,
      "nsamu": 1113,
      "butu": 1114,
      "amanfoɔ": 1115,
      "Sukuu": 1116,
      "lowers": 1117,
      "Abibifoɔ": 1118,
      "edi": 1119,
      "fe": 1120,
      "nka": 1121,
      "tutu": 1122,
      "ɔyɛkyerɛ": 1123,
      "mic": 1124,
      "atene": 1125,
      "enim": 1126,
      "kata": 1127,
      "nti": 1128,
      "vi": 1129,
      "ɔkuta": 1130,
      "wɔato": 1131,
      "tire": 1132,
      "ɛredi": 1133,
      "kyerɛw": 1134,
      "blu": 1135,
      "ataareɛ": 1136,
      "boframba": 1137,
      "atena": 1138,
      "muadeɛ": 1139,
      "nante": 1140,
      "akuta": 1141,
      "duane": 1142,
      "wuraba": 1143,
      "line": 1144,
      "Asraa": 1145,
      "Ban": 1146,
      "Mp": 1147,
      "ntum": 1148,
      "trɔ": 1149,
      "wɔayɛ": 1150,
      "wɔahyɛ": 1151,
      "fom": 1152,
      "nnwom": 1153,
      "ɔrekasa": 1154,
      "ard": 1155,
      "prama": 1156,
      "lass": 1157,
      "Besia": 1158,
      "Lɔɔre": 1159,
      "bre": 1160,
      "egua": 1161,
      "tro": 1162,
      "ɔkura": 1163,
      "rehyɛ": 1164,
      "rosan": 1165,
      "dza": 1166,
      "wɔresa": 1167,
      "dware": 1168,
      "hyiren": 1169,
      "Table": 1170,
      "cket": 1171,
      "efi": 1172,
      "ɛbinom": 1173,
      "wɔatwa": 1174,
      "anya": 1175,
      "ake": 1176,
      "raman": 1177,
      "ber": 1178,
      "wene": 1179,
      "bowl": 1180,
      "banku": 1181,
      "nnuane": 1182,
      "llon": 1183,
      "Ndua": 1184,
      "bronin": 1185,
      "ukuu": 1186,
      "wɔabɔ": 1187,
      "red": 1188,
      "Wɔhyehyɛ": 1189,
      "dodo": 1190,
      "rɔsan": 1191,
      "mmaayewa": 1192,
      "apegya": 1193,
      "nnadeɛ": 1194,
      "edziban": 1195,
      "sane": 1196,
      "ɛt": 1197,
      "wahyɛ": 1198,
      "kut": 1199,
      "asaw": 1200,
      "asase": 1201,
      "coat": 1202,
      "Aya": 1203,
      "anaa": 1204,
      "nyɛ": 1205,
      "ngua": 1206,
      "ɔba": 1207,
      "ɛrima": 1208,
      "ɛɛse": 1209,
      "anum": 1210,
      "abɛ": 1211,
      "Nkrɔfo": 1212,
      "hene": 1213,
      "asɛe": 1214,
      "cre": 1215,
      "chi": 1216,
      "ekuta": 1217,
      "pl": 1218,
      "ɔtɔn": 1219,
      "ahu": 1220,
      "ahah": 1221,
      "wɔresaw": 1222,
      "ahosu": 1223,
      "woridzi": 1224,
      "twere": 1225,
      "bla": 1226,
      "ahweneɛ": 1227,
      "kitsa": 1228,
      "allon": 1229,
      "dwom": 1230,
      "anyi": 1231,
      "waraa": 1232,
      "atɔ": 1233,
      "roɔ": 1234,
      "tae": 1235,
      "board": 1236,
      "ntade": 1237,
      "Abrɔfo": 1238,
      "ayaresabea": 1239,
      "kɛtɛ": 1240,
      "kutakuta": 1241,
      "dam": 1242,
      "oran": 1243,
      "atɛkyɛ": 1244,
      "ramo": 1245,
      "wɔresi": 1246,
      "atuntum": 1247,
      "gyaa": 1248,
      "motor": 1249,
      "asraafoɔ": 1250,
      "So": 1251,
      "cu": 1252,
      "wɔɔ": 1253,
      "tere": 1254,
      "srade": 1255,
      "tɔɔ": 1256,
      "gloves": 1257,
      "orange": 1258,
      "broni": 1259,
      "ctor": 1260,
      "glass": 1261,
      "ɔda": 1262,
      "ɛkwan": 1263,
      "bepɔ": 1264,
      "nkonwa": 1265,
      "akɔkɔɔ": 1266,
      "Kodoɔ": 1267,
      "Dodoɔ": 1268,
      "Adeɛ": 1269,
      "ehu": 1270,
      "gh": 1271,
      "mbaa": 1272,
      "nhoma": 1273,
      "ɔka": 1274,
      "wɔtena": 1275,
      "sol": 1276,
      "sofi": 1277,
      "akan": 1278,
      "banyin": 1279,
      "twerɛdua": 1280,
      "nye": 1281,
      "srɛ": 1282,
      "wɔa": 1283,
      "reɛ": 1284,
      "atakata": 1285,
      "kuw": 1286,
      "rɛn": 1287,
      "nkurɔfo": 1288,
      "redidi": 1289,
      "Buroni": 1290,
      "mpanyin": 1291,
      "black": 1292,
      "Aduane": 1293,
      "TV": 1294,
      "ete": 1295,
      "ekita": 1296,
      "hɛ": 1297,
      "ɔto": 1298,
      "ɛsɛ": 1299,
      "and": 1300,
      "rɔdeɛ": 1301,
      "ɔrekɔ": 1302,
      "ɔmɔ": 1303,
      "kaar": 1304,
      "afura": 1305,
      "Nipadɔm": 1306,
      "teebol": 1307,
      "nkyɛnsee": 1308,
      "Nni": 1309,
      "et": 1310,
      "ks": 1311,
      "kya": 1312,
      "res": 1313,
      "pae": 1314,
      "sumiiɛ": 1315,
      "bammɔ": 1316,
      "wɔretwa": 1317,
      "ahoroɔ": 1318,
      "asaa": 1319,
      "num": 1320,
      "afadze": 1321,
      "Wiem": 1322,
      "Abaa": 1323,
      "Dɔm": 1324,
      "Kyi": 1325,
      "Mbaa": 1326,
      "Nea": 1327,
      "gi": 1328,
      "Ɛdɔm": 1329,
      "ɛfam": 1330,
      "annua": 1331,
      "kota": 1332,
      "sesa": 1333,
      "ensa": 1334,
      "akoto": 1335,
      "apampa": 1336,
      "nkorɔfo": 1337,
      "ruma": 1338,
      "pakuw": 1339,
      "bibifo": 1340,
      "bibini": 1341,
      "agor": 1342,
      "adwumayɛfoɔ": 1343,
      "Ntoma": 1344,
      "Oburoni": 1345,
      "agya": 1346,
      "mbɔ": 1347,
      "nsensan": 1348,
      "pane": 1349,
      "yo": 1350,
      "wɔgyinagyina": 1351,
      "bicycle": 1352,
      "koo": 1353,
      "abrɔfo": 1354,
      "Wɔdze": 1355,
      "ɔretɔn": 1356,
      "ɔresere": 1357,
      "koraa": 1358,
      "mmoa": 1359,
      "abere": 1360,
      "micro": 1361,
      "ght": 1362,
      "solar": 1363,
      "panel": 1364,
      "Asa": 1365,
      "haban": 1366,
      "lag": 1367,
      "nee": 1368,
      "nensa": 1369,
      "hohoro": 1370,
      "rimaa": 1371,
      "Wɔkita": 1372,
      "ahofa": 1373,
      "ɛreyɛ": 1374,
      "dum": 1375,
      "pepa": 1376,
      "agoprama": 1377,
      "akyerɛw": 1378,
      "dɔɔso": 1379,
      "sraani": 1380,
      "Afidie": 1381,
      "ch": 1382,
      "efie": 1383,
      "mbesiafo": 1384,
      "nt": 1385,
      "nnipakuo": 1386,
      "use": 1387,
      "wɔasiesie": 1388,
      "enti": 1389,
      "ron": 1390,
      "badwam": 1391,
      "ɛretwa": 1392,
      "keka": 1393,
      "banbɔ": 1394,
      "mpanin": 1395,
      "suafoɔ": 1396,
      "nnuaba": 1397,
      "akyekyer": 1398,
      "amera": 1399,
      "tsentsen": 1400,
      "dadesɛn": 1401,
      "chine": 1402,
      "Af": 1403,
      "Asra": 1404,
      "Nn": 1405,
      "Yɛ": 1406,
      "flowers": 1407,
      "sh": 1408,
      "sta": 1409,
      "retu": 1410,
      "yinam": 1411,
      "akra": 1412,
      "bebi": 1413,
      "kua": 1414,
      "mmirika": 1415,
      "beae": 1416,
      "akuo": 1417,
      "kasamu": 1418,
      "Baabi": 1419,
      "Mbesiafo": 1420,
      "gyin": 1421,
      "gallon": 1422,
      "ntwene": 1423,
      "Ɔdan": 1424,
      "Ɛyɛ": 1425,
      "ref": 1426,
      "retwi": 1427,
      "siesie": 1428,
      "see": 1429,
      "ahwen": 1430,
      "kyen": 1431,
      "ɔden": 1432,
      "agugu": 1433,
      "dwadi": 1434,
      "maamefoɔ": 1435,
      "pem": 1436,
      "apagyapagya": 1437,
      "atareɛ": 1438,
      "white": 1439,
      "Akwantu": 1440,
      "colour": 1441,
      "Asraafoɔ": 1442,
      "Frankaa": 1443,
      "Lɔre": 1444,
      "awe": 1445,
      "awo": 1446,
      "nhyiren": 1447,
      "ɔnam": 1448,
      "wɔso": 1449,
      "wɔdi": 1450,
      "reto": 1451,
      "akatakata": 1452,
      "toa": 1453,
      "toes": 1454,
      "kyere": 1455,
      "abayewa": 1456,
      "duukuu": 1457,
      "nkorɔfoɔ": 1458,
      "ver": 1459,
      "gyata": 1460,
      "retwam": 1461,
      "bebiree": 1462,
      "apolisifoɔ": 1463,
      "bua": 1464,
      "bɛɛma": 1465,
      "ekura": 1466,
      "ia": 1467,
      "kyia": 1468,
      "okura": 1469,
      "pla": 1470,
      "gyinabea": 1471,
      "dada": 1472,
      "asɛn": 1473,
      "pink": 1474,
      "Mmoa": 1475,
      "bɔɔl": 1476,
      "Ago": 1477,
      "Benyin": 1478,
      "Dwa": 1479,
      "Emu": 1480,
      "Gy": 1481,
      "Si": 1482,
      "egyinagyina": 1483,
      "mfu": 1484,
      "tw": 1485,
      "ɛnim": 1486,
      "wɔhɔ": 1487,
      "sodeɛ": 1488,
      "atwi": 1489,
      "mmranteɛ": 1490,
      "ahata": 1491,
      "wɔredzi": 1492,
      "wɔretɔn": 1493,
      "tumtum": 1494,
      "ɛdeda": 1495,
      "Bokiti": 1496,
      "dadepɔnkɔ": 1497,
      "trouse": 1498,
      "Laptop": 1499,
      "Mo": 1500,
      "Mpa": 1501,
      "ena": 1502,
      "etuo": 1503,
      "gri": 1504,
      "mfoɔ": 1505,
      "ɛm": 1506,
      "ɛtam": 1507,
      "ango": 1508,
      "neaba": 1509,
      "sing": 1510,
      "atsen": 1511,
      "kutu": 1512,
      "sum": 1513,
      "tar": 1514,
      "Wɔte": 1515,
      "basa": 1516,
      "boɔ": 1517,
      "ɔredi": 1518,
      "ɔrekyerɛ": 1519,
      "let": 1520,
      "Nkurofoɔ": 1521,
      "gyeene": 1522,
      "con": 1523,
      "resaw": 1524,
      "sukuufoɔ": 1525,
      "esiafo": 1526,
      "Bebree": 1527,
      "Nnipakuw": 1528,
      "Wiemhyɛn": 1529,
      "ana": 1530,
      "hy": 1531,
      "Ɔkyerɛkyerɛni": 1532,
      "ɔsan": 1533,
      "ɛkoto": 1534,
      "poma": 1535,
      "wɔredidi": 1536,
      "adwa": 1537,
      "akokɔsrade": 1538,
      "pet": 1539,
      "kakraa": 1540,
      "woehyia": 1541,
      "benyinfo": 1542,
      "benyimfo": 1543,
      "Abansoro": 1544,
      "akasamu": 1545,
      "cup": 1546,
      "Abe": 1547,
      "ebu": 1548,
      "ndze": 1549,
      "nhwi": 1550,
      "odi": 1551,
      "raka": 1552,
      "ɛbobɔ": 1553,
      "yɛahyehyɛ": 1554,
      "redzi": 1555,
      "nika": 1556,
      "yere": 1557,
      "serɛ": 1558,
      "fin": 1559,
      "hwen": 1560,
      "hwea": 1561,
      "Mme": 1562,
      "wɔretu": 1563,
      "mmayewa": 1564,
      "ntoosi": 1565,
      "agudeɛ": 1566,
      "Mmorɔfo": 1567,
      "abɔntene": 1568,
      "microphone": 1569,
      "egugu": 1570,
      "sono": 1571,
      "ankaa": 1572,
      "repia": 1573,
      "mako": 1574,
      "waka": 1575,
      "wahyehyɛ": 1576,
      "rofo": 1577,
      "tadeɛ": 1578,
      "dzen": 1579,
      "wɔresua": 1580,
      "ɔretwa": 1581,
      "wokita": 1582,
      "tenkete": 1583,
      "kyiri": 1584,
      "ɛresere": 1585,
      "nsuom": 1586,
      "nnipadɔm": 1587,
      "siafo": 1588,
      "nnuro": 1589,
      "twerɛpono": 1590,
      "Obiara": 1591,
      "nketenkete": 1592,
      "ayiri": 1593,
      "efuw": 1594,
      "apampam": 1595,
      "Aha": 1596,
      "Mboframba": 1597,
      "ca": 1598,
      "etu": 1599,
      "edua": 1600,
      "flag": 1601,
      "nte": 1602,
      "nya": 1603,
      "shi": 1604,
      "Ɔbea": 1605,
      "ɔri": 1606,
      "ɔtɔ": 1607,
      "ankasa": 1608,
      "retɔ": 1609,
      "papaa": 1610,
      "kun": 1611,
      "wɔreto": 1612,
      "ahoɔden": 1613,
      "enum": 1614,
      "ɔnye": 1615,
      "ɛresa": 1616,
      "mfin": 1617,
      "nkoto": 1618,
      "santen": 1619,
      "dɔmpem": 1620,
      "ɛkyɛw": 1621,
      "nwuram": 1622,
      "him": 1623,
      "mfonini": 1624,
      "mputer": 1625,
      "atuntumfoɔ": 1626,
      "gyaade": 1627,
      "gal": 1628,
      "kro": 1629,
      "nkita": 1630,
      "nsɛn": 1631,
      "wɔtwe": 1632,
      "yimfo": 1633,
      "soa": 1634,
      "anyinam": 1635,
      "reka": 1636,
      "wama": 1637,
      "baanu": 1638,
      "tunu": 1639,
      "ɛnkyɛn": 1640,
      "wim": 1641,
      "agua": 1642,
      "tirinwi": 1643,
      "reserew": 1644,
      "Kube": 1645,
      "Asogyafoɔ": 1646,
      "Gyata": 1647,
      "Enipa": 1648,
      "bat": 1649,
      "bber": 1650,
      "ry": 1651,
      "tle": 1652,
      "ɔrokɔ": 1653,
      "wɔama": 1654,
      "wɔahyiam": 1655,
      "rema": 1656,
      "resua": 1657,
      "tea": 1658,
      "Wɔgyina": 1659,
      "wɔreyi": 1660,
      "bot": 1661,
      "ebiasa": 1662,
      "wori": 1663,
      "wie": 1664,
      "mfini": 1665,
      "ɔman": 1666,
      "atoɔ": 1667,
      "hwie": 1668,
      "Abayewa": 1669,
      "wɔrobɔ": 1670,
      "rahyɛba": 1671,
      "bluu": 1672,
      "Kyiniiɛ": 1673,
      "papaapa": 1674,
      "nkotodwe": 1675,
      "Adze": 1676,
      "Awuraba": 1677,
      "it": 1678,
      "mmu": 1679,
      "yan": 1680,
      "ɛkor": 1681,
      "mar": 1682,
      "wɔnhyɛ": 1683,
      "akyɛ": 1684,
      "nii": 1685,
      "pot": 1686,
      "amia": 1687,
      "kyenku": 1688,
      "ɛɛhwɛ": 1689,
      "ɛrema": 1690,
      "bucket": 1691,
      "kɔnmuadeɛ": 1692,
      "mmɔfoɔ": 1693,
      "abubu": 1694,
      "ation": 1695,
      "Mpanimfoɔ": 1696,
      "ahahan": 1697,
      "ramofoɔ": 1698,
      "refle": 1699,
      "plate": 1700,
      "An": 1701,
      "abibifo": 1702,
      "mfitaa": 1703,
      "pɛɛ": 1704,
      "sre": 1705,
      "Ɔsraani": 1706,
      "Ɛmu": 1707,
      "ɔbea": 1708,
      "ɛsa": 1709,
      "ɛfa": 1710,
      "ans": 1711,
      "anhwea": 1712,
      "reyi": 1713,
      "retwe": 1714,
      "regye": 1715,
      "wasɔ": 1716,
      "wapagya": 1717,
      "bee": 1718,
      "bar": 1719,
      "ɛnenam": 1720,
      "miamia": 1721,
      "kakraka": 1722,
      "pɛɛse": 1723,
      "Nnuane": 1724,
      "amona": 1725,
      "asaase": 1726,
      "Bronin": 1727,
      "Kete": 1728,
      "Ma": 1729,
      "brɛ": 1730,
      "camera": 1731,
      "men": 1732,
      "nhwehwɛ": 1733,
      "sɛɛ": 1734,
      "Ɛpo": 1735,
      "ɔtena": 1736,
      "wɔasɔ": 1737,
      "net": 1738,
      "tease": 1739,
      "bebre": 1740,
      "yer": 1741,
      "bae": 1742,
      "pole": 1743,
      "nnɔ": 1744,
      "nkyɛnkyɛn": 1745,
      "kyea": 1746,
      "nkata": 1747,
      "aborosan": 1748,
      "duaba": 1749,
      "mpɛsɛ": 1750,
      "Papafoɔ": 1751,
      "pegya": 1752,
      "atwedeɛ": 1753,
      "afei": 1754,
      "dwumayɛfo": 1755,
      "wɔrohwɛ": 1756,
      "ɛɛseni": 1757,
      "Asrafoɔ": 1758,
      "Akwantufoɔ": 1759,
      "amu": 1760,
      "ky": 1761,
      "mbanyin": 1762,
      "Ɔpanin": 1763,
      "ɔmu": 1764,
      "ɔkyerɛ": 1765,
      "ɛka": 1766,
      "ɛban": 1767,
      "wɔkura": 1768,
      "machine": 1769,
      "robɔ": 1770,
      "animfo": 1771,
      "akoko": 1772,
      "Ebien": 1773,
      "apaa": 1774,
      "mfonyin": 1775,
      "rubber": 1776,
      "petee": 1777,
      "ntaare": 1778,
      "twie": 1779,
      "tomatoes": 1780,
      "Abusu": 1781,
      "Abusua": 1782,
      "amoa": 1783,
      "Asono": 1784,
      "mpanyinfoɔ": 1785,
      "Ama": 1786,
      "Kwan": 1787,
      "ado": 1788,
      "afra": 1789,
      "ɔtsena": 1790,
      "wɔto": 1791,
      "wɔretwe": 1792,
      "borɔ": 1793,
      "tumi": 1794,
      "ɔreto": 1795,
      "ɔreserew": 1796,
      "kɔɔpo": 1797,
      "Mmaranteɛ": 1798,
      "Ɔbaatan": 1799,
      "afira": 1800,
      "twerɛfoɔ": 1801,
      "kakraba": 1802,
      "polisifo": 1803,
      "foforo": 1804,
      "Kuro": 1805,
      "aduadua": 1806,
      "wɔatwerɛtwerɛ": 1807,
      "fonni": 1808,
      "Keteke": 1809,
      "Adɔ": 1810,
      "Adwadi": 1811,
      "aforo": 1812,
      "bru": 1813,
      "gwa": 1814,
      "ibi": 1815,
      "ihu": 1816,
      "kraman": 1817,
      "mboframba": 1818,
      "ntɔ": 1819,
      "ndadze": 1820,
      "tter": 1821,
      "Ɔyɛ": 1822,
      "ɛpon": 1823,
      "wɔbɔ": 1824,
      "wɔasosɔ": 1825,
      "sosɔ": 1826,
      "sii": 1827,
      "baanan": 1828,
      "kɔmpu": 1829,
      "kunu": 1830,
      "robɛn": 1831,
      "Wɔabɔ": 1832,
      "bɔn": 1833,
      "gum": 1834,
      "wɔregye": 1835,
      "worɔ": 1836,
      "ɛnan": 1837,
      "aboaboa": 1838,
      "pipe": 1839,
      "bunu": 1840,
      "atosodeɛ": 1841,
      "tententen": 1842,
      "per": 1843,
      "bɛrima": 1844,
      "Sumiiɛ": 1845,
      "book": 1846,
      "enyinfo": 1847,
      "bankum": 1848,
      "kotafoɔ": 1849,
      "ahofasuo": 1850,
      "twɛn": 1851,
      "nkitaho": 1852,
      "Ahwehwɛ": 1853,
      "Adaka": 1854,
      "Mfidie": 1855,
      "Mehu": 1856,
      "apono": 1857,
      "dɛɛ": 1858,
      "dɔte": 1859,
      "frɔ": 1860,
      "fla": 1861,
      "hen": 1862,
      "ice": 1863,
      "nnam": 1864,
      "nkyen": 1865,
      "ple": 1866,
      "ze": 1867,
      "ɛmo": 1868,
      "ɛkoro": 1869,
      "ɛkeka": 1870,
      "renante": 1871,
      "hɔho": 1872,
      "kɔm": 1873,
      "fir": 1874,
      "ahen": 1875,
      "ahɛn": 1876,
      "amse": 1877,
      "sisisisi": 1878,
      "werɛ": 1879,
      "kaal": 1880,
      "light": 1881,
      "akɔneaba": 1882,
      "nyipa": 1883,
      "asono": 1884,
      "aduro": 1885,
      "Pon": 1886,
      "afunu": 1887,
      "pɔt": 1888,
      "gyani": 1889,
      "train": 1890,
      "atwitwa": 1891,
      "trousers": 1892,
      "kɔmputa": 1893,
      "Fam": 1894,
      "Kyɛn": 1895,
      "Nsɛn": 1896,
      "anam": 1897,
      "awia": 1898,
      "dri": 1899,
      "eyi": 1900,
      "gyi": 1901,
      "ntɔn": 1902,
      "os": 1903,
      "ove": 1904,
      "spe": 1905,
      "uku": 1906,
      "ɔkyerɛkyerɛni": 1907,
      "ɛwowɔ": 1908,
      "wɔne": 1909,
      "wɔakyerɛw": 1910,
      "rewɔ": 1911,
      "ware": 1912,
      "rall": 1913,
      "pam": 1914,
      "besi": 1915,
      "mmɛrima": 1916,
      "wɔresere": 1917,
      "ahobammɔ": 1918,
      "nnɔba": 1919,
      "kyekyere": 1920,
      "mmaranteɛ": 1921,
      "ash": 1922,
      "asan": 1923,
      "nkaa": 1924,
      "ɛɛte": 1925,
      "sɛdeɛ": 1926,
      "Bibi": 1927,
      "nyim": 1928,
      "nyiwa": 1929,
      "ntaaboo": 1930,
      "Abɛɛfo": 1931,
      "nnuannua": 1932,
      "Borɔdeɛ": 1933,
      "wɛs": 1934,
      "wheelchair": 1935,
      "asensɛn": 1936,
      "cream": 1937,
      "gyingyina": 1938,
      "angoo": 1939,
      "Abusuakuo": 1940,
      "overall": 1941,
      "Ahwe": 1942,
      "Bɛɛma": 1943,
      "Ntaa": 1944,
      "Ngua": 1945,
      "Nkyɛnse": 1946,
      "asu": 1947,
      "ogu": 1948,
      "pu": 1949,
      "penyin": 1950,
      "rry": 1951,
      "Ɔte": 1952,
      "ɔro": 1953,
      "ɔya": 1954,
      "wɔafa": 1955,
      "wɔaboa": 1956,
      "wɔabue": 1957,
      "angua": 1958,
      "wayɛ": 1959,
      "akadeɛ": 1960,
      "for": 1961,
      "forɔ": 1962,
      "atua": 1963,
      "berɛ": 1964,
      "yerɛ": 1965,
      "ahene": 1966,
      "mmiensa": 1967,
      "ataar": 1968,
      "ɔreka": 1969,
      "kyim": 1970,
      "abom": 1971,
      "aboɔ": 1972,
      "kɔnmu": 1973,
      "ntare": 1974,
      "afasuo": 1975,
      "carpet": 1976,
      "afuo": 1977,
      "ayarefoɔ": 1978,
      "Polisini": 1979,
      "trɔsa": 1980,
      "aweneɛ": 1981,
      "griin": 1982,
      "rahyɛbadwa": 1983,
      "amsey": 1984,
      "Atwe": 1985,
      "Dade": 1986,
      "Dɛm": 1987,
      "Mba": 1988,
      "Mbɔfra": 1989,
      "apo": 1990,
      "aten": 1991,
      "efidie": 1992,
      "fangoo": 1993,
      "gn": 1994,
      "han": 1995,
      "mɔ": 1996,
      "ndo": 1997,
      "nkwan": 1998,
      "osisi": 1999,
      "rak": 2000,
      "Ɛkor": 2001,
      "ɔpon": 2002,
      "wɔtse": 2003,
      "kosua": 2004,
      "beran": 2005,
      "seɛ": 2006,
      "turu": 2007,
      "abati": 2008,
      "abrɔsan": 2009,
      "ent": 2010,
      "suu": 2011,
      "Wɔtete": 2012,
      "anigye": 2013,
      "toto": 2014,
      "dibea": 2015,
      "tia": 2016,
      "mon": 2017,
      "adɔ": 2018,
      "asra": 2019,
      "ɛɛbɔ": 2020,
      "apam": 2021,
      "tsenatsena": 2022,
      "fɛɛfɛɛfɛ": 2023,
      "atwere": 2024,
      "nwira": 2025,
      "station": 2026,
      "Polisifoɔ": 2027,
      "atsentsen": 2028,
      "barrow": 2029,
      "ntɔkwa": 2030,
      "Apo": 2031,
      "Ahɛn": 2032,
      "Co": 2033,
      "Dadeɛ": 2034,
      "Ha": 2035,
      "Mbenyinfo": 2036,
      "Nkɔ": 2037,
      "Nto": 2038,
      "Se": 2039,
      "Tra": 2040,
      "ci": 2041,
      "lɔri": 2042,
      "ndwom": 2043,
      "sak": 2044,
      "sho": 2045,
      "urs": 2046,
      "wn": 2047,
      "ɔhwɛ": 2048,
      "ɛko": 2049,
      "ɛteɛ": 2050,
      "wɔakɔ": 2051,
      "noɔma": 2052,
      "regu": 2053,
      "retɔn": 2054,
      "sifoɔ": 2055,
      "nie": 2056,
      "sekan": 2057,
      "abatoɔ": 2058,
      "bɔfoɔ": 2059,
      "ahobanbɔ": 2060,
      "nyinara": 2061,
      "adwi": 2062,
      "mpaeɛ": 2063,
      "ker": 2064,
      "srahwɛ": 2065,
      "ling": 2066,
      "dwumadie": 2067,
      "aduaba": 2068,
      "hwee": 2069,
      "nsutene": 2070,
      "paneɛ": 2071,
      "huri": 2072,
      "afade": 2073,
      "afuom": 2074,
      "abie": 2075,
      "cks": 2076,
      "atere": 2077,
      "dodow": 2078,
      "Ayaresabea": 2079,
      "crete": 2080,
      "neema": 2081,
      "mpaninfoɔ": 2082,
      "ahwenneɛ": 2083,
      "singlet": 2084,
      "bebrebee": 2085,
      "Asukuufoɔ": 2086,
      "Obu": 2087,
      "bɛɛ": 2088,
      "bɛrema": 2089,
      "efiri": 2090,
      "ffi": 2091,
      "hyin": 2092,
      "mbɔfra": 2093,
      "nni": 2094,
      "nkyɛ": 2095,
      "oburoni": 2096,
      "un": 2097,
      "Ɔkita": 2098,
      "Ɛm": 2099,
      "Ɛkyɛ": 2100,
      "ℇdan": 2101,
      "Ↄbaa": 2102,
      "wɔsan": 2103,
      "wɔabobɔ": 2104,
      "watene": 2105,
      "wall": 2106,
      "kɔtɔ": 2107,
      "Wɔnam": 2108,
      "hwaa": 2109,
      "woesi": 2110,
      "ɔnko": 2111,
      "nkrɔfoɔ": 2112,
      "abɔdwe": 2113,
      "ɛrekasa": 2114,
      "abobo": 2115,
      "ɔmmu": 2116,
      "nkukuo": 2117,
      "kotoku": 2118,
      "computer": 2119,
      "pɔtɔ": 2120,
      "atuo": 2121,
      "atutu": 2122,
      "atifi": 2123,
      "mpanyimfo": 2124,
      "hyerɛn": 2125,
      "yaafi": 2126,
      "ɛtwahyia": 2127,
      "nkae": 2128,
      "Banyin": 2129,
      "efir": 2130,
      "Abaamua": 2131,
      "Afei": 2132,
      "buafoɔ": 2133,
      "Aho": 2134,
      "Broni": 2135,
      "Fi": 2136,
      "Flowers": 2137,
      "Kɔ": 2138,
      "Nna": 2139,
      "Naa": 2140,
      "anom": 2141,
      "edwa": 2142,
      "ffe": 2143,
      "hwa": 2144,
      "lɛ": 2145,
      "mbenyin": 2146,
      "rani": 2147,
      "sket": 2148,
      "tru": 2149,
      "ɛkita": 2150,
      "wɔap": 2151,
      "wɔsoso": 2152,
      "bisa": 2153,
      "rebɛ": 2154,
      "sil": 2155,
      "koko": 2156,
      "nsonson": 2157,
      "akɔn": 2158,
      "kurow": 2159,
      "rimma": 2160,
      "Wɔreyɛ": 2161,
      "tore": 2162,
      "torofoɔ": 2163,
      "fuw": 2164,
      "Mmeɛnsa": 2165,
      "wee": 2166,
      "ɔretɔ": 2167,
      "frama": 2168,
      "wohu": 2169,
      "wane": 2170,
      "kyineɛ": 2171,
      "mpanimfo": 2172,
      "fɛm": 2173,
      "nkuruma": 2174,
      "lice": 2175,
      "amammerɛ": 2176,
      "mirika": 2177,
      "papafoɔ": 2178,
      "suafo": 2179,
      "twerɛtwerɛ": 2180,
      "twitwa": 2181,
      "Mmiɛnsa": 2182,
      "amanyɔ": 2183,
      "fofor": 2184,
      "wɔrokɔ": 2185,
      "Adwumayɛfo": 2186,
      "Nnuaba": 2187,
      "Nnuannua": 2188,
      "akansie": 2189,
      "Asase": 2190,
      "shirt": 2191,
      "reflector": 2192,
      "Akɔ": 2193,
      "Edwumayɛfo": 2194,
      "Kɛntɛn": 2195,
      "Mpanyin": 2196,
      "Mbenyimfo": 2197,
      "Nka": 2198,
      "Nwoma": 2199,
      "Obronin": 2200,
      "adzi": 2201,
      "ammono": 2202,
      "ctu": 2203,
      "eti": 2204,
      "fee": 2205,
      "kra": 2206,
      "ns": 2207,
      "nne": 2208,
      "nse": 2209,
      "ndɛ": 2210,
      "ose": 2211,
      "pen": 2212,
      "ste": 2213,
      "yam": 2214,
      "Ɛhɔ": 2215,
      "ɔtse": 2216,
      "ɛdi": 2217,
      "ɛdɔm": 2218,
      "wɔmo": 2219,
      "wɔapagya": 2220,
      "wɔkurakura": 2221,
      "yɛma": 2222,
      "yɛlo": 2223,
      "nohwaa": 2224,
      "sotɔɔ": 2225,
      "kot": 2226,
      "mufoɔ": 2227,
      "atse": 2228,
      "paya": 2229,
      "kumaa": 2230,
      "rot": 2231,
      "rɔbɛ": 2232,
      "basket": 2233,
      "pool": 2234,
      "ambɔ": 2235,
      "wɔreba": 2236,
      "wɔrekasa": 2237,
      "tiɛ": 2238,
      "ɔresa": 2239,
      "ɔresaw": 2240,
      "dzea": 2241,
      "mehu": 2242,
      "ɛreto": 2243,
      "keta": 2244,
      "pira": 2245,
      "sɛe": 2246,
      "aptɔ": 2247,
      "nyini": 2248,
      "ahwehwɛnyiwa": 2249,
      "kotokoto": 2250,
      "abutu": 2251,
      "aburo": 2252,
      "polisini": 2253,
      "paake": 2254,
      "tɛm": 2255,
      "Akwanhyia": 2256,
      "ahataw": 2257,
      "Mpaboa": 2258,
      "nkatasoɔ": 2259,
      "Adwadifoɔ": 2260,
      "nnɔbaeɛ": 2261,
      "Hɔ": 2262,
      "Kasa": 2263,
      "Krataa": 2264,
      "Kente": 2265,
      "Li": 2266,
      "Pi": 2267,
      "Twerɛ": 2268,
      "er": 2269,
      "ngo": 2270,
      "yɔnko": 2271,
      "Ɔkuta": 2272,
      "ɔkasa": 2273,
      "ɔbɛyɛ": 2274,
      "wɔtu": 2275,
      "wɔhwɛ": 2276,
      "nos": 2277,
      "renom": 2278,
      "rehyehyɛ": 2279,
      "redware": 2280,
      "ner": 2281,
      "akwa": 2282,
      "hor": 2283,
      "kɔsi": 2284,
      "mmrɛ": 2285,
      "mmesiafo": 2286,
      "fii": 2287,
      "kyɛm": 2288,
      "kyɛɛ": 2289,
      "ampe": 2290,
      "wei": 2291,
      "box": 2292,
      "borɔdeɛ": 2293,
      "ahome": 2294,
      "dadaa": 2295,
      "tion": 2296,
      "nkrɔfo": 2297,
      "nkakra": 2298,
      "abomu": 2299,
      "les": 2300,
      "akari": 2301,
      "santsen": 2302,
      "apan": 2303,
      "Nkrataa": 2304,
      "asogyafoɔ": 2305,
      "Nkonwa": 2306,
      "Ababaa": 2307,
      "Kaar": 2308,
      "hyiam": 2309,
      "tractor": 2310,
      "firafira": 2311,
      "laase": 2312,
      "colours": 2313,
      "dodoeɛ": 2314,
      "apegyapegya": 2315,
      "ahahammono": 2316,
      "anyim": 2317,
      "Afri": 2318,
      "stage": 2319,
      "concrete": 2320,
      "bottle": 2321,
      "apaake": 2322,
      "flawɛs": 2323,
      "Nsɛntwerɛfoɔ": 2324,
      "Bibini": 2325,
      "Oburonin": 2326,
      "Ataa": 2327,
      "Ame": 2328,
      "Apono": 2329,
      "Apata": 2330,
      "Ewuraba": 2331,
      "Me": 2332,
      "Nnoɔma": 2333,
      "Te": 2334,
      "ae": 2335,
      "awu": 2336,
      "adidi": 2337,
      "bri": 2338,
      "dro": 2339,
      "edzi": 2340,
      "ewiem": 2341,
      "mf": 2342,
      "ndaka": 2343,
      "nwɔtwe": 2344,
      "nsrahwɛ": 2345,
      "nneema": 2346,
      "ss": 2347,
      "shel": 2348,
      "tri": 2349,
      "Ɔhene": 2350,
      "ɛkɔ": 2351,
      "ɛɛyɛ": 2352,
      "ɛsɛn": 2353,
      "ɛbɛ": 2354,
      "ɛfiri": 2355,
      "som": 2356,
      "son": 2357,
      "repepa": 2358,
      "muden": 2359,
      "nsoso": 2360,
      "ben": 2361,
      "turo": 2362,
      "mmɛɛma": 2363,
      "kusuu": 2364,
      "suneɛ": 2365,
      "Wɔahyɛ": 2366,
      "guam": 2367,
      "gutter": 2368,
      "too": 2369,
      "fuo": 2370,
      "amba": 2371,
      "Mmesiafo": 2372,
      "wɔrebɛ": 2373,
      "wɔreserew": 2374,
      "ahoɔ": 2375,
      "ɔreyi": 2376,
      "yare": 2377,
      "nantwie": 2378,
      "abow": 2379,
      "ley": 2380,
      "apampan": 2381,
      "Nkramofoɔ": 2382,
      "hyiadan": 2383,
      "ntaareɛ": 2384,
      "twitwi": 2385,
      "afe": 2386,
      "nkɔlaa": 2387,
      "nkɔmbɔ": 2388,
      "Boo": 2389,
      "mpoma": 2390,
      "Beebi": 2391,
      "asɔredan": 2392,
      "whiren": 2393,
      "Nkrɔfokuo": 2394,
      "batakari": 2395,
      "teaseɛnam": 2396,
      "forɔeɛ": 2397,
      "Atwedeɛ": 2398,
      "berantiɛ": 2399,
      "Ad": 2400,
      "Ato": 2401,
      "Ahaban": 2402,
      "Efie": 2403,
      "Ewiem": 2404,
      "Ibi": 2405,
      "Mpo": 2406,
      "Nsa": 2407,
      "Nnyimpa": 2408,
      "Nhyiren": 2409,
      "Nɛɛseni": 2410,
      "Okita": 2411,
      "Obroni": 2412,
      "To": 2413,
      "Twene": 2414,
      "dge": 2415,
      "ef": 2416,
      "eni": 2417,
      "ken": 2418,
      "mbenyimfo": 2419,
      "ndwa": 2420,
      "nɛkyi": 2421,
      "nfonni": 2422,
      "ps": 2423,
      "ski": 2424,
      "ty": 2425,
      "Ɔno": 2426,
      "Ɔkura": 2427,
      "ɔkasamu": 2428,
      "wɔakye": 2429,
      "yɛfrɛ": 2430,
      "repra": 2431,
      "wat": 2432,
      "baag": 2433,
      "nis": 2434,
      "bere": 2435,
      "bedwa": 2436,
      "kuru": 2437,
      "kukuo": 2438,
      "tain": 2439,
      "Wɔrehwɛ": 2440,
      "nipadɔm": 2441,
      "boro": 2442,
      "nnɛteɛ": 2443,
      "ɔnhyɛ": 2444,
      "mmako": 2445,
      "kyire": 2446,
      "wiemu": 2447,
      "fufuu": 2448,
      "gyafo": 2449,
      "pictu": 2450,
      "akun": 2451,
      "akutuo": 2452,
      "Mmaamua": 2453,
      "atow": 2454,
      "apɔnkɔ": 2455,
      "mpɔ": 2456,
      "lin": 2457,
      "ɔmoo": 2458,
      "kasafidie": 2459,
      "Aborosan": 2460,
      "asopaa": 2461,
      "nkumaa": 2462,
      "ahomatorofoɔ": 2463,
      "nnaka": 2464,
      "atia": 2465,
      "boot": 2466,
      "kwaeɛ": 2467,
      "urtain": 2468,
      "Bepɔ": 2469,
      "galamsey": 2470,
      "nnɔteɛ": 2471,
      "adowa": 2472,
      "spec": 2473,
      "Nnadeɛ": 2474,
      "Edua": 2475,
      "Egya": 2476,
      "Kwa": 2477,
      "Nkete": 2478,
      "Pl": 2479,
      "Pɔnkɔ": 2480,
      "Wahyehyɛ": 2481,
      "awɔ": 2482,
      "adidipono": 2483,
      "can": 2484,
      "dra": 2485,
      "or": 2486,
      "srani": 2487,
      "y3": 2488,
      "ɛfidie": 2489,
      "wɔda": 2490,
      "wɔbɛ": 2491,
      "wɔafura": 2492,
      "yɛfoɔ": 2493,
      "yɛatwerɛ": 2494,
      "yiye": 2495,
      "sopɛɛse": 2496,
      "rewa": 2497,
      "retie": 2498,
      "hyɛma": 2499,
      "wato": 2500,
      "wafa": 2501,
      "abɛn": 2502,
      "suhyɛn": 2503,
      "sumi": 2504,
      "donno": 2505,
      "fua": 2506,
      "amp": 2507,
      "wɔrehyehyɛ": 2508,
      "ahoban": 2509,
      "woru": 2510,
      "ɛsere": 2511,
      "nkan": 2512,
      "nkwa": 2513,
      "kyir": 2514,
      "mfiri": 2515,
      "piti": 2516,
      "dur": 2517,
      "duro": 2518,
      "Nkwaraa": 2519,
      "fɛw": 2520,
      "agudie": 2521,
      "adekorɔ": 2522,
      "tenatenten": 2523,
      "asorɔ": 2524,
      "ɔtedan": 2525,
      "fɛɛfɛɛ": 2526,
      "kanko": 2527,
      "amema": 2528,
      "Buronin": 2529,
      "nyɛma": 2530,
      "nkurɔfokuo": 2531,
      "kyale": 2532,
      "Moto": 2533,
      "basabasa": 2534,
      "marsk": 2535,
      "Adɔkotafoɔ": 2536,
      "atentenatenten": 2537,
      "anigyeɛ": 2538,
      "aboboyaa": 2539,
      "aptɔp": 2540,
      "Apɔ": 2541,
      "Abibifo": 2542,
      "Bag": 2543,
      "Di": 2544,
      "Gal": 2545,
      "Ndzɛmba": 2546,
      "afo": 2547,
      "ayie": 2548,
      "air": 2549,
      "awie": 2550,
      "blo": 2551,
      "gra": 2552,
      "glaase": 2553,
      "kakɔkɔɔ": 2554,
      "mbo": 2555,
      "oo": 2556,
      "okitsa": 2557,
      "sc": 2558,
      "Ɔsono": 2559,
      "Ɛmaa": 2560,
      "ɔhyehyɛ": 2561,
      "ɔhene": 2562,
      "Ↄhyɛ": 2563,
      "anwen": 2564,
      "sin": 2565,
      "war": 2566,
      "water": 2567,
      "sei": 2568,
      "enkyɛn": 2569,
      "gui": 2570,
      "basia": 2571,
      "bage": 2572,
      "bodua": 2573,
      "nnɛte": 2574,
      "tuntumfoɔ": 2575,
      "moa": 2576,
      "tente": 2577,
      "ɛsensɛn": 2578,
      "nkwaraa": 2579,
      "mpapa": 2580,
      "mfir": 2581,
      "daadze": 2582,
      "duru": 2583,
      "miɛnsa": 2584,
      "tenatena": 2585,
      "asoa": 2586,
      "head": 2587,
      "enyimfo": 2588,
      "mbasiafo": 2589,
      "asɔɔto": 2590,
      "mmɔframma": 2591,
      "panneɛ": 2592,
      "pɛt": 2593,
      "sukuudan": 2594,
      "ɔsono": 2595,
      "abaamua": 2596,
      "akyirikyiri": 2597,
      "ahusuo": 2598,
      "akɔkɔɔfoɔ": 2599,
      "mfinfin": 2600,
      "asrafoɔ": 2601,
      "Light": 2602,
      "Ahoma": 2603,
      "Bɛrima": 2604,
      "Cu": 2605,
      "Ebu": 2606,
      "Kɔm": 2607,
      "Mi": 2608,
      "Mbofra": 2609,
      "Nan": 2610,
      "Pan": 2611,
      "ada": 2612,
      "adziban": 2613,
      "cam": 2614,
      "dwo": 2615,
      "haa": 2616,
      "il": 2617,
      "je": 2618,
      "lk": 2619,
      "lab": 2620,
      "store": 2621,
      "uu": 2622,
      "vol": 2623,
      "Ɔdze": 2624,
      "Ɔpono": 2625,
      "Ɛkwan": 2626,
      "ɔsi": 2627,
      "ɔpanin": 2628,
      "ɛno": 2629,
      "wɔasi": 2630,
      "wɔadua": 2631,
      "wɔaboaboa": 2632,
      "bile": 2633,
      "anua": 2634,
      "rebu": 2635,
      "resesa": 2636,
      "remiamia": 2637,
      "maks": 2638,
      "konko": 2639,
      "wɔnsa": 2640,
      "kɔba": 2641,
      "sebɔ": 2642,
      "fita": 2643,
      "finn": 2644,
      "ronyi": 2645,
      "Wɔkuta": 2646,
      "Wɔabobɔ": 2647,
      "Wɔaduadua": 2648,
      "dow": 2649,
      "difoɔ": 2650,
      "Mmɛrima": 2651,
      "wɔretɔ": 2652,
      "tir": 2653,
      "ɛnhyɛ": 2654,
      "kala": 2655,
      "mobile": 2656,
      "Ebibi": 2657,
      "soronko": 2658,
      "ɛredidi": 2659,
      "aborɔsan": 2660,
      "mpae": 2661,
      "akutu": 2662,
      "abae": 2663,
      "lorry": 2664,
      "akyea": 2665,
      "afir": 2666,
      "mina": 2667,
      "carrot": 2668,
      "fɛɛfɛw": 2669,
      "Ɔbaakofoɔ": 2670,
      "pɛsɛɛ": 2671,
      "akyerɛkyerɛ": 2672,
      "dɔkɔ": 2673,
      "gyna": 2674,
      "woedzi": 2675,
      "dzɛma": 2676,
      "lower": 2677,
      "asraafo": 2678,
      "Asraafo": 2679,
      "ɛɛsefoɔ": 2680,
      "ahuri": 2681,
      "rɛnkyɛm": 2682,
      "yowa": 2683,
      "Motor": 2684,
      "brush": 2685,
      "zebra": 2686,
      "Dadesɛn": 2687,
      "abiesa": 2688,
      "apanpan": 2689,
      "wiemuhyɛn": 2690,
      "Abi": 2691,
      "Anyina": 2692,
      "Ahwen": 2693,
      "Fu": 2694,
      "Gua": 2695,
      "Kɔɔ": 2696,
      "Mfiri": 2697,
      "Ti": 2698,
      "US": 2699,
      "afoforɔ": 2700,
      "ayer": 2701,
      "ble": 2702,
      "cto": 2703,
      "efunu": 2704,
      "ekutu": 2705,
      "hand": 2706,
      "ja": 2707,
      "nyan": 2708,
      "osk": 2709,
      "py": 2710,
      "tɔm": 2711,
      "va": 2712,
      "Ɔgyina": 2713,
      "Ɔman": 2714,
      "ɔware": 2715,
      "ɛti": 2716,
      "ɛkyerɛ": 2717,
      "ɛkura": 2718,
      "ɛgugu": 2719,
      "ɛmaa": 2720,
      "ɛsrɛ": 2721,
      "wɔka": 2722,
      "wɔasa": 2723,
      "yɛkyerɛ": 2724,
      "yɛaka": 2725,
      "now": 2726,
      "biako": 2727,
      "sogyani": 2728,
      "aaa": 2729,
      "rekye": 2730,
      "neho": 2731,
      "tema": 2732,
      "koom": 2733,
      "wɔnmmo": 2734,
      "watwa": 2735,
      "kɔla": 2736,
      "pai": 2737,
      "par": 2738,
      "paper": 2739,
      "sene": 2740,
      "abbage": 2741,
      "fini": 2742,
      "rohwɛ": 2743,
      "Wɔayɛ": 2744,
      "Wɔredi": 2745,
      "Wɔkitakita": 2746,
      "toy": 2747,
      "diɛ": 2748,
      "bawa": 2749,
      "pol": 2750,
      "Mmɛɛma": 2751,
      "wɔrekyerɛ": 2752,
      "ahom": 2753,
      "atae": 2754,
      "ebimo": 2755,
      "mming": 2756,
      "bebreeee": 2757,
      "kar": 2758,
      "wodzi": 2759,
      "mmabaa": 2760,
      "hanom": 2761,
      "ɛsen": 2762,
      "nkɛntɛn": 2763,
      "nkraman": 2764,
      "esiaba": 2765,
      "ɛretu": 2766,
      "abotire": 2767,
      "aborɔbɛ": 2768,
      "anopy": 2769,
      "buukuu": 2770,
      "buuku": 2771,
      "twam": 2772,
      "mmaamua": 2773,
      "sɛnea": 2774,
      "yinfo": 2775,
      "ape": 2776,
      "mpɔnkɔ": 2777,
      "rum": 2778,
      "akyere": 2779,
      "blak": 2780,
      "pear": 2781,
      "asom": 2782,
      "obiaa": 2783,
      "ement": 2784,
      "mango": 2785,
      "atwer": 2786,
      "Abammɔfoɔ": 2787,
      "nketse": 2788,
      "Amanyɔ": 2789,
      "Bowl": 2790,
      "praeɛ": 2791,
      "bags": 2792,
      "hyire": 2793,
      "Mfoni": 2794,
      "Baage": 2795,
      "dent": 2796,
      "rahyɛbedwa": 2797,
      "Banku": 2798,
      "Ayarefoɔ": 2799,
      "asɛesɛe": 2800,
      "ramofo": 2801,
      "Mmerante": 2802,
      "Machine": 2803,
      "kɔɔpoo": 2804,
      "Kyɛnsee": 2805,
      "drink": 2806,
      "wɔapenti": 2807,
      "silver": 2808,
      "Mpoano": 2809,
      "skirt": 2810,
      "urtains": 2811,
      "specs": 2812,
      "ahobanmmɔ": 2813,
      "volley": 2814,
      "At": 2815,
      "Ado": 2816,
      "Asan": 2817,
      "Atɔ": 2818,
      "Ahe": 2819,
      "Mberantiɛ": 2820,
      "Panin": 2821,
      "Wasɔ": 2822,
      "Wei": 2823,
      "Yɛde": 2824,
      "aye": 2825,
      "asum": 2826,
      "apolisifo": 2827,
      "cro": 2828,
      "che": 2829,
      "cci": 2830,
      "fan": 2831,
      "lla": 2832,
      "mboa": 2833,
      "mbra": 2834,
      "ngu": 2835,
      "nneɛ": 2836,
      "ntsi": 2837,
      "of": 2838,
      "prɛ": 2839,
      "pɛn": 2840,
      "pɔn": 2841,
      "pue": 2842,
      "xi": 2843,
      "Ɔso": 2844,
      "Ɔsan": 2845,
      "Ɛha": 2846,
      "Ɛkoro": 2847,
      "ɔsraani": 2848,
      "ɛba": 2849,
      "ɛgyinagyina": 2850,
      "ɛfɔm": 2851,
      "ɛkata": 2852,
      "wɔsa": 2853,
      "wɔaba": 2854,
      "wɔpɛ": 2855,
      "wɔatu": 2856,
      "wɔadi": 2857,
      "nakyi": 2858,
      "yikyerɛ": 2859,
      "angwa": 2860,
      "ret": 2861,
      "retwerɛ": 2862,
      "nemu": 2863,
      "nenan": 2864,
      "sikakɔkɔɔ": 2865,
      "mayaafi": 2866,
      "muwa": 2867,
      "akwaraa": 2868,
      "foni": 2869,
      "honin": 2870,
      "kɔnk": 2871,
      "niɛ": 2872,
      "samina": 2873,
      "fiti": 2874,
      "enya": 2875,
      "aha": 2876,
      "riwa": 2877,
      "Wɔmo": 2878,
      "doma": 2879,
      "dondo": 2880,
      "akyia": 2881,
      "dini": 2882,
      "diffe": 2883,
      "wɔreka": 2884,
      "wɔrehohoro": 2885,
      "botan": 2886,
      "ahondze": 2887,
      "mmire": 2888,
      "ɔresi": 2889,
      "ɔrekye": 2890,
      "wusie": 2891,
      "memen": 2892,
      "kyene": 2893,
      "mmarimaa": 2894,
      "asesa": 2895,
      "aseanam": 2896,
      "nkramofoɔ": 2897,
      "ɛɛt": 2898,
      "ɛreba": 2899,
      "wimu": 2900,
      "wira": 2901,
      "wimming": 2902,
      "aboduaba": 2903,
      "pie": 2904,
      "tsetse": 2905,
      "sradze": 2906,
      "Nkurofo": 2907,
      "mpɔn": 2908,
      "ekyire": 2909,
      "mfonyini": 2910,
      "dwabɔ": 2911,
      "hyiamu": 2912,
      "nuadaka": 2913,
      "kasamfonin": 2914,
      "Mmɔframma": 2915,
      "agoro": 2916,
      "agodie": 2917,
      "aduru": 2918,
      "gyebea": 2919,
      "coal": 2920,
      "pɔɔto": 2921,
      "abinet": 2922,
      "Beae": 2923,
      "llar": 2924,
      "Carpet": 2925,
      "furafura": 2926,
      "aber": 2927,
      "kwadu": 2928,
      "Adesuafoɔ": 2929,
      "Sukuufoɔ": 2930,
      "vio": 2931,
      "plane": 2932,
      "gyaadze": 2933,
      "mpanyinfo": 2934,
      "bibinii": 2935,
      "aberewa": 2936,
      "buafo": 2937,
      "trouser": 2938,
      "Aberante": 2939,
      "ahahanmono": 2940,
      "Anwea": 2941,
      "mpɛsɛmpɛsɛ": 2942,
      "Amamfoɔ": 2943,
      "wɔtontɔn": 2944,
      "nkaafo": 2945,
      "Ahweneɛ": 2946,
      "Mbasiafo": 2947,
      "ffic": 2948,
      "Nkae": 2949,
      "African": 2950,
      "ahoɔfɛ": 2951,
      "kenkan": 2952,
      "watch": 2953,
      "akuntunu": 2954,
      "Didi": 2955,
      "Kɔɔpo": 2956,
      "Ayɛ": 2957,
      "Akete": 2958,
      "Ahen": 2959,
      "Ahɔho": 2960,
      "Dɔ": 2961,
      "Gallon": 2962,
      "Kɔn": 2963,
      "Kyerɛ": 2964,
      "Maa": 2965,
      "Mako": 2966,
      "Ntar": 2967,
      "Wa": 2968,
      "Wokita": 2969,
      "canopy": 2970,
      "enipa": 2971,
      "edu": 2972,
      "fru": 2973,
      "hya": 2974,
      "ls": 2975,
      "mbenyinfo": 2976,
      "mbrɛ": 2977,
      "mframa": 2978,
      "nɛɛseni": 2979,
      "obroni": 2980,
      "pri": 2981,
      "wc": 2982,
      "yahyehyɛ": 2983,
      "Ɔbɔ": 2984,
      "Ɔpanyin": 2985,
      "ɔayɛ": 2986,
      "ɔbɛ": 2987,
      "ɛni": 2988,
      "ɛbu": 2989,
      "ɛkasa": 2990,
      "ɛbɛyɛ": 2991,
      "wɔgu": 2992,
      "wɔdzi": 2993,
      "wɔakyekyere": 2994,
      "wɔkitakita": 2995,
      "nanso": 2996,
      "socks": 2997,
      "refo": 2998,
      "reforo": 2999,
      "nenkyɛn": 3000,
      "sion": 3001,
      "dede": 3002,
      "tele": 3003,
      "tetare": 3004,
      "kon": 3005,
      "muwaa": 3006,
      "mudzen": 3007,
      "wɔnye": 3008,
      "aky": 3009,
      "atɔso": 3010,
      "tukwan": 3011,
      "suit": 3012,
      "tafo": 3013,
      "Wɔkura": 3014,
      "Wɔato": 3015,
      "wɔrepia": 3016,
      "wɔretie": 3017,
      "wɔrehim": 3018,
      "bow": 3019,
      "nnwoma": 3020,
      "rant": 3021,
      "kyɛnku": 3022,
      "tiatia": 3023,
      "ataasia": 3024,
      "ɔrehyehyɛ": 3025,
      "ɔregye": 3026,
      "ɔretwerɛ": 3027,
      "ɔretwi": 3028,
      "nkruma": 3029,
      "esiesie": 3030,
      "nanbea": 3031,
      "ɛɛɛ": 3032,
      "wii": 3033,
      "aboo": 3034,
      "pila": 3035,
      "daade": 3036,
      "tsew": 3037,
      "dukuu": 3038,
      "lon": 3039,
      "apue": 3040,
      "mia": 3041,
      "tenabea": 3042,
      "Aboɔ": 3043,
      "Abrante": 3044,
      "Abrɔsan": 3045,
      "raase": 3046,
      "guare": 3047,
      "bɛhwɛ": 3048,
      "tirihwi": 3049,
      "Abarimaa": 3050,
      "twenee": 3051,
      "afuw": 3052,
      "pɛs": 3053,
      "afɔ": 3054,
      "goro": 3055,
      "abusua": 3056,
      "abubuafoɔ": 3057,
      "adane": 3058,
      "woetwa": 3059,
      "tray": 3060,
      "Abusuafoɔ": 3061,
      "Polisifo": 3062,
      "wɔtsenatsena": 3063,
      "butuw": 3064,
      "wɔatow": 3065,
      "redwane": 3066,
      "Sogyafoɔ": 3067,
      "panels": 3068,
      "Asrafo": 3069,
      "Akwantufo": 3070,
      "grin": 3071,
      "mfinimfini": 3072,
      "teaseanam": 3073,
      "kɔmmuadeɛ": 3074,
      "ahenkyɛ": 3075,
      "ɔyarefoɔ": 3076,
      "Mbɔframba": 3077,
      "hann": 3078,
      "Kɔkɔɔ": 3079,
      "Mpanyinfo": 3080,
      "ampesie": 3081,
      "waterme": 3082,
      "Cup": 3083,
      "jeans": 3084,
      "Anyinam": 3085,
      "ctors": 3086,
      "nyansa": 3087,
      "Ahemfo": 3088,
      "ccident": 3089,
      "ahoɔfɛfoɔ": 3090,
      "Ata": 3091,
      "Afa": 3092,
      "Akua": 3093,
      "Besiaba": 3094,
      "Ekuo": 3095,
      "Fla": 3096,
      "Kan": 3097,
      "Mbo": 3098,
      "Mboa": 3099,
      "Mbanyin": 3100,
      "Mpoma": 3101,
      "Mbɛrema": 3102,
      "Nkyɛnsee": 3103,
      "Phone": 3104,
      "Tee": 3105,
      "Wahyɛ": 3106,
      "awhe": 3107,
      "ahɔho": 3108,
      "bro": 3109,
      "cal": 3110,
      "cabbage": 3111,
      "cabinet": 3112,
      "ds": 3113,
      "edan": 3114,
      "ebue": 3115,
      "fɔ": 3116,
      "flaa": 3117,
      "ii": 3118,
      "im": 3119,
      "inu": 3120,
      "ld": 3121,
      "laptɔp": 3122,
      "nten": 3123,
      "ntwerɛ": 3124,
      "nwhiren": 3125,
      "swimming": 3126,
      "trak": 3127,
      "ɔkoto": 3128,
      "ɔsane": 3129,
      "ɛsan": 3130,
      "wɔkɔ": 3131,
      "wɔasisi": 3132,
      "yɛdi": 3133,
      "sogya": 3134,
      "resɔ": 3135,
      "rekyea": 3136,
      "nekyi": 3137,
      "mas": 3138,
      "yinaa": 3139,
      "fomma": 3140,
      "hohor": 3141,
      "beenu": 3142,
      "abre": 3143,
      "kul": 3144,
      "room": 3145,
      "Wɔgyinagyina": 3146,
      "Wɔrebɔ": 3147,
      "Wɔatu": 3148,
      "Wɔasosɔ": 3149,
      "guar": 3150,
      "rɔɔ": 3151,
      "baeɛ": 3152,
      "amma": 3153,
      "Mmrante": 3154,
      "wɔrenom": 3155,
      "wel": 3156,
      "wer": 3157,
      "wera": 3158,
      "bom": 3159,
      "moma": 3160,
      "adwabɔ": 3161,
      "adwene": 3162,
      "mmarahyɛbadwa": 3163,
      "beayɛ": 3164,
      "ɛɛkɔ": 3165,
      "ɛɛsa": 3166,
      "atwahyia": 3167,
      "tweneɛ": 3168,
      "kel": 3169,
      "ntommire": 3170,
      "bun": 3171,
      "bukyia": 3172,
      "Maamefo": 3173,
      "ator": 3174,
      "asia": 3175,
      "apɔ": 3176,
      "apee": 3177,
      "mpaa": 3178,
      "sereɛ": 3179,
      "ɔbaatan": 3180,
      "rent": 3181,
      "hweneɛ": 3182,
      "tirim": 3183,
      "ɛsiesie": 3184,
      "dedadeda": 3185,
      "atuu": 3186,
      "abobɔbobɔ": 3187,
      "afee": 3188,
      "dɔteɛ": 3189,
      "Kaal": 3190,
      "nkɔmɔ": 3191,
      "mmeinu": 3192,
      "ɔbaakofoɔ": 3193,
      "Adansifoɔ": 3194,
      "ayarehwɛ": 3195,
      "Bucket": 3196,
      "books": 3197,
      "ayiyi": 3198,
      "Kuruwa": 3199,
      "Mfonyin": 3200,
      "akwantu": 3201,
      "vision": 3202,
      "trɔɔ": 3203,
      "bowls": 3204,
      "chief": 3205,
      "plɛɛte": 3206,
      "anyiwa": 3207,
      "dambɔ": 3208,
      "Sogyani": 3209,
      "ntakra": 3210,
      "ahwendze": 3211,
      "aworɔ": 3212,
      "Dwadini": 3213,
      "anaasɛ": 3214,
      "cupboard": 3215,
      "kuntunu": 3216,
      "bɔnten": 3217,
      "nyimfa": 3218,
      "und": 3219,
      "akɔnneaba": 3220,
      "Book": 3221,
      "fufuuo": 3222,
      "sumiɛ": 3223,
      "asɔɔtoo": 3224,
      "Ebibifo": 3225,
      "Abien": 3226,
      "USA": 3227,
      "paign": 3228,
      "kɔnkret": 3229,
      ",.": 3230,
      "Anko": 3231,
      "Asaa": 3232,
      "Akyerɛkyerɛ": 3233,
      "Apolisifo": 3234,
      "Bɔɔ": 3235,
      "Egua": 3236,
      "Edziban": 3237,
      "Hɛn": 3238,
      "Mu": 3239,
      "Nnam": 3240,
      "Ntadeɛ": 3241,
      "Ro": 3242,
      "Wabɔ": 3243,
      "Ze": 3244,
      "atete": 3245,
      "abaasa": 3246,
      "dɔn": 3247,
      "eduane": 3248,
      "fem": 3249,
      "flower": 3250,
      "kɛn": 3251,
      "kamera": 3252,
      "lɛt": 3253,
      "mber": 3254,
      "nkɔkɔɔ": 3255,
      "nsan": 3256,
      "ntere": 3257,
      "nhaban": 3258,
      "ndzɛma": 3259,
      "nhyiamu": 3260,
      "pani": 3261,
      "plas": 3262,
      "tree": 3263,
      "tɛn": 3264,
      "Ɔsrani": 3265,
      "Ɛwɔ": 3266,
      "Ɛnipa": 3267,
      "ɔnn": 3268,
      "ɔama": 3269,
      "ɛl": 3270,
      "ɛwo": 3271,
      "ɛwom": 3272,
      "ɛtwere": 3273,
      "ɛtoa": 3274,
      "ɛboɔ": 3275,
      "ℇhyɛn": 3276,
      "wɔma": 3277,
      "wɔak": 3278,
      "yɛasiesie": 3279,
      "sow": 3280,
      "anwene": 3281,
      "resu": 3282,
      "repae": 3283,
      "redum": 3284,
      "sink": 3285,
      "sign": 3286,
      "dedam": 3287,
      "muna": 3288,
      "wasi": 3289,
      "wakye": 3290,
      "wakoto": 3291,
      "wabue": 3292,
      "hosuo": 3293,
      "kɔpo": 3294,
      "nibea": 3295,
      "beako": 3296,
      "ence": 3297,
      "robot": 3298,
      "ahe": 3299,
      "tal": 3300,
      "Wɔso": 3301,
      "aniwa": 3302,
      "ton": 3303,
      "toman": 3304,
      "tokuro": 3305,
      "bambɔ": 3306,
      "Nana": 3307,
      "fugu": 3308,
      "fundaka": 3309,
      "funnaka": 3310,
      "wɔreko": 3311,
      "wɔretwɛn": 3312,
      "bodan": 3313,
      "ebie": 3314,
      "rantewa": 3315,
      "tii": 3316,
      "ɔretwe": 3317,
      "ɔrekyerɛkyerɛ": 3318,
      "ɔrepia": 3319,
      "ɔrenoa": 3320,
      "ɔrehohoro": 3321,
      "wogu": 3322,
      "wogyinagyina": 3323,
      "mogya": 3324,
      "akondwa": 3325,
      "Wɔnhyɛ": 3326,
      "Ebimo": 3327,
      "tennis": 3328,
      "kyin": 3329,
      "ɛresi": 3330,
      "ɛretwe": 3331,
      "ɛretwi": 3332,
      "ɛredware": 3333,
      "face": 3334,
      "tetetete": 3335,
      "ketse": 3336,
      "mfitam": 3337,
      "ntokua": 3338,
      "anoa": 3339,
      "pillar": 3340,
      "bus": 3341,
      "kaase": 3342,
      "akuw": 3343,
      "sɛs": 3344,
      "ababaa": 3345,
      "abarimaa": 3346,
      "bankye": 3347,
      "atoso": 3348,
      "dzibea": 3349,
      "adesua": 3350,
      "rutwa": 3351,
      "Biri": 3352,
      "dɛtse": 3353,
      "ahabanmon": 3354,
      "asor": 3355,
      "obia": 3356,
      "aduan": 3357,
      "kuul": 3358,
      "mmom": 3359,
      "kotodwe": 3360,
      "akatawia": 3361,
      "huru": 3362,
      "bɛsi": 3363,
      "mfonintwa": 3364,
      "egum": 3365,
      "dɔɔ": 3366,
      "gyan": 3367,
      "ing": 3368,
      "Borɔ": 3369,
      "ɔɔta": 3370,
      "Akonwa": 3371,
      "eedi": 3372,
      "bool": 3373,
      "Kurow": 3374,
      "kwabo": 3375,
      "Nsutene": 3376,
      "amoamoa": 3377,
      "resiesie": 3378,
      "adwumayɛni": 3379,
      "benyini": 3380,
      "rahyɛbadwam": 3381,
      "nkaeɛ": 3382,
      "Sotɔɔ": 3383,
      "nyeɛma": 3384,
      "andle": 3385,
      "gina": 3386,
      "ronsan": 3387,
      "Yɛahyehyɛ": 3388,
      "mfuturo": 3389,
      "redzidzi": 3390,
      "ship": 3391,
      "nhwehwɛmu": 3392,
      "Mehunu": 3393,
      "Kyɛnse": 3394,
      "ɔkyerɛkyerɛnii": 3395,
      "besiaba": 3396,
      "ahenemma": 3397,
      "Computer": 3398,
      "adwiri": 3399,
      "kerchief": 3400,
      "woesiesie": 3401,
      "truck": 3402,
      "Akɔkora": 3403,
      "picture": 3404,
      "Apɔmuden": 3405,
      "Ebusua": 3406,
      "campaign": 3407,
      "jacket": 3408,
      "different": 3409,
      "Nkaefo": 3410,
      "Didipono": 3411,
      "watermelon": 3412,
      "Zebra": 3413,
      "mfitamfitaa": 3414,
      "Afra": 3415,
      "Asukuu": 3416,
      "Akutu": 3417,
      "Bas": 3418,
      "Bɔtɔ": 3419,
      "Curtains": 3420,
      "Dz": 3421,
      "Ebaasa": 3422,
      "Gu": 3423,
      "Ikor": 3424,
      "Kyin": 3425,
      "Mah": 3426,
      "Mbenyin": 3427,
      "Nhoma": 3428,
      "Nnyipa": 3429,
      "Otum": 3430,
      "Tam": 3431,
      "agyinagyina": 3432,
      "ayewa": 3433,
      "ction": 3434,
      "cement": 3435,
      "dwu": 3436,
      "dwan": 3437,
      "dwi": 3438,
      "ear": 3439,
      "edwumayɛfo": 3440,
      "egwa": 3441,
      "faa": 3442,
      "ga": 3443,
      "gyɛ": 3444,
      "lpɔt": 3445,
      "nwom": 3446,
      "ntɛm": 3447,
      "onipa": 3448,
      "odzi": 3449,
      "okuta": 3450,
      "pro": 3451,
      "rwa": 3452,
      "sco": 3453,
      "stee": 3454,
      "spɛs": 3455,
      "tr": 3456,
      "tre": 3457,
      "trofoɔ": 3458,
      "yt": 3459,
      "Ɛnam": 3460,
      "Ɛpon": 3461,
      "ɔgu": 3462,
      "ɔsɛ": 3463,
      "ɔdzi": 3464,
      "ɛfu": 3465,
      "ɛdua": 3466,
      "ɛhɛn": 3467,
      "wɔyi": 3468,
      "wɔkuta": 3469,
      "wɔaso": 3470,
      "wɔgye": 3471,
      "wɔaduadua": 3472,
      "biaa": 3473,
      "bibre": 3474,
      "yiwa": 3475,
      "anko": 3476,
      "anwia": 3477,
      "redua": 3478,
      "renoa": 3479,
      "retutu": 3480,
      "rehohoro": 3481,
      "retwɛn": 3482,
      "nenim": 3483,
      "dem": 3484,
      "tew": 3485,
      "mae": 3486,
      "madeɛ": 3487,
      "komm": 3488,
      "hyɛm": 3489,
      "was": 3490,
      "wate": 3491,
      "foo": 3492,
      "atre": 3493,
      "hool": 3494,
      "raw": 3495,
      "rateɛ": 3496,
      "kɔdɔkɔ": 3497,
      "beans": 3498,
      "yerɛnkyɛm": 3499,
      "sam": 3500,
      "tua": 3501,
      "mmɔn": 3502,
      "kum": 3503,
      "fidi": 3504,
      "enyinam": 3505,
      "round": 3506,
      "susu": 3507,
      "tase": 3508,
      "Wɔwɔ": 3509,
      "Wɔne": 3510,
      "Wɔsan": 3511,
      "Wɔresa": 3512,
      "Wɔabue": 3513,
      "doa": 3514,
      "tos": 3515,
      "toɔ": 3516,
      "din": 3517,
      "Nam": 3518,
      "port": 3519,
      "police": 3520,
      "wɔresesa": 3521,
      "boat": 3522,
      "taae": 3523,
      "nnyi": 3524,
      "titi": 3525,
      "ɛntoma": 3526,
      "ɔrema": 3527,
      "ɔreba": 3528,
      "ɔresua": 3529,
      "ɔrehwie": 3530,
      "ɔresre": 3531,
      "kiosk": 3532,
      "kas": 3533,
      "kawa": 3534,
      "kapɛt": 3535,
      "frafra": 3536,
      "won": 3537,
      "wokura": 3538,
      "akonya": 3539,
      "wɔdeda": 3540,
      "aseɛnam": 3541,
      "nkron": 3542,
      "ɛrewɔ": 3543,
      "ɛreka": 3544,
      "ɛrekyerɛ": 3545,
      "wumayɛfoɔ": 3546,
      "mpam": 3547,
      "apae": 3548,
      "kere": 3549,
      "pim": 3550,
      "buu": 3551,
      "bubu": 3552,
      "banner": 3553,
      "nkokɔ": 3554,
      "apron": 3555,
      "mpe": 3556,
      "mpata": 3557,
      "mpataa": 3558,
      "mpenyimfo": 3559,
      "asaso": 3560,
      "milk": 3561,
      "dɛma": 3562,
      "Abatoɔ": 3563,
      "agokan": 3564,
      "asɔr": 3565,
      "kotow": 3566,
      "mmɔframa": 3567,
      "sɔfo": 3568,
      "afahyɛ": 3569,
      "Obia": 3570,
      "laet": 3571,
      "llot": 3572,
      "kamara": 3573,
      "dɔeɛ": 3574,
      "paano": 3575,
      "Kaas": 3576,
      "bɔɔd": 3577,
      "amanfo": 3578,
      "Boat": 3579,
      "koropɔɔto": 3580,
      "ayar": 3581,
      "Akwaraa": 3582,
      "muafoɔ": 3583,
      "asosɔsosɔ": 3584,
      "dwere": 3585,
      "traw": 3586,
      "traffic": 3587,
      "yaade": 3588,
      "Nnuro": 3589,
      "dadzepɔnkɔ": 3590,
      "stru": 3591,
      "braon": 3592,
      "Wonyinaa": 3593,
      "ahyehye": 3594,
      "brella": 3595,
      "plɛte": 3596,
      "wɔɔhwɛ": 3597,
      "resre": 3598,
      "bammɔfoɔ": 3599,
      "Agoprama": 3600,
      "angoa": 3601,
      "hy3": 3602,
      "etur": 3603,
      "worisi": 3604,
      "mmufoɔ": 3605,
      "reflectors": 3606,
      "afunumu": 3607,
      "fɛɛfɛɛfɛw": 3608,
      "sakre": 3609,
      "ɛkoɔ": 3610,
      "mbɔframba": 3611,
      "amanyɔkuo": 3612,
      "bridge": 3613,
      "shelves": 3614,
      "bench": 3615,
      "Addo": 3616,
      "handkerchief": 3617,
      "polyt": 3618,
      "ahomka": 3619,
      "Asante": 3620,
      "rantsɛ": 3621,
      "Atade": 3622,
      "Akuafoɔ": 3623,
      "ntwerɛeɛ": 3624,
      "Ankorɛ": 3625,
      "Biribi": 3626,
      "As": 3627,
      "Agya": 3628,
      "Atadeɛ": 3629,
      "Afuw": 3630,
      "Edwa": 3631,
      "Efir": 3632,
      "Efuw": 3633,
      "Kap": 3634,
      "Lɔri": 3635,
      "Mpan": 3636,
      "Mbɛɛma": 3637,
      "Nti": 3638,
      "Nsensan": 3639,
      "Nfonni": 3640,
      "Odum": 3641,
      "Ta": 3642,
      "Waa": 3643,
      "abibire": 3644,
      "asukuufoɔ": 3645,
      "accident": 3646,
      "dwane": 3647,
      "eku": 3648,
      "esuo": 3649,
      "ele": 3650,
      "efura": 3651,
      "ewia": 3652,
      "ffo": 3653,
      "gar": 3654,
      "krɔ": 3655,
      "katakata": 3656,
      "lɔ": 3657,
      "lling": 3658,
      "lambɔ": 3659,
      "mfrankaa": 3660,
      "mbesia": 3661,
      "nɔ": 3662,
      "nwo": 3663,
      "nfidie": 3664,
      "ndur": 3665,
      "ori": 3666,
      "ofura": 3667,
      "oridzi": 3668,
      "over": 3669,
      "pper": 3670,
      "she": 3671,
      "trɛ": 3672,
      "two": 3673,
      "twɛ": 3674,
      "vo": 3675,
      "yn": 3676,
      "Ɔya": 3677,
      "Ɛmmaa": 3678,
      "ɔtete": 3679,
      "ɔpɛ": 3680,
      "ɛs": 3681,
      "ɛbea": 3682,
      "ɛkuta": 3683,
      "ɛgye": 3684,
      "ɛbɛn": 3685,
      "Ↄde": 3686,
      "wɔapagyapagya": 3687,
      "nobi": 3688,
      "rekyerɛkyerɛ": 3689,
      "new": 3690,
      "sifo": 3691,
      "der": 3692,
      "tem": 3693,
      "tese": 3694,
      "muhu": 3695,
      "wakɔ": 3696,
      "wapegya": 3697,
      "akaa": 3698,
      "foon": 3699,
      "atam": 3700,
      "atue": 3701,
      "hoa": 3702,
      "horow": 3703,
      "raffe": 3704,
      "pain": 3705,
      "patere": 3706,
      "yea": 3707,
      "yehu": 3708,
      "sera": 3709,
      "sert": 3710,
      "tutum": 3711,
      "mmɛn": 3712,
      "mmɛma": 3713,
      "fine": 3714,
      "enten": 3715,
      "ria": 3716,
      "tama": 3717,
      "tamu": 3718,
      "Wɔasɔ": 3719,
      "Wɔadua": 3720,
      "anima": 3721,
      "bɔd": 3722,
      "bɔfo": 3723,
      "dom": 3724,
      "dorobɛn": 3725,
      "ballot": 3726,
      "funuadaka": 3727,
      "Mmɛma": 3728,
      "wɔrekyɛ": 3729,
      "wɔredua": 3730,
      "wɔretwi": 3731,
      "wɔrenante": 3732,
      "bon": 3733,
      "taade": 3734,
      "nnɔte": 3735,
      "nnyɛma": 3736,
      "tikya": 3737,
      "tuntun": 3738,
      "ɛnum": 3739,
      "ɔredidi": 3740,
      "kap": 3741,
      "wosi": 3742,
      "wodi": 3743,
      "kyer": 3744,
      "akongua": 3745,
      "mmarimma": 3746,
      "tent": 3747,
      "nkra": 3748,
      "ɛrepia": 3749,
      "ntom": 3750,
      "ntomi": 3751,
      "Mmabaa": 3752,
      "Mmarimaa": 3753,
      "Mmarimma": 3754,
      "abammɔfoɔ": 3755,
      "Mmaayaa": 3756,
      "apple": 3757,
      "mpɛn": 3758,
      "Nkwa": 3759,
      "Nkruma": 3760,
      "nkunim": 3761,
      "adepam": 3762,
      "ntareɛ": 3763,
      "afie": 3764,
      "tɔnfo": 3765,
      "tɔnfoɔ": 3766,
      "mii": 3767,
      "miensa": 3768,
      "akɔkora": 3769,
      "nuanom": 3770,
      "bibiri": 3771,
      "Aboa": 3772,
      "Aborɔfoɔ": 3773,
      "pers": 3774,
      "Nkokɔ": 3775,
      "hwiil": 3776,
      "adura": 3777,
      "mmoba": 3778,
      "kotokuo": 3779,
      "hunu": 3780,
      "mfimfinn": 3781,
      "Police": 3782,
      "bɛma": 3783,
      "bɛka": 3784,
      "hin": 3785,
      "skɛt": 3786,
      "tsie": 3787,
      "atwene": 3788,
      "Ball": 3789,
      "pɔw": 3790,
      "Nipadodoɔ": 3791,
      "paninmu": 3792,
      "nkete": 3793,
      "sukuuni": 3794,
      "mmer": 3795,
      "Nyipa": 3796,
      "atwerɛtwerɛ": 3797,
      "bebere": 3798,
      "ayaresa": 3799,
      "akit": 3800,
      "aberante": 3801,
      "Akokɔ": 3802,
      "Mmoframa": 3803,
      "dwemma": 3804,
      "Wɔretu": 3805,
      "urse": 3806,
      "Wim": 3807,
      "adwumayɛfo": 3808,
      "benyimba": 3809,
      "trɔtrɔ": 3810,
      "ahuru": 3811,
      "kotafo": 3812,
      "kooti": 3813,
      "Asaso": 3814,
      "ahofama": 3815,
      "awotwe": 3816,
      "Dwam": 3817,
      "singlɛt": 3818,
      "hyw": 3819,
      "sononko": 3820,
      "cav": 3821,
      "afraba": 3822,
      "robɛnto": 3823,
      "frɔeɛ": 3824,
      "wɔakyerɛwkyerɛw": 3825,
      "nkwanhyia": 3826,
      "totorobɛnto": 3827,
      "abɔdwesɛ": 3828,
      "kotani": 3829,
      "Twerɛdua": 3830,
      "nkakramba": 3831,
      "bottles": 3832,
      "Ameri": 3833,
      "drobe": 3834,
      "nkwalaa": 3835,
      "wardrobe": 3836,
      "mpapadan": 3837,
      "Ahwendze": 3838,
      "park": 3839,
      "toys": 3840,
      "Ahenfo": 3841,
      "trakta": 3842,
      "Asaase": 3843,
      "Asukuufo": 3844,
      "scope": 3845,
      "dwerebɛɛ": 3846,
      "struction": 3847,
      "ntomire": 3848,
      "''": 3849,
      "3w": 3850,
      "3ne": 3851,
      "Aku": 3852,
      "Asɛn": 3853,
      "Air": 3854,
      "Asuafoɔ": 3855,
      "Akasamu": 3856,
      "Amaamefoɔ": 3857,
      "Efunu": 3858,
      "Gya": 3859,
      "Kraman": 3860,
      "Kɔtɔ": 3861,
      "La": 3862,
      "Nsɛm": 3863,
      "Nose": 3864,
      "Nwhiren": 3865,
      "Nurse": 3866,
      "Ogyina": 3867,
      "Okura": 3868,
      "Owura": 3869,
      "Sc": 3870,
      "Sol": 3871,
      "Tu": 3872,
      "Tete": 3873,
      "Wayɛ": 3874,
      "afam": 3875,
      "ayowa": 3876,
      "bab": 3877,
      "cra": 3878,
      "cake": 3879,
      "eyɛ": 3880,
      "ebe": 3881,
      "ehwɛ": 3882,
      "etewa": 3883,
      "fran": 3884,
      "gan": 3885,
      "gyia": 3886,
      "glas": 3887,
      "ina": 3888,
      "kam": 3889,
      "kwaa": 3890,
      "lm": 3891,
      "mbe": 3892,
      "mbofra": 3893,
      "mbɛɛma": 3894,
      "ny": 3895,
      "nyia": 3896,
      "nhyehyɛ": 3897,
      "nyaa": 3898,
      "nyɔ": 3899,
      "ogya": 3900,
      "obronin": 3901,
      "rd": 3902,
      "rse": 3903,
      "spɛɛse": 3904,
      "th": 3905,
      "tto": 3906,
      "wua": 3907,
      "wɛn": 3908,
      "Ɔtena": 3909,
      "Ɛda": 3910,
      "Ɛfɔm": 3911,
      "Ɛhɛn": 3912,
      "Ɛmbaa": 3913,
      "ɔta": 3914,
      "ɔkwan": 3915,
      "ɔtwe": 3916,
      "ɔahyehyɛ": 3917,
      "ɔfura": 3918,
      "ɔbɛrima": 3919,
      "ɔhen": 3920,
      "ɛd": 3921,
      "ɛyi": 3922,
      "ɛfi": 3923,
      "ɛtɔn": 3924,
      "ɛtwerɛ": 3925,
      "ɛtare": 3926,
      "wɔad": 3927,
      "wɔtwa": 3928,
      "wɔfira": 3929,
      "wɔkutakuta": 3930,
      "wɔakyekyer": 3931,
      "yɛfo": 3932,
      "yɛtena": 3933,
      "naaa": 3934,
      "noma": 3935,
      "yim": 3936,
      "yimfoɔ": 3937,
      "sogyafoɔ": 3938,
      "aana": 3939,
      "anwa": 3940,
      "ansa": 3941,
      "anwo": 3942,
      "rekyɛ": 3943,
      "renu": 3944,
      "reboa": 3945,
      "rehwehwɛ": 3946,
      "rehwie": 3947,
      "sirwa": 3948,
      "dea": 3949,
      "mampanin": 3950,
      "muu": 3951,
      "wabu": 3952,
      "wabae": 3953,
      "baagi": 3954,
      "hoo": 3955,
      "honi": 3956,
      "hodoɔ": 3957,
      "part": 3958,
      "bel": 3959,
      "bebiri": 3960,
      "beesia": 3961,
      "sal": 3962,
      "sek": 3963,
      "sesɛn": 3964,
      "sesaw": 3965,
      "tumm": 3966,
      "abrante": 3967,
      "abrosan": 3968,
      "roplane": 3969,
      "ahya": 3970,
      "sundze": 3971,
      "sutadeɛ": 3972,
      "Wɔnyinaa": 3973,
      "Wɔkurakura": 3974,
      "Wɔaboaboa": 3975,
      "bɔto": 3976,
      "guan": 3977,
      "dorɔ": 3978,
      "basaa": 3979,
      "dzan": 3980,
      "amɔto": 3981,
      "amsee": 3982,
      "Mmrɔfo": 3983,
      "wɔrehyɛ": 3984,
      "wɔrenoa": 3985,
      "wɔretutu": 3986,
      "wɔredware": 3987,
      "bor": 3988,
      "boba": 3989,
      "bonto": 3990,
      "taaboo": 3991,
      "rɛse": 3992,
      "rantse": 3993,
      "mmiiɛ": 3994,
      "nyinaaa": 3995,
      "dawu": 3996,
      "tin": 3997,
      "ɛnsee": 3998,
      "ɔrewɔ": 3999,
      "ɔresu": 4000,
      "ɔrebu": 4001,
      "wow": 4002,
      "wode": 4003,
      "wote": 4004,
      "wotu": 4005,
      "wokitsa": 4006,
      "mor": 4007,
      "kyee": 4008,
      "kyew": 4009,
      "akotow": 4010,
      "ɛwɔm": 4011,
      "beaɛ": 4012,
      "asesɛ": 4013,
      "ɛsesa": 4014,
      "ɛrehyɛ": 4015,
      "ɛresu": 4016,
      "ɛresua": 4017,
      "ɛrenante": 4018,
      "kyerɛni": 4019,
      "apampaa": 4020,
      "ntoa": 4021,
      "ntoos": 4022,
      "pinkyen": 4023,
      "bul": 4024,
      "kaas": 4025,
      "abasa": 4026,
      "tsei": 4027,
      "low": 4028,
      "agbaa": 4029,
      "akokɔangua": 4030,
      "apenti": 4031,
      "mpenyinfo": 4032,
      "Nkraman": 4033,
      "Nkramofo": 4034,
      "nkurofoɔ": 4035,
      "nurse": 4036,
      "lip": 4037,
      "ntamu": 4038,
      "dɛte": 4039,
      "maamefo": 4040,
      "nnuadan": 4041,
      "piita": 4042,
      "sereba": 4043,
      "papabi": 4044,
      "heel": 4045,
      "mbabaawa": 4046,
      "mmorɔfo": 4047,
      "huro": 4048,
      "tablet": 4049,
      "card": 4050,
      "mmɔfo": 4051,
      "Koto": 4052,
      "late": 4053,
      "pɔtɔɔ": 4054,
      "ɛntsɛn": 4055,
      "aturu": 4056,
      "vel": 4057,
      "ahomatrofoɔ": 4058,
      "bɔɔla": 4059,
      "amannyɔ": 4060,
      "asisisisi": 4061,
      "ɔson": 4062,
      "woebue": 4063,
      "woehyiam": 4064,
      "reseresere": 4065,
      "Nyimpadɔm": 4066,
      "ayarefo": 4067,
      "Akwa": 4068,
      "umbrella": 4069,
      "abofraba": 4070,
      "nohoaa": 4071,
      "abuebue": 4072,
      "Wimu": 4073,
      "Nkorɔfokuo": 4074,
      "Abofraba": 4075,
      "ahyehɛ": 4076,
      "Adesuafo": 4077,
      "efupɔnkɔ": 4078,
      "atenetene": 4079,
      "katapila": 4080,
      "Mpanimfo": 4081,
      "akete": 4082,
      "akeka": 4083,
      "Ayar": 4084,
      "agyananbea": 4085,
      "kootu": 4086,
      "microscope": 4087,
      "retwitwa": 4088,
      "retwitwi": 4089,
      "Mmoadoma": 4090,
      "Agofomma": 4091,
      "Dwadibea": 4092,
      "Sini": 4093,
      "Sika": 4094,
      "condi": 4095,
      "Aberewa": 4096,
      "galɔn": 4097,
      "galamsee": 4098,
      "Anɛɛsefoɔ": 4099,
      "amuna": 4100,
      "bruu": 4101,
      "asanka": 4102,
      "Ahwedeɛ": 4103,
      "ɔrohwɛ": 4104,
      "ahenema": 4105,
      "Nkɔla": 4106,
      "Ntokua": 4107,
      "Train": 4108,
      "shoe": 4109,
      "adwira": 4110,
      "pɔtɔpɔtɔ": 4111,
      "Fidie": 4112,
      "Naaaa": 4113,
      "hwaet": 4114,
      "lɛvi": 4115,
      "steps": 4116,
      "atsena": 4117,
      "mehunu": 4118,
      "Kasamfonin": 4119,
      "Twerɛpono": 4120,
      "Teaseɛnam": 4121,
      "pictures": 4122,
      "Kwame": 4123,
      "Nketeesia": 4124,
      "Galamsey": 4125,
      "guitar": 4126,
      "headpan": 4127,
      "Panyin": 4128,
      "fitafita": 4129,
      "Funu": 4130,
      "nowhaa": 4131,
      "finimfin": 4132,
      "violet": 4133,
      "fruit": 4134,
      "print": 4135,
      "Teebol": 4136,
      "flaage": 4137,
      "tomantos": 4138,
      "kyinniiɛ": 4139,
      "atosode": 4140,
      "polythene": 4141,
      "Asantehene": 4142,
      "Taxi": 4143,
      "garden": 4144,
      "America": 4145,
      "Solar": 4146,
      "franka": 4147,
      "party": 4148,
      ".,": 4149,
      "..": 4150,
      "Abɔ": 4151,
      "Agu": 4152,
      "Adua": 4153,
      "Afiri": 4154,
      "Asaw": 4155,
      "Atare": 4156,
      "Afunu": 4157,
      "Basa": 4158,
      "Chi": 4159,
      "Eyi": 4160,
      "Efi": 4161,
      "Ehwɛ": 4162,
      "Gyaade": 4163,
      "Gaana": 4164,
      "Ihwɛ": 4165,
      "Kyɛ": 4166,
      "Kye": 4167,
      "Kar": 4168,
      "Ketewa": 4169,
      "Lo": 4170,
      "Man": 4171,
      "No": 4172,
      "Nne": 4173,
      "Nnan": 4174,
      "Ntwene": 4175,
      "Nhwehwɛ": 4176,
      "Nwira": 4177,
      "Ntama": 4178,
      "Pata": 4179,
      "Sto": 4180,
      "Skul": 4181,
      "Tse": 4182,
      "UN": 4183,
      "Wapagya": 4184,
      "Wafura": 4185,
      "Wheel": 4186,
      "ay": 4187,
      "apon": 4188,
      "apia": 4189,
      "awuraba": 4190,
      "awɔtwe": 4191,
      "apira": 4192,
      "candle": 4193,
      "drɔ": 4194,
      "dame": 4195,
      "dwen": 4196,
      "drobɛn": 4197,
      "fri": 4198,
      "gas": 4199,
      "is": 4200,
      "irs": 4201,
      "ibra": 4202,
      "kane": 4203,
      "lɔn": 4204,
      "mb": 4205,
      "mban": 4206,
      "mɛko": 4207,
      "mbuukuu": 4208,
      "nd": 4209,
      "nɛ": 4210,
      "nsi": 4211,
      "nfo": 4212,
      "nwea": 4213,
      "nkyerɛkyerɛ": 4214,
      "ndaadze": 4215,
      "ona": 4216,
      "odu": 4217,
      "owia": 4218,
      "offi": 4219,
      "pea": 4220,
      "rakye": 4221,
      "sro": 4222,
      "sle": 4223,
      "spi": 4224,
      "sake": 4225,
      "ssing": 4226,
      "skuul": 4227,
      "the": 4228,
      "wmudzen": 4229,
      "yuu": 4230,
      "Ɔrehwɛ": 4231,
      "Ɔpon": 4232,
      "Ɔbia": 4233,
      "Ɔkraman": 4234,
      "Ɛsono": 4235,
      "ɔk": 4236,
      "ɔbi": 4237,
      "ɔfo": 4238,
      "ɔkye": 4239,
      "ɔkor": 4240,
      "ɔɔyɛ": 4241,
      "ɔpapa": 4242,
      "ɔpanyin": 4243,
      "ɔkeka": 4244,
      "ɛfie": 4245,
      "wɔsi": 4246,
      "wɔfa": 4247,
      "wɔbu": 4248,
      "wɔmmo": 4249,
      "wɔdidi": 4250,
      "wɔagye": 4251,
      "wɔnenam": 4252,
      "wɔbɛn": 4253,
      "wɔatena": 4254,
      "wɔanya": 4255,
      "wɔapegya": 4256,
      "wɔsane": 4257,
      "wɔatutu": 4258,
      "wɔamema": 4259,
      "yɛakyerɛw": 4260,
      "nap": 4261,
      "nanim": 4262,
      "bii": 4263,
      "bike": 4264,
      "yimba": 4265,
      "sofoɔ": 4266,
      "sofa": 4267,
      "anyo": 4268,
      "rete": 4269,
      "reko": 4270,
      "reda": 4271,
      "refa": 4272,
      "repe": 4273,
      "reboro": 4274,
      "site": 4275,
      "siaba": 4276,
      "siriwa": 4277,
      "tesɛ": 4278,
      "tetafo": 4279,
      "map": 4280,
      "mukaase": 4281,
      "wɔnyɛ": 4282,
      "wɔnyinaa": 4283,
      "wayi": 4284,
      "wasa": 4285,
      "watu": 4286,
      "wadan": 4287,
      "wasan": 4288,
      "wadwo": 4289,
      "akɛt": 4290,
      "akasaa": 4291,
      "akaky": 4292,
      "foa": 4293,
      "foam": 4294,
      "baas": 4295,
      "baasia": 4296,
      "baanum": 4297,
      "beree": 4298,
      "bebia": 4299,
      "sar": 4300,
      "sare": 4301,
      "sakora": 4302,
      "sea": 4303,
      "ser": 4304,
      "mmɛ": 4305,
      "mmenyinfo": 4306,
      "abam": 4307,
      "abash": 4308,
      "engi": 4309,
      "roba": 4310,
      "rist": 4311,
      "dantia": 4312,
      "Wɔatwa": 4313,
      "Wɔtɔn": 4314,
      "Wɔatwerɛ": 4315,
      "Wɔresere": 4316,
      "Wɔkutakuta": 4317,
      "anii": 4318,
      "torɔ": 4319,
      "bako": 4320,
      "badwemma": 4321,
      "fuɔ": 4322,
      "Mmenyinfo": 4323,
      "wɔrehwehwɛ": 4324,
      "wɔrekɛ": 4325,
      "wɔretow": 4326,
      "wɔrekyerɛw": 4327,
      "wele": 4328,
      "ebibi": 4329,
      "nnhyɛ": 4330,
      "nnwuma": 4331,
      "nnɔtedan": 4332,
      "rɛd": 4333,
      "mmia": 4334,
      "breegye": 4335,
      "hwɛfoɔ": 4336,
      "dahɔ": 4337,
      "ɛnte": 4338,
      "ɔrenom": 4339,
      "ɔretie": 4340,
      "ɔrebisa": 4341,
      "kiri": 4342,
      "dzewa": 4343,
      "woyi": 4344,
      "womu": 4345,
      "wofi": 4346,
      "moko": 4347,
      "motto": 4348,
      "merɛ": 4349,
      "ɔnkye": 4350,
      "hammer": 4351,
      "beawa": 4352,
      "sorosoro": 4353,
      "kwantere": 4354,
      "asepaa": 4355,
      "asepatere": 4356,
      "asaka": 4357,
      "astle": 4358,
      "nkataa": 4359,
      "nkramofo": 4360,
      "kyiakyia": 4361,
      "ɛɛdi": 4362,
      "ɛretɔ": 4363,
      "ɛretɔn": 4364,
      "ɛresre": 4365,
      "atwam": 4366,
      "twerɔ": 4367,
      "ketoa": 4368,
      "piano": 4369,
      "buk": 4370,
      "Mmarahyɛbadwa": 4371,
      "mmaayaafi": 4372,
      "tsee": 4373,
      "Mmaayiwa": 4374,
      "akokɔangoa": 4375,
      "apɔtɔ": 4376,
      "mpem": 4377,
      "mpenyin": 4378,
      "fɛfɛɛ": 4379,
      "nkube": 4380,
      "mfonyi": 4381,
      "agum": 4382,
      "kɔntena": 4383,
      "lia": 4384,
      "rutu": 4385,
      "Papabi": 4386,
      "Aborɔsan": 4387,
      "pepper": 4388,
      "asowa": 4389,
      "asopiti": 4390,
      "asomadeɛ": 4391,
      "Nkorofoɔ": 4392,
      "suadan": 4393,
      "ahwehwɛenyiwa": 4394,
      "ketekete": 4395,
      "agoru": 4396,
      "emaa": 4397,
      "hwease": 4398,
      "many": 4399,
      "nsuhyɛn": 4400,
      "twerɛfo": 4401,
      "huhu": 4402,
      "sɔfi": 4403,
      "Kosua": 4404,
      "afuru": 4405,
      "afupɔnkɔ": 4406,
      "kandzea": 4407,
      "afri": 4408,
      "abɔfraba": 4409,
      "kyɛnsedan": 4410,
      "nkɔla": 4411,
      "ɛsono": 4412,
      "ɛsoso": 4413,
      "bɔɔdo": 4414,
      "kyerɛkyerɛnyi": 4415,
      "wɔrotɔn": 4416,
      "nnade": 4417,
      "Suneɛ": 4418,
      "ɔnoa": 4419,
      "tery": 4420,
      "osifoɔ": 4421,
      "ɔɔkasa": 4422,
      "Buronyi": 4423,
      "tomatese": 4424,
      "Kun": 4425,
      "nwii": 4426,
      "sinii": 4427,
      "wheelbarrow": 4428,
      "Aburo": 4429,
      "Dodow": 4430,
      "akers": 4431,
      "woridzidzi": 4432,
      "bronii": 4433,
      "bepɔw": 4434,
      "hɛmba": 4435,
      "afurafura": 4436,
      "asaawa": 4437,
      "banbɔfo": 4438,
      "Nnɔba": 4439,
      "reflɛ": 4440,
      "mfuiɛ": 4441,
      "wɔredzidzi": 4442,
      "ɛmɛɛma": 4443,
      "construction": 4444,
      "anamuna": 4445,
      "adwadifoɔ": 4446,
      "Aberantsɛ": 4447,
      "repiapia": 4448,
      "nsuomnam": 4449,
      "call": 4450,
      "etua": 4451,
      "ntem": 4452,
      "kuntun": 4453,
      "nsɛntwerɛfoɔ": 4454,
      "battery": 4455,
      "kyakaky": 4456,
      "borɔde": 4457,
      "dɔtedan": 4458,
      "driver": 4459,
      "Ntaade": 4460,
      "Ntaadeɛ": 4461,
      "puta": 4462,
      "Mbabaawa": 4463,
      "adɔkotafoɔ": 4464,
      "atweredeɛ": 4465,
      "Apomuden": 4466,
      "Sekan": 4467,
      "Tractor": 4468,
      "sakasaka": 4469,
      "shop": 4470,
      "nkaefo": 4471,
      "Ahome": 4472,
      "Bronii": 4473,
      "Mpanyinfoɔ": 4474,
      "ndɛtse": 4475,
      "penke": 4476,
      "boxing": 4477,
      "ahomeka": 4478,
      "Africa": 4479,
      "Ataade": 4480,
      "Amena": 4481,
      "Books": 4482,
      "Atoyerɛnkyɛm": 4483,
      "asopaatere": 4484,
      "screen": 4485,
      "Kɔmputa": 4486,
      "Mienu": 4487,
      "Nantwie": 4488,
      "Mfonini": 4489,
      "Atɛkyɛ": 4490,
      "Kɔɔpoo": 4491,
      "Aketesia": 4492,
      "television": 4493,
      "Cupboard": 4494,
      "nyansapɛ": 4495,
      "Mborɔfo": 4496,
      "calabash": 4497,
      "mmarahyɛbadwafie": 4498,
      "akwantufoɔ": 4499,
      "ahemfo": 4500,
      "Basket": 4501,
      "Dza": 4502,
      "Gutter": 4503,
      "Otumfoɔ": 4504,
      "Mpanyimfo": 4505,
      "ekuraase": 4506,
      "twɛdeɛ": 4507,
      "mpɛnsɛ": 4508,
      "cavator": 4509,
      "lmɛt": 4510,
      "nyaadoa": 4511,
      "condition": 4512,
      "Basabasa": 4513,
      "Lorry": 4514,
      "office": 4515,
      "sakere": 4516,
      "ristmas": 4517,
      "kyakakyaka": 4518,
      "Afi": 4519,
      "Ada": 4520,
      "Adwuma": 4521,
      "Aduaba": 4522,
      "Afir": 4523,
      "Ben": 4524,
      "Con": 4525,
      "Dadze": 4526,
      "Efidie": 4527,
      "Ewiemuhyɛn": 4528,
      "Flag": 4529,
      "Hyɛma": 4530,
      "Ki": 4531,
      "Laptɔp": 4532,
      "Mb": 4533,
      "Nkaa": 4534,
      "Ngo": 4535,
      "Nkoraa": 4536,
      "Odwan": 4537,
      "PO": 4538,
      "Pri": 4539,
      "Plate": 4540,
      "Rɔba": 4541,
      "Sa": 4542,
      "Spe": 4543,
      "Shi": 4544,
      "Store": 4545,
      "Tɔ": 4546,
      "Tru": 4547,
      "ammɔ": 4548,
      "drum": 4549,
      "eh": 4550,
      "ewɔ": 4551,
      "esu": 4552,
      "etwi": 4553,
      "etutu": 4554,
      "ewie": 4555,
      "eduaba": 4556,
      "fr": 4557,
      "fs": 4558,
      "fro": 4559,
      "gɔta": 4560,
      "hata": 4561,
      "ibinom": 4562,
      "ju": 4563,
      "kɛntsɛn": 4564,
      "leɛ": 4565,
      "lle": 4566,
      "mbarima": 4567,
      "mfe": 4568,
      "mɔɔta": 4569,
      "nfoɔ": 4570,
      "nkye": 4571,
      "nhyɛn": 4572,
      "ntete": 4573,
      "nhwene": 4574,
      "nwera": 4575,
      "odum": 4576,
      "ohonin": 4577,
      "pho": 4578,
      "pter": 4579,
      "penti": 4580,
      "ratae": 4581,
      "sto": 4582,
      "traa": 4583,
      "takra": 4584,
      "tworɔ": 4585,
      "whɛ": 4586,
      "wyn": 4587,
      "Ɔba": 4588,
      "Ɔda": 4589,
      "Ɔtɔn": 4590,
      "Ɔbeako": 4591,
      "Ɛɛ": 4592,
      "Ɛfam": 4593,
      "Ɛdua": 4594,
      "Ɛmmeranteɛ": 4595,
      "ɔabɔ": 4596,
      "ɔtwa": 4597,
      "ɔhe": 4598,
      "ɔpɔnkɔ": 4599,
      "ɔhye": 4600,
      "ɛtu": 4601,
      "ɛtwe": 4602,
      "ɛmmaa": 4603,
      "ɛkɔn": 4604,
      "ɛhɔnom": 4605,
      "ɛfom": 4606,
      "ɛkro": 4607,
      "ɛfor": 4608,
      "Ↄbarima": 4609,
      "wɔbe": 4610,
      "wɔta": 4611,
      "wɔani": 4612,
      "wɔnom": 4613,
      "wɔas": 4614,
      "wɔakyerɛ": 4615,
      "wɔfura": 4616,
      "wɔafira": 4617,
      "wɔasesa": 4618,
      "yɛfa": 4619,
      "yɛtɔn": 4620,
      "yɛabue": 4621,
      "nana": 4622,
      "naaaa": 4623,
      "bin": 4624,
      "bio": 4625,
      "bir": 4626,
      "biibi": 4627,
      "yiri": 4628,
      "anu": 4629,
      "rek": 4630,
      "rehim": 4631,
      "rebisa": 4632,
      "nel": 4633,
      "nem": 4634,
      "sim": 4635,
      "siw": 4636,
      "siwa": 4637,
      "siamba": 4638,
      "teate": 4639,
      "tebel": 4640,
      "kom": 4641,
      "koɔ": 4642,
      "kosow": 4643,
      "nsoɔ": 4644,
      "wata": 4645,
      "waba": 4646,
      "wawu": 4647,
      "wagya": 4648,
      "wahyia": 4649,
      "wabobɔ": 4650,
      "watwerɛ": 4651,
      "wafura": 4652,
      "wakata": 4653,
      "waduro": 4654,
      "akua": 4655,
      "fow": 4656,
      "honam": 4657,
      "hole": 4658,
      "hospi": 4659,
      "paen": 4660,
      "nia": 4661,
      "nic": 4662,
      "bedzi": 4663,
      "bedwam": 4664,
      "sae": 4665,
      "sel": 4666,
      "sew": 4667,
      "sepɛɛse": 4668,
      "sekel": 4669,
      "mman": 4670,
      "abrɛ": 4671,
      "kuhaa": 4672,
      "fish": 4673,
      "filling": 4674,
      "ennua": 4675,
      "roo": 4676,
      "roma": 4677,
      "roto": 4678,
      "ahwi": 4679,
      "ahama": 4680,
      "ahia": 4681,
      "rimba": 4682,
      "tag": 4683,
      "tai": 4684,
      "taxi": 4685,
      "Wɔaka": 4686,
      "Wɔama": 4687,
      "Wɔasiesie": 4688,
      "Wɔsane": 4689,
      "Wɔdɔɔso": 4690,
      "Wɔresaw": 4691,
      "aniagye": 4692,
      "doeɛ": 4693,
      "tom": 4694,
      "toam": 4695,
      "tontɔn": 4696,
      "dio": 4697,
      "bayerɛ": 4698,
      "fun": 4699,
      "poli": 4700,
      "ambrɛ": 4701,
      "Mmrahyɛbedwa": 4702,
      "wɔrewɔ": 4703,
      "wɔrekan": 4704,
      "wɔreforo": 4705,
      "wɔrepata": 4706,
      "weneɛ": 4707,
      "bolo": 4708,
      "taataa": 4709,
      "taabow": 4710,
      "ahoro": 4711,
      "nny": 4712,
      "nnyɛ": 4713,
      "nnwɔtwe": 4714,
      "nnwera": 4715,
      "hwɛbea": 4716,
      "ɛnya": 4717,
      "ɛnnan": 4718,
      "ɔren": 4719,
      "ɔredan": 4720,
      "ɔreboa": 4721,
      "ɔrekyerɛw": 4722,
      "ɔrekenkan": 4723,
      "kiki": 4724,
      "kase": 4725,
      "woɔ": 4726,
      "wonto": 4727,
      "woenya": 4728,
      "mona": 4729,
      "ady": 4730,
      "adɛ": 4731,
      "adwe": 4732,
      "adrɛse": 4733,
      "akon": 4734,
      "wansane": 4735,
      "kwante": 4736,
      "ɛserɛ": 4737,
      "esiamba": 4738,
      "nantwi": 4739,
      "ɛɛhyɛ": 4740,
      "ɛɛkasa": 4741,
      "ɛregu": 4742,
      "ɛrebɛ": 4743,
      "ɛrepra": 4744,
      "ɛretie": 4745,
      "fasuo": 4746,
      "wien": 4747,
      "wisie": 4748,
      "abor": 4749,
      "aboba": 4750,
      "abotan": 4751,
      "duadua": 4752,
      "key": 4753,
      "kese": 4754,
      "keseɛ": 4755,
      "ntokuro": 4756,
      "buei": 4757,
      "nsuomu": 4758,
      "akukɔ": 4759,
      "ataadesoro": 4760,
      "atoa": 4761,
      "Nkukuo": 4762,
      "nkosua": 4763,
      "asie": 4764,
      "Nkan": 4765,
      "Nkataasia": 4766,
      "aguam": 4767,
      "adefoɔ": 4768,
      "adehwɛ": 4769,
      "adesuafoɔ": 4770,
      "ning": 4771,
      "amamfoɔ": 4772,
      "afiase": 4773,
      "tɔnbea": 4774,
      "akɔsie": 4775,
      "akɔforo": 4776,
      "akɔnnɔ": 4777,
      "kasanoma": 4778,
      "nyifa": 4779,
      "baabia": 4780,
      "seresere": 4781,
      "dwumadzi": 4782,
      "bobɔbobɔ": 4783,
      "ketewaa": 4784,
      "Mmɔframa": 4785,
      "aduku": 4786,
      "emfam": 4787,
      "geans": 4788,
      "geria": 4789,
      "nsum": 4790,
      "nsuw": 4791,
      "tsenabea": 4792,
      "pannel": 4793,
      "sɔfoɔ": 4794,
      "Nipakuw": 4795,
      "Nigeria": 4796,
      "hia": 4797,
      "Koro": 4798,
      "Mmia": 4799,
      "nimfa": 4800,
      "afemfam": 4801,
      "dɔdɔeɛ": 4802,
      "dɔkotani": 4803,
      "tsirnhwi": 4804,
      "Kaase": 4805,
      "kitch": 4806,
      "fɛfɛɛfɛw": 4807,
      "tsentse": 4808,
      "maakye": 4809,
      "phones": 4810,
      "mmemm": 4811,
      "biribiara": 4812,
      "tɛtɛ": 4813,
      "tɛtrɛ": 4814,
      "motocycle": 4815,
      "wɛr": 4816,
      "wɔroto": 4817,
      "wɔrotow": 4818,
      "Suhyɛn": 4819,
      "nyimpadɔm": 4820,
      "Abɔfraba": 4821,
      "waahyɛ": 4822,
      "aben": 4823,
      "Buro": 4824,
      "Adwumayɛni": 4825,
      "sieeɛ": 4826,
      "dwene": 4827,
      "ahyɛnsode": 4828,
      "nnoe": 4829,
      "nnodoeɛ": 4830,
      "hyeɛ": 4831,
      "Wɔrehyehyɛ": 4832,
      "adinkra": 4833,
      "korabea": 4834,
      "ɛhoro": 4835,
      "ɛhohoro": 4836,
      "atetare": 4837,
      "statue": 4838,
      "nsɛmfua": 4839,
      "Nkorɔfokuw": 4840,
      "mmeaeɛ": 4841,
      "ahyew": 4842,
      "ahyerɛn": 4843,
      "kubedua": 4844,
      "olu": 4845,
      "kyerɛwfo": 4846,
      "Mpenyinfo": 4847,
      "dodoe": 4848,
      "Ayaresa": 4849,
      "Nkrɔfokuw": 4850,
      "ahuro": 4851,
      "anyini": 4852,
      "motorcycle": 4853,
      "wɔɔkye": 4854,
      "akɔkɔɔfo": 4855,
      "srɛsrɛ": 4856,
      "wɔadzi": 4857,
      "blackboard": 4858,
      "ɔrekɔdo": 4859,
      "paep": 4860,
      "Abaatan": 4861,
      "Kyim": 4862,
      "giraffe": 4863,
      "mbɔdambɔ": 4864,
      "yoma": 4865,
      "kootaa": 4866,
      "ronya": 4867,
      "banbɔfoɔ": 4868,
      "Nnɔte": 4869,
      "Nnwumayɛfoɔ": 4870,
      "Yɛtɔn": 4871,
      "asɛnnibea": 4872,
      "mfuw": 4873,
      "mfutukwan": 4874,
      "anaadɛ": 4875,
      "Ɔkyerɛkyerɛnii": 4876,
      "adwam": 4877,
      "dzendzen": 4878,
      "nsuomhyɛn": 4879,
      "flags": 4880,
      "kuntu": 4881,
      "krofon": 4882,
      "Kubedua": 4883,
      "Adzesuafo": 4884,
      "amuni": 4885,
      "kyani": 4886,
      "Amamfo": 4887,
      "borɔdze": 4888,
      "Kurom": 4889,
      "siilin": 4890,
      "kɔmpiita": 4891,
      "ahenfo": 4892,
      "gyitaa": 4893,
      "besiamba": 4894,
      "nnɔbae": 4895,
      "Nkyɛnsedan": 4896,
      "asubɔnten": 4897,
      "Dadepɔnkɔ": 4898,
      "rakaa": 4899,
      "berantse": 4900,
      "asrafo": 4901,
      "nwiram": 4902,
      "Nkɔlaa": 4903,
      "bɛɛmua": 4904,
      "Naaa": 4905,
      "anomdeɛ": 4906,
      "wɔape": 4907,
      "amanyɔsɛm": 4908,
      "Nkaeɛ": 4909,
      "nsem": 4910,
      "atsew": 4911,
      "Ataare": 4912,
      "Tema": 4913,
      "aeroplane": 4914,
      "adidibea": 4915,
      "shelf": 4916,
      "ɛbɛbɔ": 4917,
      "wɔrebɛto": 4918,
      "Toma": 4919,
      "tyre": 4920,
      "kurukuruwa": 4921,
      "mpɔboa": 4922,
      "mpɔtamu": 4923,
      "Plane": 4924,
      "organ": 4925,
      "grass": 4926,
      "school": 4927,
      "guina": 4928,
      "tentensoɔ": 4929,
      "Ahwenneɛ": 4930,
      "temammufoɔ": 4931,
      "Amanyɔkuo": 4932,
      "ayeyɛ": 4933,
      "crossing": 4934,
      "nguan": 4935,
      "wimuhyɛn": 4936,
      "Flawɛs": 4937,
      "awheniɛ": 4938,
      "Akyerɛkyerɛfoɔ": 4939,
      "Bɔɔlo": 4940,
      "plasti": 4941,
      "sinkran": 4942,
      "kɔdɔkɔdeɛ": 4943,
      "mmɔntene": 4944,
      "dɛmara": 4945,
      "Waakye": 4946,
      "Ɔyarefoɔ": 4947,
      "temmuafoɔ": 4948,
      "seradeɛ": 4949,
      "Nkrumah": 4950,
      "beberebe": 4951,
      "Akokɔsradeɛ": 4952,
      "Akuffo": 4953,
      "amɔtoam": 4954,
      "Kotoku": 4955,
      "frankae": 4956,
      "Tseaseanam": 4957,
      "wadwow": 4958,
      "enginee": 4959,
      "kiriti": 4960,
      "Ahomegyebea": 4961,
      "Basabasayɛ": 4962,
      "hospital": 4963,
      "kitchen": 4964,
      "3pono": 4965,
      "Ah": 4966,
      "Ano": 4967,
      "Agyina": 4968,
      "Ani": 4969,
      "Ase": 4970,
      "Asu": 4971,
      "Abibire": 4972,
      "Asɛm": 4973,
      "Ayowa": 4974,
      "Abeawa": 4975,
      "Amona": 4976,
      "Bl": 4977,
      "Bɔ": 4978,
      "Bɛma": 4979,
      "Bambɔ": 4980,
      "Cha": 4981,
      "Dri": 4982,
      "Dwabɔ": 4983,
      "Duku": 4984,
      "Dɔtedan": 4985,
      "Ele": 4986,
      "Etuo": 4987,
      "Fa": 4988,
      "Famu": 4989,
      "Flower": 4990,
      "Glass": 4991,
      "Ger": 4992,
      "Hyɛ": 4993,
      "Ihu": 4994,
      "Kase": 4995,
      "Kakra": 4996,
      "Mfu": 4997,
      "Mpɔnkɔ": 4998,
      "Mbenyi": 4999,
      "Mfir": 5000,
      "Mfidi": 5001,
      "Ns": 5002,
      "Neɛ": 5003,
      "Nkwan": 5004,
      "Ntɔ": 5005,
      "Ntwerɛ": 5006,
      "Nnwoma": 5007,
      "Nsrahwɛ": 5008,
      "Ndzɛma": 5009,
      "Nwusie": 5010,
      "Odwadi": 5011,
      "Osei": 5012,
      "Pa": 5013,
      "Paa": 5014,
      "Pen": 5015,
      "Par": 5016,
      "St": 5017,
      "Sak": 5018,
      "Tɛ": 5019,
      "Wogyina": 5020,
      "Watene": 5021,
      "awa": 5022,
      "abibi": 5023,
      "ater": 5024,
      "awene": 5025,
      "cho": 5026,
      "ctri": 5027,
      "curtains": 5028,
      "dɛnt": 5029,
      "ex": 5030,
      "epo": 5031,
      "ekuo": 5032,
      "efufuw": 5033,
      "edwumayɛ": 5034,
      "efira": 5035,
      "ebutu": 5036,
      "efom": 5037,
      "esum": 5038,
      "ewim": 5039,
      "egyan": 5040,
      "ffee": 5041,
      "fence": 5042,
      "hɛɛ": 5043,
      "itum": 5044,
      "knic": 5045,
      "lat": 5046,
      "lɛte": 5047,
      "mɛ": 5048,
      "mani": 5049,
      "mfa": 5050,
      "mbɛrema": 5051,
      "npo": 5052,
      "nyɛn": 5053,
      "nnifa": 5054,
      "ndadeɛ": 5055,
      "nwen": 5056,
      "nhyiam": 5057,
      "nfoni": 5058,
      "nwusie": 5059,
      "nbenyini": 5060,
      "osu": 5061,
      "otwa": 5062,
      "ration": 5063,
      "sq": 5064,
      "sy": 5065,
      "stɛ": 5066,
      "sci": 5067,
      "snow": 5068,
      "sakit": 5069,
      "tak": 5070,
      "tɛnt": 5071,
      "uta": 5072,
      "waame": 5073,
      "Ɔwɔ": 5074,
      "Ɔnhyɛ": 5075,
      "Ɔfura": 5076,
      "Ɔmmu": 5077,
      "Ɔtɛm": 5078,
      "Ɔsɔfo": 5079,
      "Ɛne": 5080,
      "Ɛban": 5081,
      "Ɛnua": 5082,
      "Ɛtam": 5083,
      "ɔkɔ": 5084,
      "ɔse": 5085,
      "ɔbo": 5086,
      "ɔsere": 5087,
      "ɔwom": 5088,
      "ɔkyerɛkyerɛ": 5089,
      "ɔsensɛn": 5090,
      "ɔfira": 5091,
      "ɔkata": 5092,
      "ɔbronin": 5093,
      "ɛtaa": 5094,
      "ɛnn": 5095,
      "ɛha": 5096,
      "ɛneɛma": 5097,
      "ɛgya": 5098,
      "ɛdwa": 5099,
      "ɛtena": 5100,
      "ɛsɔ": 5101,
      "ɛdidi": 5102,
      "ɛtuo": 5103,
      "ɛbaasa": 5104,
      "ɛfira": 5105,
      "ɛdɛm": 5106,
      "ɛwia": 5107,
      "ɛfunu": 5108,
      "ɛtsew": 5109,
      "ℇna": 5110,
      "ℇkor": 5111,
      "Ↄbaako": 5112,
      "wɔsisi": 5113,
      "wɔti": 5114,
      "wɔkye": 5115,
      "wɔmma": 5116,
      "wɔɔyɛ": 5117,
      "wɔkoto": 5118,
      "wɔakata": 5119,
      "wɔabu": 5120,
      "wɔforo": 5121,
      "wɔasaw": 5122,
      "wɔdɔɔso": 5123,
      "wɔsiesie": 5124,
      "wɔakyɛ": 5125,
      "wɔatwitwa": 5126,
      "wɔapam": 5127,
      "wɔapaake": 5128,
      "wɔanoa": 5129,
      "yɛa": 5130,
      "yɛɛ": 5131,
      "yɛsi": 5132,
      "yɛaboa": 5133,
      "non": 5134,
      "noo": 5135,
      "nomu": 5136,
      "noos": 5137,
      "yiyi": 5138,
      "yifoɔ": 5139,
      "soasoa": 5140,
      "aase": 5141,
      "aafa": 5142,
      "ank": 5143,
      "reb": 5144,
      "rewura": 5145,
      "retow": 5146,
      "rekyekyere": 5147,
      "reguare": 5148,
      "rehole": 5149,
      "nese": 5150,
      "nenne": 5151,
      "desert": 5152,
      "teman": 5153,
      "tenis": 5154,
      "kow": 5155,
      "kolpɔt": 5156,
      "kontomire": 5157,
      "mutwa": 5158,
      "hyɛmma": 5159,
      "hyɛɛt": 5160,
      "nsoa": 5161,
      "nsono": 5162,
      "nsodeɛ": 5163,
      "wɔnsi": 5164,
      "wɔntumi": 5165,
      "waso": 5166,
      "wagu": 5167,
      "waboa": 5168,
      "wagye": 5169,
      "wasiesie": 5170,
      "wafee": 5171,
      "akwen": 5172,
      "foto": 5173,
      "fomba": 5174,
      "baason": 5175,
      "atɔn": 5176,
      "atworɔ": 5177,
      "gyinaa": 5178,
      "rasta": 5179,
      "kɔkɔ": 5180,
      "kɔbe": 5181,
      "kɔntoa": 5182,
      "paw": 5183,
      "papers": 5184,
      "bed": 5185,
      "benku": 5186,
      "besie": 5187,
      "yewaa": 5188,
      "saf": 5189,
      "sau": 5190,
      "sabea": 5191,
      "sage": 5192,
      "sedeɛ": 5193,
      "ture": 5194,
      "mmɛɛ": 5195,
      "abat": 5196,
      "abfra": 5197,
      "fire": 5198,
      "filag": 5199,
      "enua": 5200,
      "rowɔ": 5201,
      "robɛ": 5202,
      "ahemaa": 5203,
      "risifoɔ": 5204,
      "tacle": 5205,
      "dansinkran": 5206,
      "Wɔnom": 5207,
      "Wɔaso": 5208,
      "Wɔtsena": 5209,
      "Wɔfura": 5210,
      "Wɔasisi": 5211,
      "Wɔredidi": 5212,
      "animu": 5213,
      "bɔdɔm": 5214,
      "bɔlambɔ": 5215,
      "dot": 5216,
      "down": 5217,
      "akyikyiri": 5218,
      "rɔdrɔ": 5219,
      "tofoɔ": 5220,
      "dida": 5221,
      "bai": 5222,
      "baskɛt": 5223,
      "fufoɔ": 5224,
      "nomaa": 5225,
      "amaame": 5226,
      "Mmenyin": 5227,
      "wɔregu": 5228,
      "wɔresie": 5229,
      "wɔretwerɛtwerɛ": 5230,
      "wɔresom": 5231,
      "wɔregoro": 5232,
      "reet": 5233,
      "bof": 5234,
      "botum": 5235,
      "borehole": 5236,
      "taadeɛ": 5237,
      "taafoɔ": 5238,
      "ahosoɔ": 5239,
      "atapi": 5240,
      "nnwura": 5241,
      "nnɛma": 5242,
      "rane": 5243,
      "ranti": 5244,
      "mmie": 5245,
      "mmieni": 5246,
      "kyɛnsii": 5247,
      "bebreebe": 5248,
      "tiles": 5249,
      "tiona": 5250,
      "ɛnten": 5251,
      "ɔrekyɛ": 5252,
      "ɔrebɛ": 5253,
      "ɔrepra": 5254,
      "wobe": 5255,
      "wonyinaa": 5256,
      "wosua": 5257,
      "wokitakita": 5258,
      "wokurakura": 5259,
      "moe": 5260,
      "meeti": 5261,
      "ɛnante": 5262,
      "adak": 5263,
      "akodeɛ": 5264,
      "yama": 5265,
      "yareɛ": 5266,
      "ɔnyɛ": 5267,
      "mmari": 5268,
      "mmarahyɛbadwam": 5269,
      "ahyiamu": 5270,
      "hɔnho": 5271,
      "ɛseɛ": 5272,
      "asane": 5273,
      "abɔd": 5274,
      "abɔm": 5275,
      "abɔten": 5276,
      "kyifuo": 5277,
      "ɛɛsre": 5278,
      "ɛrekye": 5279,
      "ɛretete": 5280,
      "ɛregye": 5281,
      "ɛresesa": 5282,
      "ɛrekyia": 5283,
      "hyehyɛhyehyɛ": 5284,
      "wires": 5285,
      "aborɔfoɔ": 5286,
      "abonten": 5287,
      "mpasa": 5288,
      "kyerɛma": 5289,
      "kesee": 5290,
      "ntos": 5291,
      "ntoro": 5292,
      "anopi": 5293,
      "pik": 5294,
      "piuta": 5295,
      "buo": 5296,
      "but": 5297,
      "buku": 5298,
      "bukuu": 5299,
      "tware": 5300,
      "akuru": 5301,
      "akutunu": 5302,
      "sɛt": 5303,
      "sɛw": 5304,
      "tseaseanam": 5305,
      "Mmaabunu": 5306,
      "duan": 5307,
      "art": 5308,
      "ntomadan": 5309,
      "loodu": 5310,
      "agba": 5311,
      "agyan": 5312,
      "ɔdee": 5313,
      "nkotee": 5314,
      "apake": 5315,
      "apakan": 5316,
      "dzinn": 5317,
      "nkuruwa": 5318,
      "tɔfin": 5319,
      "ruw": 5320,
      "ruku": 5321,
      "akyene": 5322,
      "Papafo": 5323,
      "Bia": 5324,
      "Bicycle": 5325,
      "amamfo": 5326,
      "amambra": 5327,
      "ahwea": 5328,
      "ahwehwe": 5329,
      "miɛ": 5330,
      "akɔsɛm": 5331,
      "Aboronsan": 5332,
      "pete": 5333,
      "asomuadeɛ": 5334,
      "rehwɛfoɔ": 5335,
      "ntaabodan": 5336,
      "Mmɔframba": 5337,
      "Abro": 5338,
      "Abrofo": 5339,
      "manfoɔ": 5340,
      "gyeɛ": 5341,
      "nsufi": 5342,
      "husuo": 5343,
      "Nia": 5344,
      "afasu": 5345,
      "tables": 5346,
      "kakrakaa": 5347,
      "nnante": 5348,
      "esiei": 5349,
      "bɛtumi": 5350,
      "cor": 5351,
      "mmɔɔ": 5352,
      "tsiri": 5353,
      "Koroɔ": 5354,
      "Kolpɔt": 5355,
      "twenebɔfoɔ": 5356,
      "laen": 5357,
      "twiw": 5358,
      "Bae": 5359,
      "egudze": 5360,
      "beebia": 5361,
      "pɛpɛɛ": 5362,
      "ahyire": 5363,
      "ahyihyɛ": 5364,
      "gold": 5365,
      "polisinyi": 5366,
      "polisinii": 5367,
      "dɔfo": 5368,
      "lls": 5369,
      "rekɔdo": 5370,
      "paado": 5371,
      "nkey": 5372,
      "gyanyi": 5373,
      "kitsakit": 5374,
      "Amanɔne": 5375,
      "Nkurɔfokuw": 5376,
      "mmerante": 5377,
      "ɔsoa": 5378,
      "wɛtwa": 5379,
      "kyerɛkyerɛw": 5380,
      "kitiwaa": 5381,
      "woedua": 5382,
      "woefura": 5383,
      "nduadzewa": 5384,
      "sɛmɛnte": 5385,
      "atiu": 5386,
      "ngwa": 5387,
      "ɛnsoso": 5388,
      "abegyina": 5389,
      "osian": 5390,
      "ɔɔtwa": 5391,
      "eetwa": 5392,
      "Buuku": 5393,
      "hyihyɛ": 5394,
      "ahyɛnsodze": 5395,
      "whee": 5396,
      "mpanyimfoɔ": 5397,
      "biaɛ": 5398,
      "tomato": 5399,
      "Mfonyini": 5400,
      "hwehwɛniwa": 5401,
      "dadzesɛn": 5402,
      "Nsuhyɛn": 5403,
      "lask": 5404,
      "strɔɔ": 5405,
      "street": 5406,
      "ɛkyire": 5407,
      "Baatan": 5408,
      "atotototo": 5409,
      "faakor": 5410,
      "ɛmabaawa": 5411,
      "Asogyafo": 5412,
      "dennenne": 5413,
      "adwumayɛbea": 5414,
      "Polisinyi": 5415,
      "Wohwɛ": 5416,
      "Wohu": 5417,
      "Adetɔnfoɔ": 5418,
      "Abanbɔfoɔ": 5419,
      "efundaka": 5420,
      "akasamfonin": 5421,
      "butubutu": 5422,
      "Sukuufo": 5423,
      "nkawa": 5424,
      "atenatena": 5425,
      "Banbɔfo": 5426,
      "Mpenyimfo": 5427,
      "Mpɔnkye": 5428,
      "ntumi": 5429,
      "lassroom": 5430,
      "abɛtɔ": 5431,
      "crew": 5432,
      "ply": 5433,
      "plɛɛt": 5434,
      "wɔresiesie": 5435,
      "motorbike": 5436,
      "Sofa": 5437,
      "cul": 5438,
      "wɔɔkɔ": 5439,
      "wɔtenatena": 5440,
      "akansi": 5441,
      "wɔretwam": 5442,
      "Abaayaa": 5443,
      "ensam": 5444,
      "mmoawa": 5445,
      "ahofasoɔ": 5446,
      "ntwɛr": 5447,
      "tsentsentsen": 5448,
      "Nny": 5449,
      "Nnɔtedan": 5450,
      "stadi": 5451,
      "gallons": 5452,
      "dwadibea": 5453,
      "Agor": 5454,
      "Sil": 5455,
      "ɛkotow": 5456,
      "adwareɛ": 5457,
      "kakraabi": 5458,
      "ebubu": 5459,
      "ebuei": 5460,
      "ɔretwam": 5461,
      "kunturu": 5462,
      "wɔretoto": 5463,
      "wɔretontɔn": 5464,
      "mfinfinn": 5465,
      "krom": 5466,
      "Adzesua": 5467,
      "marker": 5468,
      "mbanyinfo": 5469,
      "afrafra": 5470,
      "Adwadibea": 5471,
      "pipes": 5472,
      "frɔyɛ": 5473,
      "flawa": 5474,
      "pleeti": 5475,
      "Bibinyi": 5476,
      "Ntaabodan": 5477,
      "ɔyare": 5478,
      "wɔtsetse": 5479,
      "abatiri": 5480,
      "adɔfo": 5481,
      "Colo": 5482,
      "Ntoosi": 5483,
      "Sebɔ": 5484,
      "shovel": 5485,
      "Fie": 5486,
      "hwam": 5487,
      "lɛs": 5488,
      "nsesan": 5489,
      "ketafoɔ": 5490,
      "abutuw": 5491,
      "abutubutu": 5492,
      "akwaha": 5493,
      "akwakora": 5494,
      "ahomegyebea": 5495,
      "Ataadeɛ": 5496,
      "mfeɛ": 5497,
      "mfɛnsee": 5498,
      "yarempa": 5499,
      "Atosodeɛ": 5500,
      "Ahabanmono": 5501,
      "mpɔtam": 5502,
      "wɔafurafura": 5503,
      "yɛatwerɛtwerɛ": 5504,
      "sumii": 5505,
      "worutu": 5506,
      "woruguar": 5507,
      "nkantan": 5508,
      "nkandzea": 5509,
      "asorɔtoo": 5510,
      "kyalewote": 5511,
      "Galɔn": 5512,
      "afora": 5513,
      "airport": 5514,
      "blocks": 5515,
      "grawa": 5516,
      "mboba": 5517,
      "Nantwi": 5518,
      "Tikya": 5519,
      "Ɔmanpanin": 5520,
      "bebreeeee": 5521,
      "ɛsensen": 5522,
      "volleyball": 5523,
      "prɛtse": 5524,
      "wimuhɛn": 5525,
      "piece": 5526,
      "violin": 5527,
      "Kɔnmuadeɛ": 5528,
      "Kyerɛkyerɛni": 5529,
      "Maami": 5530,
      "frut": 5531,
      "obronii": 5532,
      "atɔsodeɛ": 5533,
      "Kandzea": 5534,
      "brodo": 5535,
      "trɔɔg": 5536,
      "trɔɔko": 5537,
      "Muhu": 5538,
      "repaepae": 5539,
      "ebiesa": 5540,
      "dwiri": 5541,
      "ankorɛ": 5542,
      "ankonnwa": 5543,
      "agokansie": 5544,
      "trawsɛs": 5545,
      "Kapɛt": 5546,
      "news": 5547,
      "Nkwalaa": 5548,
      "Laet": 5549,
      "Screen": 5550,
      "salmon": 5551,
      "lowres": 5552,
      "Akwakora": 5553,
      "Wimuhyɛn": 5554,
      "lɛvihyin": 5555,
      "Chinese": 5556,
      "mbanyimba": 5557,
      "anyow": 5558,
      "wadane": 5559,
      "Mmarahyɛbadwafoɔ": 5560,
      "Nnɔbaeɛ": 5561,
      "Kiosk": 5562,
      "Nkaafo": 5563,
      "Ship": 5564,
      "ller": 5565,
      "teatea": 5566,
      "ambrɛla": 5567,
      "adehwɛpono": 5568,
      "tɛtrɛɛ": 5569,
      "Tomatoes": 5570,
      "Kaseɛbɔ": 5571,
      "Mfididwuma": 5572,
      "temanmufoɔ": 5573,
      "tacles": 5574,
      "atapiller": 5575,
      "ahwehweniwa": 5576,
      "pɛpɛɛpɛ": 5577,
      "kitsakitsa": 5578,
      "dennennen": 5579,
      "\".": 5580,
      "'.": 5581,
      "))": 5582,
      ",,": 5583,
      "3n": 5584,
      "3dan": 5585,
      "3y3": 5586,
      "Ac": 5587,
      "Ana": 5588,
      "Asi": 5589,
      "Ate": 5590,
      "Awa": 5591,
      "Aka": 5592,
      "Akasa": 5593,
      "Agua": 5594,
      "Apon": 5595,
      "Anim": 5596,
      "Apaa": 5597,
      "Asie": 5598,
      "Awia": 5599,
      "Adidipono": 5600,
      "Atar": 5601,
      "Ankaa": 5602,
      "Apɔn": 5603,
      "Accident": 5604,
      "Anurse": 5605,
      "Aweneɛ": 5606,
      "Bako": 5607,
      "Bar": 5608,
      "Benyi": 5609,
      "Bɛhwɛ": 5610,
      "Bɛrema": 5611,
      "Basia": 5612,
      "Cy": 5613,
      "Camera": 5614,
      "Cement": 5615,
      "Candle": 5616,
      "DC": 5617,
      "Du": 5618,
      "Dra": 5619,
      "Don": 5620,
      "Ex": 5621,
      "Ena": 5622,
      "Ewiemhyɛn": 5623,
      "Fan": 5624,
      "Fun": 5625,
      "Gi": 5626,
      "He": 5627,
      "In": 5628,
      "Iyi": 5629,
      "Ice": 5630,
      "Ju": 5631,
      "Ka": 5632,
      "Kata": 5633,
      "Kane": 5634,
      "Krakye": 5635,
      "Kanopi": 5636,
      "Mbaayewa": 5637,
      "Mpanin": 5638,
      "Mberantse": 5639,
      "Nkyɛn": 5640,
      "Nhyɛn": 5641,
      "Num": 5642,
      "Ndadze": 5643,
      "Ntere": 5644,
      "Nneema": 5645,
      "NDC": 5646,
      "Onipa": 5647,
      "Okuta": 5648,
      "Pe": 5649,
      "Pad": 5650,
      "Pap": 5651,
      "Pear": 5652,
      "Ru": 5653,
      "Sta": 5654,
      "Sam": 5655,
      "Sal": 5656,
      "Skuul": 5657,
      "Sɔfo": 5658,
      "Trɔ": 5659,
      "Tea": 5660,
      "Tae": 5661,
      "Wabobɔ": 5662,
      "Ward": 5663,
      "Wele": 5664,
      "Zibra": 5665,
      "aw": 5666,
      "afoɔ": 5667,
      "asuo": 5668,
      "asua": 5669,
      "awɔrehwɛ": 5670,
      "ammo": 5671,
      "awen": 5672,
      "afoforo": 5673,
      "bati": 5674,
      "came": 5675,
      "castle": 5676,
      "classroom": 5677,
      "dre": 5678,
      "dle": 5679,
      "eb": 5680,
      "ehyɛ": 5681,
      "efra": 5682,
      "ewura": 5683,
      "esua": 5684,
      "etsi": 5685,
      "epia": 5686,
      "edware": 5687,
      "epue": 5688,
      "ff": 5689,
      "fen": 5690,
      "fɛn": 5691,
      "fɔn": 5692,
      "fas": 5693,
      "ffa": 5694,
      "gles": 5695,
      "hz": 5696,
      "hyina": 5697,
      "ine": 5698,
      "iti": 5699,
      "iron": 5700,
      "iling": 5701,
      "iner": 5702,
      "iPad": 5703,
      "jo": 5704,
      "janii": 5705,
      "kta": 5706,
      "kaho": 5707,
      "kaba": 5708,
      "kabɔd": 5709,
      "kahyire": 5710,
      "lf": 5711,
      "lt": 5712,
      "lani": 5713,
      "laptɔ": 5714,
      "lkyɛɛ": 5715,
      "mbea": 5716,
      "mhyɛn": 5717,
      "maako": 5718,
      "mbɛn": 5719,
      "mbesiamba": 5720,
      "nh": 5721,
      "ndz": 5722,
      "nfu": 5723,
      "nda": 5724,
      "nwan": 5725,
      "ndzi": 5726,
      "nsen": 5727,
      "nwhi": 5728,
      "nwene": 5729,
      "nɛɛse": 5730,
      "nhɛ": 5731,
      "nhwen": 5732,
      "nɛteɛ": 5733,
      "nyɔnko": 5734,
      "nhweneɛ": 5735,
      "oko": 5736,
      "obe": 5737,
      "otum": 5738,
      "osuo": 5739,
      "osogyani": 5740,
      "orutwa": 5741,
      "pak": 5742,
      "prɔ": 5743,
      "pɛkyɛ": 5744,
      "pake": 5745,
      "rk": 5746,
      "rati": 5747,
      "stu": 5748,
      "swea": 5749,
      "sakasa": 5750,
      "spɛɛ": 5751,
      "spɛt": 5752,
      "ttle": 5753,
      "ugu": 5754,
      "vs": 5755,
      "wh": 5756,
      "wwɔ": 5757,
      "wmu": 5758,
      "wɛɛ": 5759,
      "ys": 5760,
      "yhyɛ": 5761,
      "yaka": 5762,
      "yum": 5763,
      "yhɛ": 5764,
      "yles": 5765,
      "Ɔne": 5766,
      "Ɔnam": 5767,
      "Ɔkwan": 5768,
      "Ɔama": 5769,
      "Ɔreyɛ": 5770,
      "Ɔfira": 5771,
      "Ɔsane": 5772,
      "Ɔreserew": 5773,
      "Ɔbɛrima": 5774,
      "Ɔmampanin": 5775,
      "Ɔsɔfoɔ": 5776,
      "Ɛma": 5777,
      "Ɛfa": 5778,
      "Ɛsan": 5779,
      "Ɛhɔnom": 5780,
      "Ɛkyɛw": 5781,
      "Ɛmmoa": 5782,
      "Ɛkro": 5783,
      "ɔt": 5784,
      "ɔsa": 5785,
      "ɔtaa": 5786,
      "ɔti": 5787,
      "ɔhyɛn": 5788,
      "ɔahyɛ": 5789,
      "ɔsɔ": 5790,
      "ɔkoro": 5791,
      "ɔfiri": 5792,
      "ɔbɛn": 5793,
      "ɔtow": 5794,
      "ɔatsen": 5795,
      "ɔyere": 5796,
      "ɔrobɔ": 5797,
      "ɔkra": 5798,
      "ɔbeako": 5799,
      "ɔhyw": 5800,
      "ɛr": 5801,
      "ɛdeɛ": 5802,
      "ɛto": 5803,
      "ɛnipa": 5804,
      "ɛmma": 5805,
      "ɛtɔ": 5806,
      "ɛdwuma": 5807,
      "ɛboa": 5808,
      "ɛmba": 5809,
      "ɛwiem": 5810,
      "ɛtɛ": 5811,
      "ɛforo": 5812,
      "ɛdidipono": 5813,
      "ɛtutu": 5814,
      "ɛmbaa": 5815,
      "ɛnoɔma": 5816,
      "ɛfɛm": 5817,
      "ɛkatakata": 5818,
      "wɔd": 5819,
      "wɔr": 5820,
      "wɔna": 5821,
      "wɔmu": 5822,
      "wɔwɔn": 5823,
      "wɔakyi": 5824,
      "wɔɔn": 5825,
      "wɔle": 5826,
      "wɔtɔ": 5827,
      "wɔkasa": 5828,
      "wɔsua": 5829,
      "wɔsɔ": 5830,
      "wɔkora": 5831,
      "wɔnoa": 5832,
      "wɔate": 5833,
      "wɔatoto": 5834,
      "wɔasen": 5835,
      "wɔahwɛ": 5836,
      "wɔtow": 5837,
      "wɔakatakata": 5838,
      "wɔkyea": 5839,
      "wɔtumi": 5840,
      "wɔabom": 5841,
      "yɛe": 5842,
      "yɛm": 5843,
      "yɛayɛ": 5844,
      "yɛsɛm": 5845,
      "yɛatwitwa": 5846,
      "yɛbɛka": 5847,
      "nafo": 5848,
      "nara": 5849,
      "nahusuo": 5850,
      "nor": 5851,
      "noaa": 5852,
      "nohyɛ": 5853,
      "nopi": 5854,
      "bino": 5855,
      "binso": 5856,
      "bigyina": 5857,
      "yini": 5858,
      "sodze": 5859,
      "sola": 5860,
      "sogyafo": 5861,
      "annan": 5862,
      "annwa": 5863,
      "anɛɛsefoɔ": 5864,
      "anhweneɛ": 5865,
      "rew": 5866,
      "rede": 5867,
      "rewe": 5868,
      "rebo": 5869,
      "rehyɛn": 5870,
      "rekura": 5871,
      "rekan": 5872,
      "repɛ": 5873,
      "rehye": 5874,
      "repata": 5875,
      "rebue": 5876,
      "refe": 5877,
      "rekyia": 5878,
      "retw": 5879,
      "retwerɛtwerɛ": 5880,
      "retase": 5881,
      "nena": 5882,
      "nekyɛn": 5883,
      "netsir": 5884,
      "nensɛm": 5885,
      "siu": 5886,
      "dee": 5887,
      "dei": 5888,
      "tey": 5889,
      "teaa": 5890,
      "mai": 5891,
      "mahyin": 5892,
      "kosi": 5893,
      "kontommire": 5894,
      "munu": 5895,
      "muade": 5896,
      "mukyia": 5897,
      "hɔa": 5898,
      "nsoroma": 5899,
      "wɔnn": 5900,
      "wɔnde": 5901,
      "wɔnho": 5902,
      "wɔnnom": 5903,
      "wɔnim": 5904,
      "wadi": 5905,
      "watɔ": 5906,
      "wasoɔ": 5907,
      "watutu": 5908,
      "wakyekyere": 5909,
      "wakyerɛkyerɛw": 5910,
      "akɔm": 5911,
      "akwaame": 5912,
      "fone": 5913,
      "atr": 5914,
      "hon": 5915,
      "gyinahɔ": 5916,
      "pas": 5917,
      "pasa": 5918,
      "pafoɔ": 5919,
      "pampan": 5920,
      "niyɛ": 5921,
      "beenum": 5922,
      "betumi": 5923,
      "yeyɛ": 5924,
      "yena": 5925,
      "yeaa": 5926,
      "saen": 5927,
      "same": 5928,
      "safe": 5929,
      "ses": 5930,
      "tuw": 5931,
      "tuma": 5932,
      "mmaako": 5933,
      "mmensa": 5934,
      "abra": 5935,
      "abua": 5936,
      "abɛsi": 5937,
      "abɛbɔ": 5938,
      "abɛgyina": 5939,
      "abrofo": 5940,
      "abrɔbɛ": 5941,
      "abrewa": 5942,
      "abakɔsɛm": 5943,
      "kuku": 5944,
      "kurekura": 5945,
      "fidua": 5946,
      "fiin": 5947,
      "fimfini": 5948,
      "endua": 5949,
      "enge": 5950,
      "entsen": 5951,
      "robe": 5952,
      "rotu": 5953,
      "rotow": 5954,
      "ahw": 5955,
      "ahim": 5956,
      "rin": 5957,
      "riyi": 5958,
      "risi": 5959,
      "riin": 5960,
      "ring": 5961,
      "summiiɛ": 5962,
      "tape": 5963,
      "Wɔɔ": 5964,
      "Wɔhwɛ": 5965,
      "Wɔtena": 5966,
      "Wɔapagya": 5967,
      "Wɔaboa": 5968,
      "Wɔakyekyere": 5969,
      "Wɔsoso": 5970,
      "Wɔahata": 5971,
      "Wɔatwitwa": 5972,
      "Wɔapaake": 5973,
      "anika": 5974,
      "bɔl": 5975,
      "bɔt": 5976,
      "bɔnka": 5977,
      "bɔtɔm": 5978,
      "dodɔeɛ": 5979,
      "donkey": 5980,
      "akyitaafoɔ": 5981,
      "rɔkye": 5982,
      "toe": 5983,
      "totɔ": 5984,
      "totro": 5985,
      "didwuma": 5986,
      "batere": 5987,
      "basiaba": 5988,
      "dzu": 5989,
      "amɔ": 5990,
      "amane": 5991,
      "ammar": 5992,
      "Mman": 5993,
      "wɔreboa": 5994,
      "wɔresɔ": 5995,
      "wɔrepra": 5996,
      "wɔrehoro": 5997,
      "wɔresre": 5998,
      "wɔremiamia": 5999,
      "wɔretwitwi": 6000,
      "wɔretsie": 6001,
      "wɔretsei": 6002,
      "wɔremaakye": 6003,
      "wetwa": 6004,
      "boki": 6005,
      "borɔfo": 6006,
      "taabo": 6007,
      "taalia": 6008,
      "ahono": 6009,
      "ebia": 6010,
      "ebiara": 6011,
      "rɛdze": 6012,
      "rantie": 6013,
      "mmir": 6014,
      "nyinaaaa": 6015,
      "suon": 6016,
      "bebreebee": 6017,
      "tim": 6018,
      "titafo": 6019,
      "tunyum": 6020,
      "ɛnsuo": 6021,
      "ataataa": 6022,
      "ɔretu": 6023,
      "ɔrewe": 6024,
      "ɔrepae": 6025,
      "ɔrekyea": 6026,
      "ɔretwerɛtwerɛ": 6027,
      "dzeen": 6028,
      "kalɛs": 6029,
      "kanopi": 6030,
      "nkyɛnsen": 6031,
      "wohwɛ": 6032,
      "woayɛ": 6033,
      "woama": 6034,
      "wowom": 6035,
      "wofura": 6036,
      "wokitsakitsa": 6037,
      "mob": 6038,
      "moo": 6039,
      "kɔkɔɔɔ": 6040,
      "mem": 6041,
      "mer": 6042,
      "mene": 6043,
      "mema": 6044,
      "melɔn": 6045,
      "kyenee": 6046,
      "adwen": 6047,
      "adwow": 6048,
      "adrɔdrɔ": 6049,
      "mmasiafo": 6050,
      "hare": 6051,
      "hair": 6052,
      "bear": 6053,
      "beach": 6054,
      "naman": 6055,
      "nky": 6056,
      "nkyim": 6057,
      "nkratae": 6058,
      "abɔmu": 6059,
      "esiamma": 6060,
      "kyinyɛ": 6061,
      "kyinii": 6062,
      "kyinkyim": 6063,
      "ɛɛtwe": 6064,
      "ɛɛsua": 6065,
      "ɛreyi": 6066,
      "ɛretwerɛ": 6067,
      "ɛrehohoro": 6068,
      "ɛresiesie": 6069,
      "ɛrehim": 6070,
      "ɛrehwie": 6071,
      "win": 6072,
      "abowa": 6073,
      "aboano": 6074,
      "tetefoon": 6075,
      "mpadua": 6076,
      "kyerɛwee": 6077,
      "apapafoɔ": 6078,
      "twer": 6079,
      "tweɔn": 6080,
      "kers": 6081,
      "nton": 6082,
      "ntokura": 6083,
      "anonneɛ": 6084,
      "ping": 6085,
      "pikya": 6086,
      "Mmar": 6087,
      "Mmame": 6088,
      "Mmabunu": 6089,
      "Mmarahyɛbadwam": 6090,
      "mmaabawa": 6091,
      "akuturu": 6092,
      "akutru": 6093,
      "sɛvi": 6094,
      "abasirwa": 6095,
      "abaɛfor": 6096,
      "tser": 6097,
      "tsedɛ": 6098,
      "bankuta": 6099,
      "Mmaatan": 6100,
      "Mmaamuwaa": 6101,
      "ayɛsɛ": 6102,
      "dun": 6103,
      "ataade3": 6104,
      "ntomasin": 6105,
      "lope": 6106,
      "atotɔ": 6107,
      "atorofoɔ": 6108,
      "Nkube": 6109,
      "Nkuruma": 6110,
      "agrɔ": 6111,
      "ɔdetwa": 6112,
      "nkoa": 6113,
      "nkonyim": 6114,
      "nkondwa": 6115,
      "nkotsee": 6116,
      "akokɔsradze": 6117,
      "ahyehyɛhyehyɛ": 6118,
      "asieɛ": 6119,
      "apɛ": 6120,
      "apre": 6121,
      "apataa": 6122,
      "mpakuw": 6123,
      "abankɛseɛ": 6124,
      "ekyim": 6125,
      "ɔyɛdɛ": 6126,
      "dzin": 6127,
      "dzifo": 6128,
      "dzidzi": 6129,
      "fɛfɛ": 6130,
      "nkuo": 6131,
      "nkunyim": 6132,
      "mfoyin": 6133,
      "agudiɛ": 6134,
      "kɔnst": 6135,
      "tɔp": 6136,
      "tɔma": 6137,
      "wuram": 6138,
      "like": 6139,
      "adefo": 6140,
      "adekyerɛ": 6141,
      "rubɔ": 6142,
      "akyen": 6143,
      "akyew": 6144,
      "Mmarimakuo": 6145,
      "dwadie": 6146,
      "ntainer": 6147,
      "amamber": 6148,
      "dɔmpim": 6149,
      "ahwedeɛ": 6150,
      "asau": 6151,
      "min": 6152,
      "akɔtɔ": 6153,
      "akɔla": 6154,
      "akɔlaa": 6155,
      "dɛfɛ": 6156,
      "Abotan": 6157,
      "Aboduaba": 6158,
      "pel": 6159,
      "ɛtene": 6160,
      "ason": 6161,
      "papadan": 6162,
      "atadesu": 6163,
      "Nkongua": 6164,
      "hemaa": 6165,
      "obira": 6166,
      "enyigye": 6167,
      "Abato": 6168,
      "Abatow": 6169,
      "tenetene": 6170,
      "mantam": 6171,
      "pantoo": 6172,
      "sɔɔto": 6173,
      "sɔɔtse": 6174,
      "kakaa": 6175,
      "cards": 6176,
      "Obiaa": 6177,
      "bɛba": 6178,
      "cou": 6179,
      "cour": 6180,
      "copter": 6181,
      "coffee": 6182,
      "mmɔtoam": 6183,
      "skɛte": 6184,
      "skɛɛte": 6185,
      "tsinhwi": 6186,
      "Kontommire": 6187,
      "Kontomire": 6188,
      "yiemu": 6189,
      "Aborɔfofoɔ": 6190,
      "labia": 6191,
      "afum": 6192,
      "Bammɔfoɔ": 6193,
      "eguam": 6194,
      "pɔle": 6195,
      "asɛw": 6196,
      "enter": 6197,
      "abire": 6198,
      "abisa": 6199,
      "afaafa": 6200,
      "gover": 6201,
      "ataretare": 6202,
      "abusu": 6203,
      "abusuafoɔ": 6204,
      "abusuafo": 6205,
      "abubuafo": 6206,
      "dɔsɔ": 6207,
      "dɔkota": 6208,
      "rekɔgye": 6209,
      "paaki": 6210,
      "nkedem": 6211,
      "adansie": 6212,
      "adanmutwa": 6213,
      "ɛsoa": 6214,
      "Nsuomhyɛn": 6215,
      "Net": 6216,
      "mmepɔ": 6217,
      "Bottle": 6218,
      "tɛs": 6219,
      "atwerɛdeɛ": 6220,
      "wɔroko": 6221,
      "wɔronom": 6222,
      "woetu": 6223,
      "Adansifo": 6224,
      "Sum": 6225,
      "Sundze": 6226,
      "Sumiɛ": 6227,
      "ayare": 6228,
      "dzɛm": 6229,
      "waayɛ": 6230,
      "waabɔ": 6231,
      "waakye": 6232,
      "waahyehyɛ": 6233,
      "panyinfoɔ": 6234,
      "ɛnson": 6235,
      "dadekyɛw": 6236,
      "abeti": 6237,
      "ɔɔbɔ": 6238,
      "ɔɔhwɛ": 6239,
      "ɔɔgo": 6240,
      "Bus": 6241,
      "ceiling": 6242,
      "trao": 6243,
      "wheniwa": 6244,
      "ayiyɔ": 6245,
      "hyen": 6246,
      "hyew": 6247,
      "hyehɛ": 6248,
      "Wɔreda": 6249,
      "Wɔregye": 6250,
      "Wɔrehwehwɛ": 6251,
      "Wɔresiesie": 6252,
      "kettle": 6253,
      "nwie": 6254,
      "nkyɛnsedan": 6255,
      "ridzidzi": 6256,
      "Nnuanua": 6257,
      "dadzekyɛw": 6258,
      "kɛt": 6259,
      "mmoframa": 6260,
      "stri": 6261,
      "styles": 6262,
      "bɛnkye": 6263,
      "taretare": 6264,
      "chain": 6265,
      "chairs": 6266,
      "amono": 6267,
      "funudaka": 6268,
      "abaatan": 6269,
      "abaamuwa": 6270,
      "brau": 6271,
      "brawn": 6272,
      "serewserew": 6273,
      "tietia": 6274,
      "whie": 6275,
      "denden": 6276,
      "Akwanyifoɔ": 6277,
      "Wori": 6278,
      "Wokitakita": 6279,
      "mpuro": 6280,
      "rahyɛbedwam": 6281,
      "Adesua": 6282,
      "efunuadaka": 6283,
      "Sukuudan": 6284,
      "nkateɛ": 6285,
      "ntima": 6286,
      "vie": 6287,
      "vice": 6288,
      "kyerɛwdua": 6289,
      "trol": 6290,
      "aker": 6291,
      "nyɛnko": 6292,
      "abɛsa": 6293,
      "blaɔk": 6294,
      "atɔfo": 6295,
      "atuntumfo": 6296,
      "Soro": 6297,
      "tɔɔban": 6298,
      "wɔafra": 6299,
      "wɔaforo": 6300,
      "wɔaworɔ": 6301,
      "wɔadorɔ": 6302,
      "hɛlmɛt": 6303,
      "Nnip": 6304,
      "kyaw": 6305,
      "gidi": 6306,
      "Ntomadan": 6307,
      "agyanan": 6308,
      "mbɔlambɔ": 6309,
      "mmoadoma": 6310,
      "mpaninfo": 6311,
      "Yɛabɔ": 6312,
      "shan": 6313,
      "kuafo": 6314,
      "gyins": 6315,
      "ntwenee": 6316,
      "wɔsoa": 6317,
      "placards": 6318,
      "Sikiriti": 6319,
      "ɛnimmu": 6320,
      "sumdze": 6321,
      "hyuu": 6322,
      "ebunu": 6323,
      "ndzeɛma": 6324,
      "nhwire": 6325,
      "Mmer": 6326,
      "dzendzeen": 6327,
      "nyama": 6328,
      "mfinfini": 6329,
      "tunutum": 6330,
      "wɔreyiyi": 6331,
      "ɔmanpanyin": 6332,
      "rahyɛbaguam": 6333,
      "mmuadze": 6334,
      "akyɛw": 6335,
      "akyɛdeɛ": 6336,
      "reyiyi": 6337,
      "cameras": 6338,
      "ment": 6339,
      "menmen": 6340,
      "baesekel": 6341,
      "machines": 6342,
      "apaapae": 6343,
      "Abusuakuw": 6344,
      "wɔtotɔn": 6345,
      "borɔni": 6346,
      "borɔnya": 6347,
      "Ɔyɛkyerɛ": 6348,
      "wɔasosɔsosɔ": 6349,
      "bɔntene": 6350,
      "frɔm": 6351,
      "pleet": 6352,
      "ɛmoa": 6353,
      "renantew": 6354,
      "ahenkyɛw": 6355,
      "afunupɔnkɔ": 6356,
      "drip": 6357,
      "eyim": 6358,
      "speakers": 6359,
      "wɔresereserew": 6360,
      "ɔrotɔn": 6361,
      "apomudzen": 6362,
      "nkwantere": 6363,
      "entre": 6364,
      "adɔkotafo": 6365,
      "adɔkɔdɔkɔdeɛ": 6366,
      "Apoosifoɔ": 6367,
      "Coal": 6368,
      "Traffic": 6369,
      "sakatuu": 6370,
      "hurihuri": 6371,
      "Ɛmɛɛma": 6372,
      "Ɛmbɛɛmua": 6373,
      "Fitaa": 6374,
      "Kɔpo": 6375,
      "rebɛfa": 6376,
      "wohunu": 6377,
      "Akɔlaa": 6378,
      "krado": 6379,
      "nnema": 6380,
      "nneɔma": 6381,
      "ndɛte": 6382,
      "ndɛma": 6383,
      "stew": 6384,
      "atser": 6385,
      "Pii": 6386,
      "Pillow": 6387,
      "akwame": 6388,
      "kyɛɛs": 6389,
      "nkakramma": 6390,
      "Tele": 6391,
      "awufo": 6392,
      "droba": 6393,
      "edzidzi": 6394,
      "shelve": 6395,
      "ɛbɛduru": 6396,
      "wɔrebɛgye": 6397,
      "Obronii": 6398,
      "kuruwaa": 6399,
      "akuntun": 6400,
      "asopaatee": 6401,
      "spectacles": 6402,
      "Nketesia": 6403,
      "ampesi": 6404,
      "worutwa": 6405,
      "nkwakora": 6406,
      "asorɔtow": 6407,
      "Apɔwmudzen": 6408,
      "Bags": 6409,
      "afono": 6410,
      "block": 6411,
      "mbobaa": 6412,
      "anwenneɛ": 6413,
      "nnɛtedan": 6414,
      "akyirikyirikyiri": 6415,
      "Tikyani": 6416,
      "nehoa": 6417,
      "temamufoɔ": 6418,
      "asomdeɛ": 6419,
      "nketsenketse": 6420,
      "Amanyɔfoɔ": 6421,
      "rahyɛbedwafie": 6422,
      "Machines": 6423,
      "Adoe": 6424,
      "cher": 6425,
      "check": 6426,
      "ɔrekyew": 6427,
      "Nkurofokuo": 6428,
      "Nkurofokuw": 6429,
      "Aketeesia": 6430,
      "atɔsodze": 6431,
      "bɛhwɛadefoɔ": 6432,
      "Afarefoɔ": 6433,
      "Flawa": 6434,
      "Phones": 6435,
      "awhewheniwa": 6436,
      "ahɔhoɔ": 6437,
      "calcul": 6438,
      "flaag": 6439,
      "mmarahyɛbadwafoɔ": 6440,
      "akwantufo": 6441,
      "aworɔworɔ": 6442,
      "Akyerɛkyerɛfo": 6443,
      "Robɔt": 6444,
      "femfam": 6445,
      "nsanku": 6446,
      "Ɔsranii": 6447,
      "ɔnnhyɛ": 6448,
      "tiivi": 6449,
      "asordan": 6450,
      "Borɔde": 6451,
      "Borɔnyi": 6452,
      "kwabokwabo": 6453,
      "Afraba": 6454,
      "Kyinniiɛ": 6455,
      "Nnyipadɔm": 6456,
      "trat": 6457,
      "ɛfuom": 6458,
      "maek": 6459,
      "hyɛmhyɛm": 6460,
      "kasatorofoɔ": 6461,
      "buut": 6462,
      "mpempem": 6463,
      "agokansi": 6464,
      "Asɔredan": 6465,
      "Odumgya": 6466,
      "Odumgyafoɔ": 6467,
      "esuon": 6468,
      "nɔdeɛ": 6469,
      "painti": 6470,
      "bonnet": 6471,
      "kapɛte": 6472,
      "hinhim": 6473,
      "nketeesia": 6474,
      "akitakita": 6475,
      "Asɛnnibea": 6476,
      "Aircondition": 6477,
      "Tutu": 6478,
      "babree": 6479,
      "crate": 6480,
      "gyiana": 6481,
      "anwono": 6482,
      "dawuro": 6483,
      "morter": 6484,
      "pinkyenpinkyen": 6485,
      "amannyɔfoɔ": 6486,
      "aketewia": 6487,
      "Ayarfo": 6488,
      "fruits": 6489,
      "Kyɛw": 6490,
      "Stores": 6491,
      "theatre": 6492,
      "service": 6493,
      "asepaatre": 6494,
      "hweaseammɔ": 6495,
      "reflɛkta": 6496,
      "Afiase": 6497,
      "Concrete": 6498,
      "POP": 6499,
      "ehyiemu": 6500,
      "photo": 6501,
      "wɔakyerɛkyerɛw": 6502,
      "nananom": 6503,
      "simpie": 6504,
      "akuafoɔ": 6505,
      "selfie": 6506,
      "ɔrengye": 6507,
      "kwantempɔn": 6508,
      "wienhyɛn": 6509,
      "nsuomunam": 6510,
      "Koropɔɔto": 6511,
      "tsentseentsen": 6512,
      "mmemmem": 6513,
      "wɔapeenti": 6514,
      "Temamufoɔ": 6515,
      "ayeyɛyeyɛ": 6516,
      "plastic": 6517,
      "engineer": 6518,
      "Drink": 6519,
      "Germany": 6520,
      "Hyɛmma": 6521,
      "Kakraba": 6522,
      "Ntɔkwa": 6523,
      "Nsrahwɛfoɔ": 6524,
      "Odwadini": 6525,
      "Sakre": 6526,
      "ctric": 6527,
      "knicker": 6528,
      "science": 6529,
      "taksi": 6530,
      "saftey": 6531,
      "sausage": 6532,
      "bofrot": 6533,
      "rantieɛ": 6534,
      "meeting": 6535,
      "ntorowa": 6536,
      "agbagya": 6537,
      "Awarefoɔ": 6538,
      "Apaafo": 6539,
      "Apɔnkye": 6540,
      "Benyini": 6541,
      "Cycle": 6542,
      "Katapila": 6543,
      "Rubber": 6544,
      "Trɔtrɔ": 6545,
      "Wardrobe": 6546,
      "camel": 6547,
      "laptɔpo": 6548,
      "sweater": 6549,
      "spɛɛs": 6550,
      "spɛtak": 6551,
      "bokitsi": 6552,
      "akuturuku": 6553,
      "sɛvis": 6554,
      "kɔnstrak": 6555,
      "court": 6556,
      "governor": 6557,
      "calculator": 6558,
      "3de": 6559,
      "3ma": 6560,
      "AT": 6561,
      "Afu": 6562,
      "Awo": 6563,
      "Ahɔn": 6564,
      "Asɛ": 6565,
      "Apɔnkɔ": 6566,
      "Afie": 6567,
      "Akan": 6568,
      "Anwi": 6569,
      "Afoforɔ": 6570,
      "Adziban": 6571,
      "Adware": 6572,
      "Apɔtɔ": 6573,
      "Asɛe": 6574,
      "Akyire": 6575,
      "Asrani": 6576,
      "Asebɔ": 6577,
      "Akasamfonin": 6578,
      "Abibiri": 6579,
      "Atemmuafoɔ": 6580,
      "Atwenebɔfoɔ": 6581,
      "Bri": 6582,
      "Brɔ": 6583,
      "Bɔn": 6584,
      "Bla": 6585,
      "Bel": 6586,
      "Bronyi": 6587,
      "CE": 6588,
      "Ch": 6589,
      "Cabbage": 6590,
      "Castle": 6591,
      "Cater": 6592,
      "Catapiller": 6593,
      "Dum": 6594,
      "Dɛmaa": 6595,
      "Ennua": 6596,
      "Enyi": 6597,
      "Eng": 6598,
      "Efom": 6599,
      "Ekuw": 6600,
      "Enum": 6601,
      "Ekurow": 6602,
      "Ekyir": 6603,
      "Ekuafo": 6604,
      "Fo": 6605,
      "Fru": 6606,
      "Faya": 6607,
      "Flask": 6608,
      "Flowres": 6609,
      "Gye": 6610,
      "Gol": 6611,
      "Glaase": 6612,
      "Hama": 6613,
      "Hammar": 6614,
      "IA": 6615,
      "Je": 6616,
      "Le": 6617,
      "Lady": 6618,
      "Mbe": 6619,
      "Mag": 6620,
      "Mbarima": 6621,
      "Mame": 6622,
      "Mpata": 6623,
      "Mbɛrima": 6624,
      "Mfuw": 6625,
      "Mbenyimba": 6626,
      "Nu": 6627,
      "Ny": 6628,
      "Nno": 6629,
      "Nso": 6630,
      "Nyia": 6631,
      "Ndaka": 6632,
      "Nɛɛse": 6633,
      "Nfoni": 6634,
      "Nnomaa": 6635,
      "Opanin": 6636,
      "Okitsa": 6637,
      "Otemmuafoɔ": 6638,
      "Ple": 6639,
      "Pae": 6640,
      "Ste": 6641,
      "Swe": 6642,
      "Tɔm": 6643,
      "Tem": 6644,
      "Tɔma": 6645,
      "Trak": 6646,
      "Tent": 6647,
      "Tɛl": 6648,
      "Wu": 6649,
      "Wama": 6650,
      "Watu": 6651,
      "Wayi": 6652,
      "Waduro": 6653,
      "Wasan": 6654,
      "Ye": 6655,
      "Yaa": 6656,
      "Yɛwɔ": 6657,
      "ao": 6658,
      "api": 6659,
      "awura": 6660,
      "afufuo": 6661,
      "abaawa": 6662,
      "afufuw": 6663,
      "all": 6664,
      "asukuu": 6665,
      "awiemhyɛn": 6666,
      "ayɔ": 6667,
      "ayere": 6668,
      "ayɔnko": 6669,
      "afɛɛfɛɛ": 6670,
      "acro": 6671,
      "bbi": 6672,
      "bakata": 6673,
      "bakɛt": 6674,
      "bronya": 6675,
      "cs": 6676,
      "clo": 6677,
      "cum": 6678,
      "dy": 6679,
      "dres": 6680,
      "enso": 6681,
      "eda": 6682,
      "etuntum": 6683,
      "ehyehyɛ": 6684,
      "ewi": 6685,
      "ekɔn": 6686,
      "egye": 6687,
      "esɔ": 6688,
      "edidi": 6689,
      "ekuro": 6690,
      "ekitakita": 6691,
      "ekutakuta": 6692,
      "ekuw": 6693,
      "ehwie": 6694,
      "ekunu": 6695,
      "ehyiam": 6696,
      "efirafira": 6697,
      "ewiemuhyɛn": 6698,
      "emia": 6699,
      "fako": 6700,
      "fadeɛ": 6701,
      "gs": 6702,
      "gen": 6703,
      "gɔn": 6704,
      "gap": 6705,
      "gir": 6706,
      "gate": 6707,
      "graase": 6708,
      "gɔɔta": 6709,
      "gration": 6710,
      "ggles": 6711,
      "hc": 6712,
      "habammono": 6713,
      "iyi": 6714,
      "isa": 6715,
      "idi": 6716,
      "irika": 6717,
      "inee": 6718,
      "kle": 6719,
      "kru": 6720,
      "kruwa": 6721,
      "kyɔ": 6722,
      "kramo": 6723,
      "kyo": 6724,
      "kwn": 6725,
      "katuo": 6726,
      "kɛɛt": 6727,
      "lli": 6728,
      "lɛnten": 6729,
      "mso": 6730,
      "mfam": 6731,
      "mbu": 6732,
      "mbaayewa": 6733,
      "mɛɛma": 6734,
      "mbol": 6735,
      "mbenyi": 6736,
      "mbenyimba": 6737,
      "mbir": 6738,
      "nɛse": 6739,
      "nɛɛ": 6740,
      "nsra": 6741,
      "ntenten": 6742,
      "ntena": 6743,
      "nɔte": 6744,
      "nhwe": 6745,
      "ntsena": 6746,
      "nhi": 6747,
      "nsaa": 6748,
      "ndɔ": 6749,
      "ntan": 6750,
      "nɔɔ": 6751,
      "nkasamu": 6752,
      "nduro": 6753,
      "nkɔɔpoo": 6754,
      "nhoni": 6755,
      "nsereba": 6756,
      "ntentensoɔ": 6757,
      "nkyerɛwee": 6758,
      "od": 6759,
      "ot": 6760,
      "ou": 6761,
      "oso": 6762,
      "oni": 6763,
      "ofi": 6764,
      "obo": 6765,
      "oka": 6766,
      "owura": 6767,
      "onu": 6768,
      "oru": 6769,
      "opanin": 6770,
      "oves": 6771,
      "obibini": 6772,
      "omiamia": 6773,
      "oyikyerɛ": 6774,
      "ohoni": 6775,
      "plet": 6776,
      "phan": 6777,
      "patre": 6778,
      "qn": 6779,
      "rw": 6780,
      "rakyɛ": 6781,
      "rkers": 6782,
      "sl": 6783,
      "sno": 6784,
      "sfo": 6785,
      "sha": 6786,
      "shɛ": 6787,
      "skul": 6788,
      "ssert": 6789,
      "srane": 6790,
      "stɔfin": 6791,
      "screw": 6792,
      "tv": 6793,
      "tab": 6794,
      "tran": 6795,
      "twu": 6796,
      "tɛɛ": 6797,
      "takwame": 6798,
      "uni": 6799,
      "uhu": 6800,
      "ugh": 6801,
      "wm": 6802,
      "wz": 6803,
      "wre": 6804,
      "wwɔn": 6805,
      "wɛse": 6806,
      "wrɛnkyɛm": 6807,
      "wder": 6808,
      "yatwerɛtwerɛ": 6809,
      "zde": 6810,
      "Ɔbi": 6811,
      "Ɔhyehyɛ": 6812,
      "Ɔkoto": 6813,
      "Ɔredi": 6814,
      "Ɔrekɔ": 6815,
      "Ɔrekasa": 6816,
      "Ɔrekyerɛ": 6817,
      "Ɔbronin": 6818,
      "Ɔbɛɛma": 6819,
      "Ɔware": 6820,
      "Ɔyare": 6821,
      "Ɔbotan": 6822,
      "Ɛno": 6823,
      "Ɛsi": 6824,
      "Ɛhyɛ": 6825,
      "Ɛbaako": 6826,
      "Ɛbea": 6827,
      "Ɛsoro": 6828,
      "Ɛnan": 6829,
      "Ɛnu": 6830,
      "Ɛdɛm": 6831,
      "Ɛwuraba": 6832,
      "Ɛboɔ": 6833,
      "Ɛyere": 6834,
      "Ɛdzan": 6835,
      "Ɛkoɔ": 6836,
      "ɔf": 6837,
      "ɔo": 6838,
      "ɔnso": 6839,
      "ɔbe": 6840,
      "ɔdeɛ": 6841,
      "ɔnom": 6842,
      "ɔsisi": 6843,
      "ɔkɔɔ": 6844,
      "ɔfa": 6845,
      "ɔban": 6846,
      "ɔɔmo": 6847,
      "ɔsɛn": 6848,
      "ɔaso": 6849,
      "ɔpra": 6850,
      "ɔfrɛ": 6851,
      "ɔbia": 6852,
      "ɔfoforɔ": 6853,
      "ɔkraman": 6854,
      "ɔturu": 6855,
      "ɔsrani": 6856,
      "ɔbotan": 6857,
      "ɔhya": 6858,
      "ɔɔnoa": 6859,
      "ɛk": 6860,
      "ɛɔ": 6861,
      "ɛkye": 6862,
      "ɛmpa": 6863,
      "ɛtse": 6864,
      "ɛdu": 6865,
      "ɛduku": 6866,
      "ɛpɛ": 6867,
      "ɛsor": 6868,
      "ɛkitakita": 6869,
      "ɛkɛ": 6870,
      "ɛpepa": 6871,
      "ɛdɔɔso": 6872,
      "ɛkutu": 6873,
      "ɛhyerɛn": 6874,
      "ɛbom": 6875,
      "ℇhɔ": 6876,
      "ℇbea": 6877,
      "wɔl": 6878,
      "wɔnso": 6879,
      "wɔho": 6880,
      "wɔba": 6881,
      "wɔanim": 6882,
      "wɔtum": 6883,
      "wɔase": 6884,
      "wɔnan": 6885,
      "wɔmp": 6886,
      "wɔagu": 6887,
      "wɔwura": 6888,
      "wɔhyia": 6889,
      "wɔbobɔ": 6890,
      "wɔmmɔ": 6891,
      "wɔatwe": 6892,
      "wɔayi": 6893,
      "wɔhye": 6894,
      "wɔahye": 6895,
      "wɔɔtɔn": 6896,
      "wɔatwi": 6897,
      "wɔabubu": 6898,
      "wɔasan": 6899,
      "wɔpaake": 6900,
      "wɔfirafira": 6901,
      "wɔatae": 6902,
      "wɔnakyi": 6903,
      "wɔanwene": 6904,
      "wɔbor": 6905,
      "wɔakeka": 6906,
      "yɛni": 6907,
      "yɛto": 6908,
      "yɛabɔ": 6909,
      "yɛhyehyɛ": 6910,
      "yɛakye": 6911,
      "yɛgye": 6912,
      "yɛtwerɛ": 6913,
      "yɛhu": 6914,
      "yɛdidi": 6915,
      "yɛresi": 6916,
      "yɛrewɔ": 6917,
      "yɛape": 6918,
      "yɛapenti": 6919,
      "naan": 6920,
      "naaba": 6921,
      "nakyiri": 6922,
      "naakoko": 6923,
      "nationa": 6924,
      "nonyinaa": 6925,
      "noara": 6926,
      "bire": 6927,
      "bine": 6928,
      "bien": 6929,
      "bimo": 6930,
      "biayɛ": 6931,
      "bidie": 6932,
      "biasi": 6933,
      "bible": 6934,
      "biredum": 6935,
      "soo": 6936,
      "sorɔ": 6937,
      "sogyanyi": 6938,
      "sojanii": 6939,
      "aaaa": 6940,
      "any": 6941,
      "anɔ": 6942,
      "anso": 6943,
      "anwe": 6944,
      "ance": 6945,
      "ankora": 6946,
      "antea": 6947,
      "annwea": 6948,
      "redze": 6949,
      "rehyia": 6950,
      "repaa": 6951,
      "regoro": 6952,
      "repenti": 6953,
      "nefa": 6954,
      "ners": 6955,
      "nenyiwa": 6956,
      "siki": 6957,
      "sili": 6958,
      "sibra": 6959,
      "silin": 6960,
      "sikɛɛt": 6961,
      "dewu": 6962,
      "design": 6963,
      "dehyeɛ": 6964,
      "dessert": 6965,
      "ted": 6966,
      "tes": 6967,
      "teri": 6968,
      "teta": 6969,
      "terɛ": 6970,
      "makye": 6971,
      "madam": 6972,
      "koat": 6973,
      "muka": 6974,
      "hɔɔmo": 6975,
      "hyɛhyɛ": 6976,
      "hyɛɛte": 6977,
      "hyɛnsodeɛ": 6978,
      "nsoi": 6979,
      "nsohyɛ": 6980,
      "nsonso": 6981,
      "wɔndze": 6982,
      "wɔnmo": 6983,
      "wɔnnhyɛ": 6984,
      "wɔnwene": 6985,
      "wɔntɛm": 6986,
      "wadua": 6987,
      "wadzi": 6988,
      "wakyea": 6989,
      "wahuri": 6990,
      "wapira": 6991,
      "akak": 6992,
      "akɔhyɛ": 6993,
      "akɔyɛ": 6994,
      "akyɛde": 6995,
      "akrakyɛ": 6996,
      "fora": 6997,
      "fofoɔ": 6998,
      "four": 6999,
      "baaako": 7000,
      "baatan": 7001,
      "atw": 7002,
      "ataka": 7003,
      "atɛnt": 7004,
      "atahata": 7005,
      "attakwame": 7006,
      "hol": 7007,
      "gyinagina": 7008,
      "rado": 7009,
      "raba": 7010,
      "rahwɛ": 7011,
      "radio": 7012,
      "kɔp": 7013,
      "kɔbɔ": 7014,
      "kɔeɛ": 7015,
      "pampa": 7016,
      "pamp": 7017,
      "pamfoɔ": 7018,
      "niaba": 7019,
      "beyɛ": 7020,
      "bese": 7021,
      "bepo": 7022,
      "besua": 7023,
      "begyi": 7024,
      "yen": 7025,
      "saet": 7026,
      "sakoo": 7027,
      "safoa": 7028,
      "sefoɔ": 7029,
      "seke": 7030,
      "segua": 7031,
      "secu": 7032,
      "senkuo": 7033,
      "tur": 7034,
      "tuu": 7035,
      "tufo": 7036,
      "tuatua": 7037,
      "mmm": 7038,
      "mmbaa": 7039,
      "mmrɔfo": 7040,
      "mmenyin": 7041,
      "mmɔden": 7042,
      "mmrahyɛbedwa": 7043,
      "mmrati": 7044,
      "abas": 7045,
      "abɛɛ": 7046,
      "abrobɛ": 7047,
      "kuwa": 7048,
      "kubɔ": 7049,
      "kurɔ": 7050,
      "kule": 7051,
      "fik": 7052,
      "fing": 7053,
      "ensuo": 7054,
      "enyɛma": 7055,
      "enguan": 7056,
      "rod": 7057,
      "roko": 7058,
      "kyɛr": 7059,
      "ahan": 7060,
      "ahab": 7061,
      "risan": 7062,
      "rity": 7063,
      "risifo": 7064,
      "rikatuo": 7065,
      "riot": 7066,
      "subonto": 7067,
      "sundzi": 7068,
      "tamm": 7069,
      "Wɔah": 7070,
      "Wɔbɔ": 7071,
      "Wɔdi": 7072,
      "Wɔasi": 7073,
      "Wɔakye": 7074,
      "Wɔasa": 7075,
      "Wɔbobɔ": 7076,
      "Wɔretwa": 7077,
      "Wɔapegya": 7078,
      "Wɔakatakata": 7079,
      "Wɔreserew": 7080,
      "Wɔafira": 7081,
      "Wɔkotokoto": 7082,
      "Wɔfirafira": 7083,
      "Wɔanwen": 7084,
      "Wɔahyehɛ": 7085,
      "Wɔapake": 7086,
      "bɔha": 7087,
      "bɔdambɔ": 7088,
      "nsaho": 7089,
      "nsayam": 7090,
      "guabɔ": 7091,
      "donko": 7092,
      "doze": 7093,
      "akyin": 7094,
      "akyikyire": 7095,
      "rɔnsan": 7096,
      "tokuo": 7097,
      "towel": 7098,
      "tower": 7099,
      "tohuro": 7100,
      "dia": 7101,
      "ding": 7102,
      "bam": 7103,
      "bana": 7104,
      "babi": 7105,
      "baro": 7106,
      "badwa": 7107,
      "baskɛte": 7108,
      "dzaa": 7109,
      "fuel": 7110,
      "fuom": 7111,
      "fuugu": 7112,
      "podua": 7113,
      "poano": 7114,
      "potɔ": 7115,
      "poll": 7116,
      "powder": 7117,
      "nomdeɛ": 7118,
      "ammu": 7119,
      "amirika": 7120,
      "Mmɛɛ": 7121,
      "Mmesia": 7122,
      "Mmrateɛ": 7123,
      "Mmesiamma": 7124,
      "sisim": 7125,
      "sisisi": 7126,
      "wɔreb": 7127,
      "wɔrek": 7128,
      "wɔrey": 7129,
      "wɔresu": 7130,
      "wɔrekye": 7131,
      "wɔretete": 7132,
      "wɔrebu": 7133,
      "wɔregugu": 7134,
      "wɔretwerɛ": 7135,
      "wɔrehu": 7136,
      "wɔrebɛyɛ": 7137,
      "wɔrehɛ": 7138,
      "wɔrekyia": 7139,
      "wɔrehwie": 7140,
      "wɔreboro": 7141,
      "wɔreguare": 7142,
      "wɔrehohor": 7143,
      "wed": 7144,
      "wear": 7145,
      "webue": 7146,
      "reeɛ": 7147,
      "reesi": 7148,
      "reegye": 7149,
      "boso": 7150,
      "boar": 7151,
      "bosaa": 7152,
      "boroni": 7153,
      "boyaa": 7154,
      "ahow": 7155,
      "ahorɔ": 7156,
      "ahodze": 7157,
      "ahomaa": 7158,
      "ahohor": 7159,
      "ahobambɔ": 7160,
      "ahofadeɛ": 7161,
      "atafoɔ": 7162,
      "atawia": 7163,
      "ebii": 7164,
      "nnyinaa": 7165,
      "rɛma": 7166,
      "mmigration": 7167,
      "kyɛnsen": 7168,
      "hwɛsofoɔ": 7169,
      "damu": 7170,
      "tiren": 7171,
      "titire": 7172,
      "tinhwi": 7173,
      "ɛnse": 7174,
      "ɛnua": 7175,
      "ɛnneɛma": 7176,
      "ɛnwura": 7177,
      "ɛnyɛma": 7178,
      "ataaleɛ": 7179,
      "ɔrede": 7180,
      "ɔregu": 7181,
      "ɔredzi": 7182,
      "ɔresɔ": 7183,
      "ɔrepaa": 7184,
      "ɔretow": 7185,
      "ɔrenante": 7186,
      "ɔredware": 7187,
      "ɔresiesie": 7188,
      "ɔrekyia": 7189,
      "ɔremiamia": 7190,
      "ɔreturu": 7191,
      "ɔretwitwi": 7192,
      "ɔreenge": 7193,
      "kɔɔkɔɔ": 7194,
      "kaseɛ": 7195,
      "kabegyi": 7196,
      "framba": 7197,
      "wore": 7198,
      "wowa": 7199,
      "wotum": 7200,
      "woabɔ": 7201,
      "woaka": 7202,
      "wobu": 7203,
      "wotwa": 7204,
      "woegyina": 7205,
      "woreyɛ": 7206,
      "wotutu": 7207,
      "woredzi": 7208,
      "wotumi": 7209,
      "wosow": 7210,
      "wobotum": 7211,
      "wood": 7212,
      "mom": 7213,
      "movie": 7214,
      "wunu": 7215,
      "wusiw": 7216,
      "Nnipanom": 7217,
      "Nnipadɔn": 7218,
      "meho": 7219,
      "measu": 7220,
      "melɔ": 7221,
      "memem": 7222,
      "megap": 7223,
      "kyemono": 7224,
      "adw": 7225,
      "adam": 7226,
      "adrɔɔ": 7227,
      "adwer": 7228,
      "akoa": 7229,
      "akoma": 7230,
      "akokɔɔ": 7231,
      "akonna": 7232,
      "yaw": 7233,
      "yafi": 7234,
      "yard": 7235,
      "eɛma": 7236,
      "wanya": 7237,
      "wantwi": 7238,
      "Wɔnmu": 7239,
      "mmame": 7240,
      "mmabawa": 7241,
      "mmamuwaa": 7242,
      "mmasiwa": 7243,
      "har": 7244,
      "haw": 7245,
      "Ebia": 7246,
      "Ebiaa": 7247,
      "kwanta": 7248,
      "nkyi": 7249,
      "nkat": 7250,
      "nkramo": 7251,
      "nkenti": 7252,
      "nkataasia": 7253,
      "nkenten": 7254,
      "abɔde": 7255,
      "abɔdeɛ": 7256,
      "abɔdze": 7257,
      "abɔtire": 7258,
      "esin": 7259,
      "esinfoɔ": 7260,
      "kyirɛ": 7261,
      "kyinie": 7262,
      "kyikyir": 7263,
      "nankasa": 7264,
      "ɛɛyi": 7265,
      "ɛɛto": 7266,
      "ɛɛba": 7267,
      "ɛɛnom": 7268,
      "ɛɛtwa": 7269,
      "ɛɛtɔn": 7270,
      "ɛɛdware": 7271,
      "ɛɛhim": 7272,
      "ɛɛpɔt": 7273,
      "ɛrete": 7274,
      "ɛrenom": 7275,
      "ɛrehyehyɛ": 7276,
      "ɛrefa": 7277,
      "ɛrehyia": 7278,
      "ɛrepagya": 7279,
      "ɛrepepa": 7280,
      "ɛretwitwa": 7281,
      "ɛrekyiakyia": 7282,
      "wiren": 7283,
      "windo": 7284,
      "abotsir": 7285,
      "aboronsan": 7286,
      "mpaso": 7287,
      "ahosuoyɛ": 7288,
      "kerɛ": 7289,
      "mfie": 7290,
      "mfididwuma": 7291,
      "ntokwa": 7292,
      "ntorɔba": 7293,
      "anomu": 7294,
      "anobae": 7295,
      "bur": 7296,
      "buru": 7297,
      "bull": 7298,
      "bubuafoɔ": 7299,
      "Mmasiwa": 7300,
      "Mmarantie": 7301,
      "mmaayaa": 7302,
      "mmaayea": 7303,
      "kaade": 7304,
      "akuku": 7305,
      "abasiriwa": 7306,
      "Mmaabawa": 7307,
      "duɔ": 7308,
      "arm": 7309,
      "ntomasini": 7310,
      "lophone": 7311,
      "long": 7312,
      "Nkurɔ": 7313,
      "Nkurow": 7314,
      "dier": 7315,
      "age": 7316,
      "agy": 7317,
      "agyi": 7318,
      "ɔdesua": 7319,
      "nkoaa": 7320,
      "nkoara": 7321,
      "nkoraa": 7322,
      "nkorofoɔ": 7323,
      "nkontommire": 7324,
      "akokɔnam": 7325,
      "akokɔangwa": 7326,
      "nnipadua": 7327,
      "asiei": 7328,
      "apem": 7329,
      "apete": 7330,
      "apɔmu": 7331,
      "aprisan": 7332,
      "mpɛ": 7333,
      "Nkrɔ": 7334,
      "Nkran": 7335,
      "ɔyɛɛ": 7336,
      "nkuro": 7337,
      "nkurow": 7338,
      "nkurofo": 7339,
      "agude": 7340,
      "agudzi": 7341,
      "kɔnkɔn": 7342,
      "kɔntenten": 7343,
      "nufu": 7344,
      "nunu": 7345,
      "ɛbii": 7346,
      "ɛbihyɛn": 7347,
      "lim": 7348,
      "linton": 7349,
      "licopter": 7350,
      "adekora": 7351,
      "akyekyerɛ": 7352,
      "amara": 7353,
      "amamerɛ": 7354,
      "afikyifuo": 7355,
      "ɔmoa": 7356,
      "ahwene": 7357,
      "mix": 7358,
      "akɔbɔ": 7359,
      "akɔniaba": 7360,
      "sɛnta": 7361,
      "sɛnkuo": 7362,
      "ahabanmunu": 7363,
      "piis": 7364,
      "Abosea": 7365,
      "Aboboyaa": 7366,
      "pere": 7367,
      "ɔbaapanin": 7368,
      "asoɔ": 7369,
      "asoso": 7370,
      "rence": 7371,
      "Nkosua": 7372,
      "Nkonya": 7373,
      "hwilkyɛɛ": 7374,
      "ntaabo": 7375,
      "ntaabow": 7376,
      "ketekye": 7377,
      "womtofoɔ": 7378,
      "Abfra": 7379,
      "Abrɔfoɔ": 7380,
      "Abrosan": 7381,
      "Abrewa": 7382,
      "agodibea": 7383,
      "raataa": 7384,
      "asɔkye": 7385,
      "asɔneɛ": 7386,
      "asɔɔtow": 7387,
      "manyi": 7388,
      "manso": 7389,
      "manpanin": 7390,
      "mmoko": 7391,
      "gyenn": 7392,
      "gyens": 7393,
      "nnuan": 7394,
      "gugugugu": 7395,
      "twerɛw": 7396,
      "twerɛsɛm": 7397,
      "Nnuadan": 7398,
      "Danhyia": 7399,
      "senge": 7400,
      "sensane": 7401,
      "esisisisi": 7402,
      "Pole": 7403,
      "Poles": 7404,
      "Poolu": 7405,
      "bɛr": 7406,
      "bɛbɔ": 7407,
      "bɛtɔ": 7408,
      "hion": 7409,
      "saakel": 7410,
      "saakere": 7411,
      "container": 7412,
      "mmɔbɔ": 7413,
      "ɛdem": 7414,
      "tsim": 7415,
      "tsitsi": 7416,
      "Koo": 7417,
      "Korɔ": 7418,
      "Koraa": 7419,
      "aninkyemono": 7420,
      "tiriw": 7421,
      "tiriwii": 7422,
      "Abammɔfo": 7423,
      "lae": 7424,
      "lai": 7425,
      "lain": 7426,
      "ɛsie": 7427,
      "ɛsieyɛ": 7428,
      "llover": 7429,
      "afunum": 7430,
      "afurum": 7431,
      "Bammɔfo": 7432,
      "enyimfa": 7433,
      "Ɔbaakofo": 7434,
      "Mmirantieɛ": 7435,
      "kantan": 7436,
      "kankyee": 7437,
      "pɔli": 7438,
      "dedaw": 7439,
      "beebiara": 7440,
      "atuatua": 7441,
      "atutes": 7442,
      "Beaɛ": 7443,
      "gor": 7444,
      "goggles": 7445,
      "yɛdetwa": 7446,
      "abubɔ": 7447,
      "abunu": 7448,
      "abuabua": 7449,
      "agyegye": 7450,
      "dɔdɔ": 7451,
      "dɔket": 7452,
      "rekɔbu": 7453,
      "rekɔsie": 7454,
      "rekɔforo": 7455,
      "paati": 7456,
      "ahomatro": 7457,
      "nket": 7458,
      "nketoa": 7459,
      "nkekaho": 7460,
      "gyaba": 7461,
      "gyakɛt": 7462,
      "biribiri": 7463,
      "biridum": 7464,
      "Amanyɛfo": 7465,
      "dwumayɛni": 7466,
      "dwumayɛfoɔ": 7467,
      "New": 7468,
      "maayafi": 7469,
      "amanya": 7470,
      "amaneɛ": 7471,
      "amanneɛ": 7472,
      "ins": 7473,
      "mmere": 7474,
      "mmerahyɛ": 7475,
      "mmerahyɛbadwa": 7476,
      "Boɔ": 7477,
      "Nyimpakuw": 7478,
      "tɛnis": 7479,
      "korowa": 7480,
      "koropɔ": 7481,
      "firim": 7482,
      "motos": 7483,
      "motobi": 7484,
      "wɛhyia": 7485,
      "wɔrobor": 7486,
      "wɔrotweɔn": 7487,
      "woeyi": 7488,
      "woebu": 7489,
      "woepe": 7490,
      "woebuei": 7491,
      "Adansi": 7492,
      "ɛbɔn": 7493,
      "prae": 7494,
      "pradadaa": 7495,
      "Subonto": 7496,
      "waama": 7497,
      "waasɔ": 7498,
      "Akwen": 7499,
      "Akataasia": 7500,
      "Akatawia": 7501,
      "panyinmu": 7502,
      "abegu": 7503,
      "aberantsɛ": 7504,
      "ɔɔsa": 7505,
      "ɔɔtu": 7506,
      "ɔɔtɔ": 7507,
      "ɔɔtɔn": 7508,
      "Akondwa": 7509,
      "eee": 7510,
      "onni": 7511,
      "muafo": 7512,
      "Mmoframba": 7513,
      "Nwuram": 7514,
      "teeblo": 7515,
      "Adwumayɛkuo": 7516,
      "dwee": 7517,
      "dwetae": 7518,
      "els": 7519,
      "trawa": 7520,
      "cylin": 7521,
      "hyehye": 7522,
      "hyeepo": 7523,
      "Kuo": 7524,
      "Kukuo": 7525,
      "Wɔresi": 7526,
      "Wɔreto": 7527,
      "Wɔretwe": 7528,
      "Wɔrepia": 7529,
      "Wɔreforo": 7530,
      "nwieɛ": 7531,
      "nwisie": 7532,
      "adiban": 7533,
      "adidie": 7534,
      "Nnum": 7535,
      "kwae": 7536,
      "kware": 7537,
      "laate": 7538,
      "Nsufi": 7539,
      "Nsuyiri": 7540,
      "mmoframma": 7541,
      "statiu": 7542,
      "bɛnto": 7543,
      "bɛnkum": 7544,
      "Abubuafoɔ": 7545,
      "chalk": 7546,
      "rekyerɛw": 7547,
      "Baanu": 7548,
      "abaabaa": 7549,
      "abaayaa": 7550,
      "wɔrekɔhwɛ": 7551,
      "Wire": 7552,
      "Asopiti": 7553,
      "ahyɛnsew": 7554,
      "ɛhyiamu": 7555,
      "Wokura": 7556,
      "esɔn": 7557,
      "Adetɔnfo": 7558,
      "Abanmmɔfoɔ": 7559,
      "glove": 7560,
      "glofs": 7561,
      "glovs": 7562,
      "glooves": 7563,
      "akasam": 7564,
      "ference": 7565,
      "nkadam": 7566,
      "tutuw": 7567,
      "ntiatia": 7568,
      "vide": 7569,
      "kyerɛwfoɔ": 7570,
      "kyerɛwpono": 7571,
      "Banbɔ": 7572,
      "Mpataa": 7573,
      "trɔk": 7574,
      "Besiafo": 7575,
      "efiase": 7576,
      "efisɛ": 7577,
      "efiadze": 7578,
      "efitia": 7579,
      "Wɔhyehyɛhyehyɛ": 7580,
      "Ayarehwɛ": 7581,
      "anaafoɔ": 7582,
      "ɔbae": 7583,
      "abɛto": 7584,
      "abɛti": 7585,
      "abɛduru": 7586,
      "plat": 7587,
      "plen": 7588,
      "ahunu": 7589,
      "ahahamono": 7590,
      "taeble": 7591,
      "cucum": 7592,
      "wɔɔsa": 7593,
      "Buronim": 7594,
      "ɔtontɔn": 7595,
      "paepae": 7596,
      "asaaba": 7597,
      "Abaabawa": 7598,
      "Abaamuwa": 7599,
      "Abaayea": 7600,
      "Kyineɛ": 7601,
      "akotokoto": 7602,
      "nkorɔfokuo": 7603,
      "agordzibea": 7604,
      "yoɔ": 7605,
      "kooko": 7606,
      "kookoo": 7607,
      "dumgyafoɔ": 7608,
      "dumgyafo": 7609,
      "agopramaso": 7610,
      "efiewura": 7611,
      "ntakrakyɛ": 7612,
      "entiiɛ": 7613,
      "ɛretwam": 7614,
      "Yɛatwerɛ": 7615,
      "Yɛakyekyere": 7616,
      "Yɛhunu": 7617,
      "staple": 7618,
      "stairs": 7619,
      "kuayɔ": 7620,
      "akuokuo": 7621,
      "kasamuu": 7622,
      "ahwende": 7623,
      "kyensee": 7624,
      "dwadifoɔ": 7625,
      "awoɔ": 7626,
      "wɔsom": 7627,
      "dadaw": 7628,
      "Agorɔ": 7629,
      "Agofomba": 7630,
      "Sign": 7631,
      "Sikakɔkɔɔ": 7632,
      "mfutuo": 7633,
      "Laptops": 7634,
      "Mosq": 7635,
      "Mpayinfo": 7636,
      "conference": 7637,
      "hywɛ": 7638,
      "adwareeɛ": 7639,
      "akasamuu": 7640,
      "eburow": 7641,
      "ndzema": 7642,
      "ndzemba": 7643,
      "nhwii": 7644,
      "Mmerantewa": 7645,
      "etuw": 7646,
      "nters": 7647,
      "nteantea": 7648,
      "krowa": 7649,
      "ɔrokɔdo": 7650,
      "woriyi": 7651,
      "woripia": 7652,
      "worisiesie": 7653,
      "woritsie": 7654,
      "ɔmanpanin": 7655,
      "marks": 7656,
      "akyɛdze": 7657,
      "potato": 7658,
      "Anhweneɛ": 7659,
      "beesuon": 7660,
      "bebrebe": 7661,
      "poles": 7662,
      "nnɔdeɛ": 7663,
      "amusieeɛ": 7664,
      "apaaki": 7665,
      "Abusuafo": 7666,
      "adoa": 7667,
      "adoe": 7668,
      "Adɔkotafo": 7669,
      "Adɔketafoɔ": 7670,
      "brushe": 7671,
      "bɔnframa": 7672,
      "nkitahodie": 7673,
      "Ahwehwɛniwa": 7674,
      "frɔe": 7675,
      "nkyenmu": 7676,
      "ɛmofuo": 7677,
      "ahenkwaa": 7678,
      "Nsɛnkyerɛwfo": 7679,
      "eyiyi": 7680,
      "gyine": 7681,
      "gyima": 7682,
      "Ntaare": 7683,
      "asubɔntene": 7684,
      "pul": 7685,
      "pullover": 7686,
      "wɔabuebue": 7687,
      "forɔe": 7688,
      "Atwer": 7689,
      "aporo": 7690,
      "mɔta": 7691,
      "ndoe": 7692,
      "Aporisifoɔ": 7693,
      "Hall": 7694,
      "Nkɔda": 7695,
      "Nkɔdaa": 7696,
      "Ntoos": 7697,
      "Ntontom": 7698,
      "Sereɛ": 7699,
      "cil": 7700,
      "lington": 7701,
      "bɛɛbi": 7702,
      "ffing": 7703,
      "unter": 7704,
      "Ɛmɔfra": 7705,
      "Ɛmbɛrima": 7706,
      "Ɛmberantiɛ": 7707,
      "nkukuom": 7708,
      "hyerɛnhyerɛn": 7709,
      "Banyinba": 7710,
      "Ahom": 7711,
      "rebɛto": 7712,
      "rebɛtɔ": 7713,
      "silling": 7714,
      "weevi": 7715,
      "amanyɔfoɔ": 7716,
      "Akɔdaa": 7717,
      "feehye": 7718,
      "nserahwɛ": 7719,
      "penk": 7720,
      "pencil": 7721,
      "steg": 7722,
      "pirapira": 7723,
      "ahatawbun": 7724,
      "Hɔnom": 7725,
      "Kasafoni": 7726,
      "Pillar": 7727,
      "nkrɔfokuo": 7728,
      "nkakrama": 7729,
      "nkakraba": 7730,
      "awuraa": 7731,
      "bricks": 7732,
      "drop": 7733,
      "Adwua": 7734,
      "watraa": 7735,
      "bedwafie": 7736,
      "fufuuw": 7737,
      "asopaatre": 7738,
      "Nketeesiamba": 7739,
      "Plɛte": 7740,
      "Plɛɛte": 7741,
      "awɔka": 7742,
      "drawer": 7743,
      "wɔbɛka": 7744,
      "donnoo": 7745,
      "worusua": 7746,
      "nkwasaa": 7747,
      "asorɔto": 7748,
      "asorɔkye": 7749,
      "Ɛmaayewa": 7750,
      "anwendeɛ": 7751,
      "tenteenten": 7752,
      "pɛtɛɛ": 7753,
      "Ahomatorofoɔ": 7754,
      "Kɔmmuadeɛ": 7755,
      "Micro": 7756,
      "wɔnsam": 7757,
      "sebɔnyin": 7758,
      "akyerɛkyerɛfoɔ": 7759,
      "akyerɛkyerɛkwan": 7760,
      "dɔkɔdɔkɔ": 7761,
      "Motorcycle": 7762,
      "efunudaka": 7763,
      "jalabia": 7764,
      "tɔmfrɔm": 7765,
      "rekyekyɛ": 7766,
      "rekyeakyea": 7767,
      "temamu": 7768,
      "wodzidzi": 7769,
      "akyerekyere": 7770,
      "Adokotafoɔ": 7771,
      "Asanka": 7772,
      "Atɔsodeɛ": 7773,
      "Atɔwrɛnkyɛm": 7774,
      "chest": 7775,
      "ngusoɔ": 7776,
      "prɛɛte": 7777,
      "Ɔsofo": 7778,
      "wɔrekasakasa": 7779,
      "ɔrekyekyɛ": 7780,
      "mpɔnkye": 7781,
      "Dɔteɛ": 7782,
      "Dɔkota": 7783,
      "Kyerɛkyerɛ": 7784,
      "Maayewa": 7785,
      "Wall": 7786,
      "eduonu": 7787,
      "wcn": 7788,
      "ɔbɛdi": 7789,
      "ɛbubu": 7790,
      "telephone": 7791,
      "atɔsode": 7792,
      "nyansafoɔ": 7793,
      "Mbowa": 7794,
      "ahɔhotenabea": 7795,
      "fɔo": 7796,
      "maske": 7797,
      "Mmrantewaa": 7798,
      "wellinton": 7799,
      "apɔwmudzen": 7800,
      "Bɔɔl": 7801,
      "atetew": 7802,
      "kɛnten": 7803,
      "panil": 7804,
      "panini": 7805,
      "plasta": 7806,
      "wɔakɛ": 7807,
      "signboard": 7808,
      "wakyekyer": 7809,
      "tomantoes": 7810,
      "bambɔfo": 7811,
      "Nananom": 7812,
      "pillars": 7813,
      "atosodze": 7814,
      "adesuadan": 7815,
      "Mahama": 7816,
      "Mahin": 7817,
      "Otumfo": 7818,
      "dwumanyi": 7819,
      "earphone": 7820,
      "earpiece": 7821,
      "steegi": 7822,
      "tratafoɔ": 7823,
      "maekrofon": 7824,
      "foonu": 7825,
      "dinning": 7826,
      "policeni": 7827,
      "nnyipa": 7828,
      "frafraeɛ": 7829,
      "apaepae": 7830,
      "buuk": 7831,
      "mpatadan": 7832,
      "asɔrdan": 7833,
      "ayarfo": 7834,
      "ayarhwɛ": 7835,
      "ayarsabea": 7836,
      "trawsa": 7837,
      "worisian": 7838,
      "Agyananbea": 7839,
      "krɔkye": 7840,
      "sheet": 7841,
      "twofoɔ": 7842,
      "paint": 7843,
      "seradze": 7844,
      "wɔretwiw": 7845,
      "Policefoɔ": 7846,
      "Asɛndibea": 7847,
      "Nsɛmtwerɛfo": 7848,
      "School": 7849,
      "ansana": 7850,
      "renunu": 7851,
      "salad": 7852,
      "sekɛɛte": 7853,
      "lowre": 7854,
      "lipton": 7855,
      "lippers": 7856,
      "Agudeɛ": 7857,
      "Kyen": 7858,
      "Mantam": 7859,
      "dwendwen": 7860,
      "kaneadua": 7861,
      "nfonin": 7862,
      "sleet": 7863,
      "repere": 7864,
      "torɔmo": 7865,
      "wɔrekɛgye": 7866,
      "wɔrekyerɛwkyerɛw": 7867,
      "ebibifo": 7868,
      "asepaatere": 7869,
      "nkataano": 7870,
      "apɔtɔyowa": 7871,
      "huhuuhu": 7872,
      "afurumpɔnkɔ": 7873,
      "reflɛta": 7874,
      "Bench": 7875,
      "Mbrantse": 7876,
      "Sare": 7877,
      "Speakers": 7878,
      "Trump": 7879,
      "drums": 7880,
      "juice": 7881,
      "nteteeɛ": 7882,
      "ɔhempɔn": 7883,
      "wɔasɛɛ": 7884,
      "saekere": 7885,
      "ahwiri": 7886,
      "polish": 7887,
      "Mmrahyɛbedwafoɔ": 7888,
      "nnyata": 7889,
      "kaseɛbɔ": 7890,
      "Burodo": 7891,
      "Ayaresafoɔ": 7892,
      "dzendzendzen": 7893,
      "Agyinamoa": 7894,
      "Anigyeɛ": 7895,
      "Abibirem": 7896,
      "Bambɔfo": 7897,
      "Nkwanhyia": 7898,
      "Tɛlɛvihyin": 7899,
      "awareɛ": 7900,
      "hɛɛlmɛt": 7901,
      "nbenyinifo": 7902,
      "Ɔtɛmmuafoɔ": 7903,
      "ɛnnyina": 7904,
      "benkun": 7905,
      "mmɛɛmuwaa": 7906,
      "amaamefoɔ": 7907,
      "adakaba": 7908,
      "Abrokyire": 7909,
      "esieise": 7910,
      "Baek": 7911,
      "tomatose": 7912,
      "plywood": 7913,
      "stadium": 7914,
      "Silver": 7915,
      "Colours": 7916,
      "Kaseɛbɔfo": 7917,
      "Accra": 7918,
      "Dondo": 7919,
      "Excavator": 7920,
      "Fundaka": 7921,
      "Giraffe": 7922,
      "Indi": 7923,
      "Icecream": 7924,
      "Judge": 7925,
      "Samina": 7926,
      "ammor": 7927,
      "batics": 7928,
      "fɔntɔmfrɔm": 7929,
      "fashion": 7930,
      "lanifoɔ": 7931,
      "ndzama": 7932,
      "nwanwasoɔ": 7933,
      "nhwenneɛ": 7934,
      "studio": 7935,
      "reboaboa": 7936,
      "akɔmfo": 7937,
      "passenge": 7938,
      "samena": 7939,
      "safety": 7940,
      "counters": 7941,
      "abusuakuo": 7942,
      "traosɛs": 7943,
      "nwieeɛ": 7944,
      "brauw": 7945,
      "wɔaworɔworɔ": 7946,
      "Television": 7947,
      "awufosom": 7948,
      "tratra": 7949,
      "spɛtakels": 7950,
      "kɔnstrakhyin": 7951,
      "Anwia": 7952,
      "Black": 7953,
      "Christmas": 7954,
      "Caterpillar": 7955,
      "Enginee": 7956,
      "Fruit": 7957,
      "Mamefoɔ": 7958,
      "Nyame": 7959,
      "Steps": 7960,
      "Trakta": 7961,
      "acrobatics": 7962,
      "gens": 7963,
      "girl": 7964,
      "mbirka": 7965,
      "nɔɔdeɛ": 7966,
      "okada": 7967,
      "phant": 7968,
      "twuw": 7969,
      "yɛapeenti": 7970,
      "national": 7971,
      "biasiafo": 7972,
      "sorɔtow": 7973,
      "tetafoɔ": 7974,
      "akakraka": 7975,
      "sekele": 7976,
      "security": 7977,
      "mmratie": 7978,
      "abasriwa": 7979,
      "kuleta": 7980,
      "dozer": 7981,
      "tirenwi": 7982,
      "measure": 7983,
      "megaphone": 7984,
      "mmasiwafo": 7985,
      "anobaebaeɛ": 7986,
      "bulldozer": 7987,
      "Mmasiwafoɔ": 7988,
      "aprisanfoɔ": 7989,
      "dɔketani": 7990,
      "cylinder": 7991,
      "ahyɛnsewdze": 7992,
      "cucumber": 7993,
      "Mosque": 7994,
      "3s": 7995,
      "AC": 7996,
      "Ae": 7997,
      "Ap": 7998,
      "Anam": 7999
    },
    "merges": [
      [
        "w",
        "ɔ"
      ],
      [
        "y",
        "ɛ"
      ],
      [
        "n",
        "a"
      ],
      [
        "n",
        "o"
      ],
      [
        "b",
        "i"
      ],
      [
        "y",
        "i"
      ],
      [
        "s",
        "o"
      ],
      [
        "a",
        "a"
      ],
      [
        "a",
        "n"
      ],
      [
        "r",
        "e"
      ],
      [
        "n",
        "e"
      ],
      [
        "s",
        "i"
      ],
      [
        "d",
        "e"
      ],
      [
        "t",
        "e"
      ],
      [
        "m",
        "a"
      ],
      [
        "k",
        "o"
      ],
      [
        "m",
        "u"
      ],
      [
        "h",
        "ɔ"
      ],
      [
        "h",
        "yɛ"
      ],
      [
        "n",
        "so"
      ],
      [
        "yi",
        "na"
      ],
      [
        "wɔ",
        "n"
      ],
      [
        "w",
        "a"
      ],
      [
        "a",
        "k"
      ],
      [
        "f",
        "o"
      ],
      [
        "b",
        "aa"
      ],
      [
        "a",
        "t"
      ],
      [
        "h",
        "o"
      ],
      [
        "g",
        "yina"
      ],
      [
        "r",
        "a"
      ],
      [
        "k",
        "ɔ"
      ],
      [
        "p",
        "a"
      ],
      [
        "n",
        "i"
      ],
      [
        "b",
        "e"
      ],
      [
        "y",
        "e"
      ],
      [
        "s",
        "a"
      ],
      [
        "s",
        "e"
      ],
      [
        "t",
        "u"
      ],
      [
        "m",
        "m"
      ],
      [
        "a",
        "b"
      ],
      [
        "k",
        "u"
      ],
      [
        "f",
        "i"
      ],
      [
        "de",
        "ɛ"
      ],
      [
        "baa",
        "ko"
      ],
      [
        "e",
        "n"
      ],
      [
        "r",
        "o"
      ],
      [
        "k",
        "yɛ"
      ],
      [
        "a",
        "h"
      ],
      [
        "r",
        "i"
      ],
      [
        "fo",
        "ɔ"
      ],
      [
        "s",
        "u"
      ],
      [
        "t",
        "a"
      ],
      [
        "d",
        "an"
      ],
      [
        "W",
        "ɔ"
      ],
      [
        "an",
        "i"
      ],
      [
        "b",
        "ɔ"
      ],
      [
        "n",
        "sa"
      ],
      [
        "g",
        "u"
      ],
      [
        "d",
        "o"
      ],
      [
        "ak",
        "yi"
      ],
      [
        "r",
        "ɔ"
      ],
      [
        "h",
        "w"
      ],
      [
        "t",
        "o"
      ],
      [
        "d",
        "i"
      ],
      [
        "b",
        "a"
      ],
      [
        "d",
        "z"
      ],
      [
        "N",
        "a"
      ],
      [
        "f",
        "u"
      ],
      [
        "p",
        "o"
      ],
      [
        "no",
        "m"
      ],
      [
        "ni",
        "pa"
      ],
      [
        "a",
        "m"
      ],
      [
        "M",
        "m"
      ],
      [
        "si",
        "si"
      ],
      [
        "wɔ",
        "re"
      ],
      [
        "w",
        "e"
      ],
      [
        "re",
        "e"
      ],
      [
        "b",
        "o"
      ],
      [
        "t",
        "aa"
      ],
      [
        "a",
        "ho"
      ],
      [
        "at",
        "a"
      ],
      [
        "e",
        "bi"
      ],
      [
        "n",
        "n"
      ],
      [
        "ani",
        "m"
      ],
      [
        "r",
        "ɛ"
      ],
      [
        "r",
        "an"
      ],
      [
        "mm",
        "i"
      ],
      [
        "u",
        "a"
      ],
      [
        "kyɛ",
        "n"
      ],
      [
        "tu",
        "m"
      ],
      [
        "b",
        "ree"
      ],
      [
        "n",
        "yina"
      ],
      [
        "su",
        "o"
      ],
      [
        "ri",
        "ma"
      ],
      [
        "be",
        "bree"
      ],
      [
        "hw",
        "ɛ"
      ],
      [
        "d",
        "a"
      ],
      [
        "t",
        "i"
      ],
      [
        "en",
        "u"
      ],
      [
        "tu",
        "n"
      ],
      [
        "ɛ",
        "n"
      ],
      [
        "nyina",
        "a"
      ],
      [
        "at",
        "aa"
      ],
      [
        "yi",
        "a"
      ],
      [
        "tun",
        "tum"
      ],
      [
        "ɔ",
        "re"
      ],
      [
        "k",
        "i"
      ],
      [
        "kɔ",
        "ɔ"
      ],
      [
        "dz",
        "e"
      ],
      [
        "fi",
        "taa"
      ],
      [
        "te",
        "ɛ"
      ],
      [
        "k",
        "a"
      ],
      [
        "f",
        "ra"
      ],
      [
        "n",
        "kyɛn"
      ],
      [
        "w",
        "o"
      ],
      [
        "m",
        "o"
      ],
      [
        "kɔ",
        "kɔɔ"
      ],
      [
        "w",
        "u"
      ],
      [
        "ran",
        "teɛ"
      ],
      [
        "mmi",
        "enu"
      ],
      [
        "ye",
        "hyɛ"
      ],
      [
        "N",
        "nipa"
      ],
      [
        "m",
        "e"
      ],
      [
        "ɛ",
        "na"
      ],
      [
        "k",
        "ye"
      ],
      [
        "a",
        "d"
      ],
      [
        "a",
        "ko"
      ],
      [
        "y",
        "a"
      ],
      [
        "e",
        "ɛ"
      ],
      [
        "w",
        "an"
      ],
      [
        "ɛ",
        "wɔ"
      ],
      [
        "Wɔ",
        "n"
      ],
      [
        "ki",
        "ta"
      ],
      [
        "ɔ",
        "n"
      ],
      [
        "m",
        "ma"
      ],
      [
        "f",
        "am"
      ],
      [
        "h",
        "a"
      ],
      [
        "be",
        "a"
      ],
      [
        "E",
        "bi"
      ],
      [
        "ah",
        "yia"
      ],
      [
        "po",
        "no"
      ],
      [
        "te",
        "n"
      ],
      [
        "hɔ",
        "n"
      ],
      [
        "na",
        "m"
      ],
      [
        "aa",
        "me"
      ],
      [
        "so",
        "ro"
      ],
      [
        "ne",
        "ɛ"
      ],
      [
        "a",
        "deɛ"
      ],
      [
        "k",
        "wan"
      ],
      [
        "ɛ",
        "yɛ"
      ],
      [
        "wɔ",
        "de"
      ],
      [
        "a",
        "se"
      ],
      [
        "ɛ",
        "se"
      ],
      [
        "hyɛ",
        "n"
      ],
      [
        "do",
        "ɔ"
      ],
      [
        "a",
        "s"
      ],
      [
        "ɔ",
        "hyɛ"
      ],
      [
        "n",
        "k"
      ],
      [
        "ab",
        "ɔ"
      ],
      [
        "e",
        "si"
      ],
      [
        "nn",
        "wa"
      ],
      [
        "k",
        "yi"
      ],
      [
        "na",
        "n"
      ],
      [
        "rɔ",
        "fo"
      ],
      [
        "ɛ",
        "ɛ"
      ],
      [
        "ɛ",
        "re"
      ],
      [
        "wu",
        "ma"
      ],
      [
        "h",
        "yehyɛ"
      ],
      [
        "f",
        "a"
      ],
      [
        "an",
        "e"
      ],
      [
        "w",
        "i"
      ],
      [
        "ab",
        "o"
      ],
      [
        "neɛ",
        "ma"
      ],
      [
        "te",
        "te"
      ],
      [
        "at",
        "wa"
      ],
      [
        "d",
        "ua"
      ],
      [
        "fu",
        "fu"
      ],
      [
        "l",
        "e"
      ],
      [
        "m",
        "pa"
      ],
      [
        "aho",
        "suo"
      ],
      [
        "kye",
        "rɛ"
      ],
      [
        "a",
        "pa"
      ],
      [
        "t",
        "we"
      ],
      [
        "aa",
        "ko"
      ],
      [
        "k",
        "e"
      ],
      [
        "rɔ",
        "foɔ"
      ],
      [
        "g",
        "ya"
      ],
      [
        "m",
        "fi"
      ],
      [
        "n",
        "to"
      ],
      [
        "a",
        "no"
      ],
      [
        "ak",
        "a"
      ],
      [
        "p",
        "i"
      ],
      [
        "ɔ",
        "m"
      ],
      [
        "b",
        "u"
      ],
      [
        "n",
        "suo"
      ],
      [
        "M",
        "ma"
      ],
      [
        "d",
        "aa"
      ],
      [
        "t",
        "wa"
      ],
      [
        "mm",
        "aa"
      ],
      [
        "M",
        "aame"
      ],
      [
        "k",
        "aa"
      ],
      [
        "ak",
        "u"
      ],
      [
        "a",
        "ra"
      ],
      [
        "B",
        "aako"
      ],
      [
        "bi",
        "nom"
      ],
      [
        "s",
        "ɛ"
      ],
      [
        "n",
        "neɛma"
      ],
      [
        "ab",
        "a"
      ],
      [
        "t",
        "se"
      ],
      [
        "b",
        "an"
      ],
      [
        "gyina",
        "gyina"
      ],
      [
        "Mm",
        "aa"
      ],
      [
        "ku",
        "ra"
      ],
      [
        "mma",
        "rima"
      ],
      [
        "a",
        "yɛ"
      ],
      [
        "d",
        "u"
      ],
      [
        "wa",
        "daa"
      ],
      [
        "ataa",
        "de"
      ],
      [
        "k",
        "ɛse"
      ],
      [
        "ɔ",
        "fra"
      ],
      [
        "a",
        "r"
      ],
      [
        "nto",
        "ma"
      ],
      [
        "ye",
        "wa"
      ],
      [
        "l",
        "o"
      ],
      [
        "at",
        "o"
      ],
      [
        "s",
        "ra"
      ],
      [
        "yi",
        "n"
      ],
      [
        "N",
        "ku"
      ],
      [
        "di",
        "e"
      ],
      [
        "a",
        "g"
      ],
      [
        "ɔ",
        "de"
      ],
      [
        "n",
        "ko"
      ],
      [
        "ako",
        "kɔ"
      ],
      [
        "ko",
        "r"
      ],
      [
        "n",
        "nipa"
      ],
      [
        "s",
        "an"
      ],
      [
        "ah",
        "yehyɛ"
      ],
      [
        "a",
        "si"
      ],
      [
        "a",
        "hyɛ"
      ],
      [
        "bea",
        "eɛ"
      ],
      [
        "a",
        "p"
      ],
      [
        "m",
        "p"
      ],
      [
        "N",
        "k"
      ],
      [
        "ab",
        "an"
      ],
      [
        "e",
        "kyi"
      ],
      [
        "ɔ",
        "yɛ"
      ],
      [
        "dz",
        "i"
      ],
      [
        "aho",
        "doɔ"
      ],
      [
        "f",
        "ɛ"
      ],
      [
        "ad",
        "wuma"
      ],
      [
        "n",
        "ku"
      ],
      [
        "e",
        "ranteɛ"
      ],
      [
        "m",
        "fo"
      ],
      [
        "a",
        "gu"
      ],
      [
        "kɛse",
        "ɛ"
      ],
      [
        "kɔ",
        "n"
      ],
      [
        "t",
        "ɔ"
      ],
      [
        "wu",
        "ra"
      ],
      [
        "n",
        "u"
      ],
      [
        "sra",
        "deɛ"
      ],
      [
        "ɛ",
        "bi"
      ],
      [
        "l",
        "i"
      ],
      [
        "fufu",
        "o"
      ],
      [
        "a",
        "de"
      ],
      [
        "ɛ",
        "ne"
      ],
      [
        "r",
        "u"
      ],
      [
        "baa",
        "wa"
      ],
      [
        "ak",
        "ye"
      ],
      [
        "Mma",
        "rima"
      ],
      [
        "d",
        "wa"
      ],
      [
        "ako",
        "nnwa"
      ],
      [
        "ten",
        "ten"
      ],
      [
        "b",
        "l"
      ],
      [
        "n",
        "ta"
      ],
      [
        "ni",
        "n"
      ],
      [
        "P",
        "apa"
      ],
      [
        "ku",
        "ta"
      ],
      [
        "B",
        "i"
      ],
      [
        "be",
        "ranteɛ"
      ],
      [
        "u",
        "e"
      ],
      [
        "ɛ",
        "dan"
      ],
      [
        "wɔ",
        "dze"
      ],
      [
        "ekyi",
        "r"
      ],
      [
        "a",
        "ma"
      ],
      [
        "Ɔ",
        "baa"
      ],
      [
        "ba",
        "rima"
      ],
      [
        "e",
        "a"
      ],
      [
        "h",
        "yia"
      ],
      [
        "a",
        "fi"
      ],
      [
        "ɔ",
        "mo"
      ],
      [
        "nsa",
        "m"
      ],
      [
        "d",
        "ɔm"
      ],
      [
        "t",
        "ɔn"
      ],
      [
        "ah",
        "we"
      ],
      [
        "ata",
        "deɛ"
      ],
      [
        "a",
        "sa"
      ],
      [
        "m",
        "i"
      ],
      [
        "ɛ",
        "hyɛ"
      ],
      [
        "p",
        "aku"
      ],
      [
        "ak",
        "ɔ"
      ],
      [
        "te",
        "na"
      ],
      [
        "n",
        "ua"
      ],
      [
        "d",
        "ɛ"
      ],
      [
        "ɛ",
        "nsa"
      ],
      [
        "bi",
        "bi"
      ],
      [
        "m",
        "aame"
      ],
      [
        "s",
        "ɛn"
      ],
      [
        "ka",
        "sa"
      ],
      [
        "nn",
        "ua"
      ],
      [
        "ɛn",
        "na"
      ],
      [
        "ah",
        "aban"
      ],
      [
        "pi",
        "i"
      ],
      [
        "n",
        "yi"
      ],
      [
        "ɛ",
        "kyɛ"
      ],
      [
        "Nku",
        "rɔfoɔ"
      ],
      [
        "A",
        "bo"
      ],
      [
        "si",
        "a"
      ],
      [
        "ataa",
        "deɛ"
      ],
      [
        "p",
        "e"
      ],
      [
        "baa",
        "bi"
      ],
      [
        "se",
        "re"
      ],
      [
        "ɔ",
        "baa"
      ],
      [
        "e",
        "gyina"
      ],
      [
        "mo",
        "no"
      ],
      [
        "paku",
        "o"
      ],
      [
        "ɛ",
        "te"
      ],
      [
        "wɔ",
        "hyɛ"
      ],
      [
        "d",
        "wuma"
      ],
      [
        "a",
        "so"
      ],
      [
        "mmi",
        "ɛnsa"
      ],
      [
        "bo",
        "a"
      ],
      [
        "hɔ",
        "nom"
      ],
      [
        "re",
        "n"
      ],
      [
        "pa",
        "pa"
      ],
      [
        "ata",
        "de"
      ],
      [
        "N",
        "ko"
      ],
      [
        "re",
        "hwɛ"
      ],
      [
        "Mm",
        "eranteɛ"
      ],
      [
        "su",
        "a"
      ],
      [
        "h",
        "e"
      ],
      [
        "hw",
        "i"
      ],
      [
        "a",
        "dze"
      ],
      [
        "n",
        "taa"
      ],
      [
        "ahwe",
        "hwɛ"
      ],
      [
        "bo",
        "bɔ"
      ],
      [
        "ata",
        "r"
      ],
      [
        "ane",
        "a"
      ],
      [
        "ke",
        "te"
      ],
      [
        "Ebi",
        "nom"
      ],
      [
        "ab",
        "le"
      ],
      [
        "Mm",
        "ɔfra"
      ],
      [
        "o",
        "bi"
      ],
      [
        "wo",
        "m"
      ],
      [
        "en",
        "yi"
      ],
      [
        "ro",
        "w"
      ],
      [
        "akyi",
        "re"
      ],
      [
        "A",
        "b"
      ],
      [
        "ɔ",
        "te"
      ],
      [
        "ag",
        "o"
      ],
      [
        "m",
        "ba"
      ],
      [
        "te",
        "ne"
      ],
      [
        "wɔre",
        "hwɛ"
      ],
      [
        "ad",
        "u"
      ],
      [
        "e",
        "m"
      ],
      [
        "Ɛ",
        "bi"
      ],
      [
        "r",
        "aa"
      ],
      [
        "hw",
        "e"
      ],
      [
        "Ɛ",
        "dan"
      ],
      [
        "as",
        "ɔ"
      ],
      [
        "ku",
        "u"
      ],
      [
        "bl",
        "ue"
      ],
      [
        "g",
        "e"
      ],
      [
        "m",
        "an"
      ],
      [
        "ataa",
        "re"
      ],
      [
        "mm",
        "o"
      ],
      [
        "ko",
        "to"
      ],
      [
        "wɔ",
        "wɔ"
      ],
      [
        "ku",
        "o"
      ],
      [
        "g",
        "ye"
      ],
      [
        "nn",
        "u"
      ],
      [
        "re",
        "di"
      ],
      [
        "gu",
        "gu"
      ],
      [
        "du",
        "ku"
      ],
      [
        "n",
        "su"
      ],
      [
        "twe",
        "rɛ"
      ],
      [
        "ak",
        "ata"
      ],
      [
        "wɔre",
        "yɛ"
      ],
      [
        "ebi",
        "nom"
      ],
      [
        "tse",
        "na"
      ],
      [
        "N",
        "nua"
      ],
      [
        "ni",
        "pakuo"
      ],
      [
        "mm",
        "ɔfra"
      ],
      [
        "kyɛ",
        "w"
      ],
      [
        "p",
        "an"
      ],
      [
        "h",
        "u"
      ],
      [
        "A",
        "beranteɛ"
      ],
      [
        "ran",
        "kaa"
      ],
      [
        "D",
        "an"
      ],
      [
        "s",
        "ɔ"
      ],
      [
        "N",
        "i"
      ],
      [
        "eɛ",
        "nsa"
      ],
      [
        "f",
        "ɛɛ"
      ],
      [
        "mfi",
        "mfi"
      ],
      [
        "a",
        "fa"
      ],
      [
        "ɔn",
        "kɔ"
      ],
      [
        "akokɔ",
        "sradeɛ"
      ],
      [
        "t",
        "able"
      ],
      [
        "ni",
        "wa"
      ],
      [
        "gu",
        "a"
      ],
      [
        "fufu",
        "w"
      ],
      [
        "mpa",
        "boa"
      ],
      [
        "Bi",
        "nom"
      ],
      [
        "nko",
        "nnwa"
      ],
      [
        "k",
        "ak"
      ],
      [
        "se",
        "n"
      ],
      [
        "re",
        "bɔ"
      ],
      [
        "c",
        "ar"
      ],
      [
        "O",
        "bi"
      ],
      [
        "e",
        "sisi"
      ],
      [
        "i",
        "ɛ"
      ],
      [
        "n",
        "nan"
      ],
      [
        "r",
        "ataa"
      ],
      [
        "mm",
        "eɛnsa"
      ],
      [
        "ebi",
        "en"
      ],
      [
        "P",
        "o"
      ],
      [
        "esi",
        "e"
      ],
      [
        "b",
        "ɛ"
      ],
      [
        "do",
        "doɔ"
      ],
      [
        "li",
        "si"
      ],
      [
        "n",
        "wura"
      ],
      [
        "h",
        "i"
      ],
      [
        "s",
        "aa"
      ],
      [
        "c",
        "o"
      ],
      [
        "f",
        "rankaa"
      ],
      [
        "ahwehwɛ",
        "niwa"
      ],
      [
        "baa",
        "yewa"
      ],
      [
        "mm",
        "ɔ"
      ],
      [
        "ɛ",
        "de"
      ],
      [
        "s",
        "k"
      ],
      [
        "Wɔ",
        "de"
      ],
      [
        "hwi",
        "ren"
      ],
      [
        "t",
        "si"
      ],
      [
        "re",
        "sa"
      ],
      [
        "K",
        "o"
      ],
      [
        "at",
        "we"
      ],
      [
        "ani",
        "n"
      ],
      [
        "ti",
        "ri"
      ],
      [
        "p",
        "ɔnkɔ"
      ],
      [
        "afi",
        "die"
      ],
      [
        "A",
        "ba"
      ],
      [
        "N",
        "nipakuo"
      ],
      [
        "re",
        "yɛ"
      ],
      [
        "twe",
        "ne"
      ],
      [
        "yi",
        "e"
      ],
      [
        "Abo",
        "rɔfo"
      ],
      [
        "wɔ",
        "gyina"
      ],
      [
        "ro",
        "ni"
      ],
      [
        "ta",
        "m"
      ],
      [
        "mfo",
        "nin"
      ],
      [
        "ɛ",
        "pono"
      ],
      [
        "adu",
        "ane"
      ],
      [
        "l",
        "a"
      ],
      [
        "ɛ",
        "si"
      ],
      [
        "nk",
        "wadaa"
      ],
      [
        "ɛ",
        "hyɛn"
      ],
      [
        "fɛɛ",
        "fɛ"
      ],
      [
        "po",
        "n"
      ],
      [
        "t",
        "wi"
      ],
      [
        "Nk",
        "wadaa"
      ],
      [
        "l",
        "lo"
      ],
      [
        "di",
        "di"
      ],
      [
        "a",
        "fu"
      ],
      [
        "wɔ",
        "te"
      ],
      [
        "B",
        "a"
      ],
      [
        "fi",
        "e"
      ],
      [
        "ad",
        "aka"
      ],
      [
        "apa",
        "gya"
      ],
      [
        "ɔ",
        "ɔre"
      ],
      [
        "wi",
        "em"
      ],
      [
        "enyi",
        "m"
      ],
      [
        "e",
        "gu"
      ],
      [
        "Ɔ",
        "baako"
      ],
      [
        "ak",
        "ɛse"
      ],
      [
        "Ɔ",
        "hyɛ"
      ],
      [
        "Mm",
        "i"
      ],
      [
        "Mm",
        "o"
      ],
      [
        "Ɛ",
        "na"
      ],
      [
        "wɔ",
        "ahyehyɛ"
      ],
      [
        "k",
        "an"
      ],
      [
        "p",
        "ɔ"
      ],
      [
        "ka",
        "ma"
      ],
      [
        "de",
        "da"
      ],
      [
        "as",
        "ɛ"
      ],
      [
        "ni",
        "m"
      ],
      [
        "ɛn",
        "t"
      ],
      [
        "be",
        "ebi"
      ],
      [
        "en",
        "te"
      ],
      [
        "p",
        "ɛ"
      ],
      [
        "at",
        "u"
      ],
      [
        "abo",
        "bɔ"
      ],
      [
        "ɛ",
        "da"
      ],
      [
        "ma",
        "sk"
      ],
      [
        "mfimfi",
        "ni"
      ],
      [
        "a",
        "bi"
      ],
      [
        "B",
        "ea"
      ],
      [
        "a",
        "f"
      ],
      [
        "so",
        "r"
      ],
      [
        "ɔre",
        "hwɛ"
      ],
      [
        "ah",
        "yi"
      ],
      [
        "Ni",
        "pa"
      ],
      [
        "kak",
        "ra"
      ],
      [
        "g",
        "o"
      ],
      [
        "ɔ",
        "wɔ"
      ],
      [
        "ata",
        "re"
      ],
      [
        "akye",
        "rɛ"
      ],
      [
        "yɛ",
        "de"
      ],
      [
        "ab",
        "u"
      ],
      [
        "fi",
        "die"
      ],
      [
        "po",
        "lisi"
      ],
      [
        "ag",
        "ye"
      ],
      [
        "wɔ",
        "yɛ"
      ],
      [
        "Ba",
        "rima"
      ],
      [
        "Mm",
        "ranteɛ"
      ],
      [
        "abɔ",
        "fra"
      ],
      [
        "r",
        "s"
      ],
      [
        "ɛna",
        "m"
      ],
      [
        "d",
        "ɔ"
      ],
      [
        "kyɛn",
        "se"
      ],
      [
        "l",
        "l"
      ],
      [
        "tsi",
        "r"
      ],
      [
        "no",
        "se"
      ],
      [
        "v",
        "e"
      ],
      [
        "re",
        "kɔ"
      ],
      [
        "bɔ",
        "fra"
      ],
      [
        "yɛ",
        "n"
      ],
      [
        "ago",
        "rɔ"
      ],
      [
        "n",
        "wa"
      ],
      [
        "p",
        "aa"
      ],
      [
        "p",
        "anin"
      ],
      [
        "we",
        "a"
      ],
      [
        "nku",
        "m"
      ],
      [
        "aho",
        "ma"
      ],
      [
        "akye",
        "kye"
      ],
      [
        "K",
        "aa"
      ],
      [
        "nk",
        "e"
      ],
      [
        "g",
        "y"
      ],
      [
        "ɛnt",
        "ɛn"
      ],
      [
        "bi",
        "ri"
      ],
      [
        "su",
        "kuu"
      ],
      [
        "aho",
        "row"
      ],
      [
        "a",
        "dan"
      ],
      [
        "Mmi",
        "enu"
      ],
      [
        "ne",
        "nam"
      ],
      [
        "ho",
        "ne"
      ],
      [
        "wɔre",
        "di"
      ],
      [
        "Ab",
        "ranteɛ"
      ],
      [
        "ki",
        "t"
      ],
      [
        "k",
        "ente"
      ],
      [
        "n",
        "kɔ"
      ],
      [
        "ni",
        "iɛ"
      ],
      [
        "Ɛ",
        "hyɛn"
      ],
      [
        "am",
        "e"
      ],
      [
        "anim",
        "foɔ"
      ],
      [
        "n",
        "hyɛ"
      ],
      [
        "na",
        "a"
      ],
      [
        "re",
        "twa"
      ],
      [
        "mm",
        "eranteɛ"
      ],
      [
        "ahyi",
        "am"
      ],
      [
        "ɛ",
        "so"
      ],
      [
        "esi",
        "a"
      ],
      [
        "nku",
        "rɔfoɔ"
      ],
      [
        "be",
        "sia"
      ],
      [
        "bibi",
        "foɔ"
      ],
      [
        "A",
        "man"
      ],
      [
        "a",
        "beranteɛ"
      ],
      [
        "fɛ",
        "fɛɛfɛ"
      ],
      [
        "C",
        "ar"
      ],
      [
        "bɔ",
        "ɔ"
      ],
      [
        "N",
        "suo"
      ],
      [
        "n",
        "yin"
      ],
      [
        "tu",
        "o"
      ],
      [
        "dwuma",
        "yɛ"
      ],
      [
        "wɔre",
        "bɔ"
      ],
      [
        "tse",
        "n"
      ],
      [
        "N",
        "e"
      ],
      [
        "be",
        "nkum"
      ],
      [
        "ahaban",
        "mono"
      ],
      [
        "m",
        "aa"
      ],
      [
        "p",
        "hone"
      ],
      [
        "kete",
        "wa"
      ],
      [
        "wɔ",
        "hyehyɛ"
      ],
      [
        "ku",
        "ro"
      ],
      [
        "fu",
        "ra"
      ],
      [
        "A",
        "baayewa"
      ],
      [
        "l",
        "ɔɔre"
      ],
      [
        "Nku",
        "rɔfo"
      ],
      [
        "baa",
        "sa"
      ],
      [
        "am",
        "an"
      ],
      [
        "ni",
        "fa"
      ],
      [
        "ab",
        "ɔn"
      ],
      [
        "abo",
        "a"
      ],
      [
        "asi",
        "esie"
      ],
      [
        "i",
        "n"
      ],
      [
        "fo",
        "fo"
      ],
      [
        "mm",
        "e"
      ],
      [
        "to",
        "p"
      ],
      [
        "biri",
        "bi"
      ],
      [
        "B",
        "o"
      ],
      [
        "H",
        "ɔn"
      ],
      [
        "N",
        "yi"
      ],
      [
        "a",
        "sisi"
      ],
      [
        "n",
        "hwiren"
      ],
      [
        "Nko",
        "nnwa"
      ],
      [
        "ɔ",
        "so"
      ],
      [
        "an",
        "wea"
      ],
      [
        "t",
        "ɛ"
      ],
      [
        "ko",
        "ro"
      ],
      [
        "fi",
        "ri"
      ],
      [
        "mo",
        "to"
      ],
      [
        "bibi",
        "re"
      ],
      [
        "atwe",
        "rɛ"
      ],
      [
        "w",
        "ɛ"
      ],
      [
        "ɔ",
        "baako"
      ],
      [
        "wɔ",
        "nam"
      ],
      [
        "re",
        "en"
      ],
      [
        "baa",
        "ge"
      ],
      [
        "kyerɛ",
        "kyerɛ"
      ],
      [
        "ne",
        "a"
      ],
      [
        "m",
        "po"
      ],
      [
        "ɔ",
        "gyina"
      ],
      [
        "wɔ",
        "ro"
      ],
      [
        "n",
        "na"
      ],
      [
        "be",
        "be"
      ],
      [
        "ki",
        "ti"
      ],
      [
        "wo",
        "e"
      ],
      [
        "hwe",
        "ne"
      ],
      [
        "llo",
        "w"
      ],
      [
        "akɛse",
        "ɛ"
      ],
      [
        "A",
        "dan"
      ],
      [
        "n",
        "dua"
      ],
      [
        "ɛ",
        "bɔ"
      ],
      [
        "re",
        "sere"
      ],
      [
        "k",
        "rataa"
      ],
      [
        "p",
        "ra"
      ],
      [
        "mma",
        "baawa"
      ],
      [
        "sɛ",
        "m"
      ],
      [
        "ntaa",
        "de"
      ],
      [
        "Aba",
        "baawa"
      ],
      [
        "Ɔ",
        "mo"
      ],
      [
        "Nyi",
        "mpa"
      ],
      [
        "n",
        "sia"
      ],
      [
        "ɛ",
        "gyina"
      ],
      [
        "da",
        "deɛ"
      ],
      [
        "wo",
        "ma"
      ],
      [
        "Ko",
        "r"
      ],
      [
        "ye",
        "llow"
      ],
      [
        "abo",
        "rɔfo"
      ],
      [
        "S",
        "u"
      ],
      [
        "a",
        "ya"
      ],
      [
        "k",
        "ɛntɛn"
      ],
      [
        "wo",
        "gyina"
      ],
      [
        "b",
        "ɛyɛ"
      ],
      [
        "at",
        "i"
      ],
      [
        "ro",
        "nin"
      ],
      [
        "san",
        "tene"
      ],
      [
        "nyi",
        "mpa"
      ],
      [
        "bebe",
        "ree"
      ],
      [
        "ak",
[...]
