{
  "version": "1.0",
  "truncation": null,
  "padding": null,
  "added_tokens": [
    {
      "id": 0,
      "content": "[PAD]",
      "single_word": false,
      "lstrip": false,
      "rstrip": false,
      "normalized": false,
      "special": true
    },
    {
      "id": 1,
      "content": "[UNK]",
      "single_word": false,
      "lstrip": false,
      "rstrip": false,
      "normalized": false,
      "special": true
    },
    {
      "id": 2,
      "content": "[CLS]",
      "single_word": false,
      "lstrip": false,
      "rstrip": false,
      "normalized": false,
      "special": true
    },
    {
      "id": 3,
      "content": "[SEP]",
      "single_word": false,
      "lstrip": false,
      "rstrip": false,
      "normalized": false,
      "special": true
    },
    {
      "id": 4,
      "content": "[MASK]",
      "single_word": false,
      "lstrip": false,
      "rstrip": false,
      "normalized": false,
      "special": true
    },
    {
      "id": 5,
      "content": "<s>",
      "single_word": false,
      "lstrip": false,
      "rstrip": false,
      "normalized": false,
      "special": true
    },
    {
      "id": 6,
      "content": "</s>",
      "single_word": false,
      "lstrip": false,
      "rstrip": false,
      "normalized": false,
      "special": true
    },
    {
      "id": 7,
      "content": "<pad>",
      "single_word": false,
      "lstrip": false,
      "rstrip": false,
      "normalized": false,
      "special": true
    }
  ],
  "normalizer": null,
  "pre_tokenizer": {
    "type": "Whitespace"
  },
  "post_processor": null,
  "decoder": null,
  "model": {
    "type": "BPE",
    "dropout": null,
    "unk_token": "[UNK]",
    "continuing_subword_prefix": null,
    "end_of_word_suffix": null,
    "fuse_unk": false,
    "byte_fallback": false,
    "ignore_merges": false,
    "vocab": {
      "[PAD]": 0,
      "[UNK]": 1,
      "[CLS]": 2,
      "[SEP]": 3,
      "[MASK]": 4,
      "<s>": 5,
      "</s>": 6,
      "<pad>": 7,
      "!": 8,
      "\"": 9,
      "#": 10,
      "$": 11,
      "%": 12,
      "&": 13,
      "'": 14,
      "(": 15,
      ")": 16,
      "*": 17,
      "+": 18,
      ",": 19,
      "-": 20,
      ".": 21,
      "/": 22,
      "0": 23,
      "1": 24,
      "2": 25,
      "3": 26,
      "4": 27,
      "5": 28,
      "6": 29,
      "7": 30,
      "8": 31,
      "9": 32,
      ":": 33,
      ";": 34,
      "=": 35,
      "?": 36,
      "@": 37,
      "A": 38,
      "B": 39,
      "C": 40,
      "D": 41,
      "E": 42,
      "F": 43,
      "G": 44,
      "H": 45,
      "I": 46,
      "J": 47,
      "K": 48,
      "L": 49,
      "M": 50,
      "N": 51,
      "O": 52,
      "P": 53,
      "Q": 54,
      "R": 55,
      "S": 56,
      "T": 57,
      "U": 58,
      "V": 59,
      "W": 60,
      "X": 61,
      "Y": 62,
      "Z": 63,
      "[": 64,
      "\\": 65,
      "]": 66,
      "_": 67,
      "`": 68,
      "a": 69,
      "b": 70,
      "c": 71,
      "d": 72,
      "e": 73,
      "f": 74,
      "g": 75,
      "h": 76,
      "i": 77,
      "j": 78,
      "k": 79,
      "l": 80,
      "m": 81,
      "n": 82,
      "o": 83,
      "p": 84,
      "q": 85,
      "r": 86,
      "s": 87,
      "t": 88,
      "u": 89,
      "v": 90,
      "w": 91,
      "x": 92,
      "y": 93,
      "z": 94,
      "¢": 95,
      "£": 96,
      "°": 97,
      "±": 98,
      "Å": 99,
      "Ø": 100,
      "ß": 101,
      "à": 102,
      "á": 103,
      "â": 104,
      "ã": 105,
      "ä": 106,
      "æ": 107,
      "ç": 108,
      "è": 109,
      "é": 110,
      "ê": 111,
      "í": 112,
      "î": 113,
      "ï": 114,
      "ñ": 115,
      "ò": 116,
      "ó": 117,
      "ô": 118,
      "õ": 119,
      "ö": 120,
      "ø": 121,
      "ú": 122,
      "ü": 123,
      "ā": 124,
      "ą": 125,
      "ć": 126,
      "č": 127,
      "ĩ": 128,
      "ī": 129,
      "ı": 130,
      "ń": 131,
      "ŋ": 132,
      "ō": 133,
      "Ś": 134,
      "š": 135,
      "ũ": 136,
      "ū": 137,
      "Ɔ": 138,
      "Ɛ": 139,
      "ƒ": 140,
      "ǝ": 141,
      "ɑ": 142,
      "ɓ": 143,
      "ɔ": 144,
      "ɛ": 145,
      "ɲ": 146,
      "ʋ": 147,
      "́": 148,
      "ε": 149,
      "е": 150,
      "р": 151,
      "इ": 152,
      "ई": 153,
      "फ": 154,
      "ल": 155,
      "ह": 156,
      "ा": 157,
      "ẹ": 158,
      "ẽ": 159,
      "ụ": 160,
      "–": 161,
      "—": 162,
      "‘": 163,
      "’": 164,
      "“": 165,
      "”": 166,
      "…": 167,
      "€": 168,
      "₵": 169,
      "ℇ": 170,
      "Ↄ": 171,
      "ジ": 172,
      "ョ": 173,
      "网": 174,
      "，": 175,
      "🦅": 176,
      "yɛ": 177,
      "an": 178,
      "sɛ": 179,
      "no": 180,
      "wɔ": 181,
      "ne": 182,
      "na": 183,
      "so": 184,
      "ma": 185,
      "yi": 186,
      "re": 187,
      "yɛn": 188,
      "aa": 189,
      "de": 190,
      "bi": 191,
      "bɛ": 192,
      "ye": 193,
      "se": 194,
      "ni": 195,
      "kɔ": 196,
      "te": 197,
      "ka": 198,
      "me": 199,
      "ra": 200,
      "ho": 201,
      "fo": 202,
      "dw": 203,
      "sɛm": 204,
      "mu": 205,
      "rɛ": 206,
      "nk": 207,
      "man": 208,
      "wo": 209,
      "yina": 210,
      "di": 211,
      "kw": 212,
      "si": 213,
      "wɔn": 214,
      "kye": 215,
      "nan": 216,
      "sa": 217,
      "ɛn": 218,
      "pa": 219,
      "hw": 220,
      "adw": 221,
      "bɔ": 222,
      "kyerɛ": 223,
      "hɔ": 224,
      "foɔ": 225,
      "ba": 226,
      "nyina": 227,
      "ko": 228,
      "nea": 229,
      "ɛyɛ": 230,
      "ani": 231,
      "ti": 232,
      "uma": 233,
      "nni": 234,
      "nso": 235,
      "asɛm": 236,
      "ur": 237,
      "ɛma": 238,
      "nyinaa": 239,
      "ri": 240,
      "ya": 241,
      "kwan": 242,
      "fa": 243,
      "Sɛ": 244,
      "nne": 245,
      "tu": 246,
      "ta": 247,
      "hwɛ": 248,
      "be": 249,
      "fi": 250,
      "pɛ": 251,
      "wa": 252,
      "deɛ": 253,
      "nanso": 254,
      "ara": 255,
      "hyɛ": 256,
      "mi": 257,
      "nneɛma": 258,
      "ene": 259,
      "bo": 260,
      "eɛ": 261,
      "ase": 262,
      "su": 263,
      "adwuma": 264,
      "ɛsɛ": 265,
      "ɛbɛ": 266,
      "ɔman": 267,
      "Me": 268,
      "mo": 269,
      "to": 270,
      "baa": 271,
      "mma": 272,
      "hu": 273,
      "da": 274,
      "nn": 275,
      "nko": 276,
      "saa": 277,
      "obi": 278,
      "kwa": 279,
      "nkur": 280,
      "ro": 281,
      "aman": 282,
      "Ɛyɛ": 283,
      "adwene": 284,
      "nim": 285,
      "ɛwɔ": 286,
      "anim": 287,
      "ɔfoɔ": 288,
      "gye": 289,
      "ku": 290,
      "hi": 291,
      "Wɔ": 292,
      "on": 293,
      "en": 294,
      "nyɛ": 295,
      "tumi": 296,
      "den": 297,
      "Anan": 298,
      "Ananse": 299,
      "Nan": 300,
      "gyina": 301,
      "ak": 302,
      "Nanso": 303,
      "nsa": 304,
      "yɛbɛ": 305,
      "pi": 306,
      "kɔɔ": 307,
      "ha": 308,
      "po": 309,
      "ɛnyɛ": 310,
      "ag": 311,
      "kware": 312,
      "yie": 313,
      "bu": 314,
      "do": 315,
      "ana": 316,
      "nkurɔfoɔ": 317,
      "ɛfa": 318,
      "nte": 319,
      "ayɛ": 320,
      "nnipa": 321,
      "ad": 322,
      "we": 323,
      "ama": 324,
      "hia": 325,
      "kɛ": 326,
      "nsɛm": 327,
      "Gh": 328,
      "Ɛno": 329,
      "akwan": 330,
      "Ghana": 331,
      "ban": 332,
      "li": 333,
      "wu": 334,
      "nipa": 335,
      "mm": 336,
      "dwuma": 337,
      "bɔɔ": 338,
      "nkɔ": 339,
      "aho": 340,
      "ɛre": 341,
      "Ɛnyɛ": 342,
      "bɛyɛ": 343,
      "nu": 344,
      "boa": 345,
      "aseɛ": 346,
      "nokware": 347,
      "sika": 348,
      "nti": 349,
      "ako": 350,
      "rɔ": 351,
      "soɔ": 352,
      "mme": 353,
      "Yɛn": 354,
      "mmo": 355,
      "kasa": 356,
      "wɔre": 357,
      "hwe": 358,
      "die": 359,
      "firi": 360,
      "pii": 361,
      "Na": 362,
      "aba": 363,
      "wi": 364,
      "kɛse": 365,
      "at": 366,
      "le": 367,
      "mmɔ": 368,
      "ane": 369,
      "adeɛ": 370,
      "ɛbɛma": 371,
      "paa": 372,
      "ɔre": 373,
      "biara": 374,
      "teɛ": 375,
      "bere": 376,
      "yɔ": 377,
      "akyi": 378,
      "hyi": 379,
      "ɔyɛ": 380,
      "obiara": 381,
      "sɛnea": 382,
      "ɛkyerɛ": 383,
      "ɔbɛ": 384,
      "akɔ": 385,
      "hye": 386,
      "anaa": 387,
      "nya": 388,
      "wɔbɛ": 389,
      "Ko": 390,
      "kra": 391,
      "ago": 392,
      "wɔwɔ": 393,
      "baako": 394,
      "he": 395,
      "yɛhwɛ": 396,
      "ce": 397,
      "kae": 398,
      "gu": 399,
      "amanyɔ": 400,
      "kyerɛɛ": 401,
      "Ɛsɛ": 402,
      "ran": 403,
      "nkonim": 404,
      "dɔ": 405,
      "nt": 406,
      "ɛfata": 407,
      "werɛ": 408,
      "mp": 409,
      "ɔwɔ": 410,
      "al": 411,
      "dwo": 412,
      "ree": 413,
      "nka": 414,
      "bea": 415,
      "kaa": 416,
      "anan": 417,
      "mmi": 418,
      "Nnipa": 419,
      "bɔɔl": 420,
      "yɛɛ": 421,
      "hyia": 422,
      "fu": 423,
      "du": 424,
      "uru": 425,
      "mmom": 426,
      "amanyɔsɛm": 427,
      "nkwa": 428,
      "st": 429,
      "sie": 430,
      "fofo": 431,
      "ano": 432,
      "rima": 433,
      "ng": 434,
      "wɔde": 435,
      "ar": 436,
      "kɛseɛ": 437,
      "Kofi": 438,
      "aka": 439,
      "adi": 440,
      "ɛno": 441,
      "nna": 442,
      "daa": 443,
      "ɛrekɔ": 444,
      "anigye": 445,
      "aso": 446,
      "tena": 447,
      "dɛn": 448,
      "baabi": 449,
      "ɛkɔ": 450,
      "ke": 451,
      "Wɔn": 452,
      "hyehyɛ": 453,
      "wan": 454,
      "tion": 455,
      "hunu": 456,
      "suo": 457,
      "nta": 458,
      "fe": 459,
      "tɔ": 460,
      "raa": 461,
      "hwehwɛ": 462,
      "maa": 463,
      "Saa": 464,
      "bree": 465,
      "gya": 466,
      "sua": 467,
      "duru": 468,
      "ny": 469,
      "yiye": 470,
      "ananse": 471,
      "bebree": 472,
      "mfa": 473,
      "nom": 474,
      "dan": 475,
      "san": 476,
      "yɛyɛ": 477,
      "co": 478,
      "fra": 479,
      "taa": 480,
      "er": 481,
      "yɛre": 482,
      "Wo": 483,
      "20": 484,
      "ade": 485,
      "la": 486,
      "wode": 487,
      "kura": 488,
      "ɔde": 489,
      "yin": 490,
      "anya": 491,
      "enu": 492,
      "aban": 493,
      "nnɛ": 494,
      "ɔpɛ": 495,
      "abɔ": 496,
      "woyɛ": 497,
      "mpa": 498,
      "ranteɛ": 499,
      "yɛde": 500,
      "ɛte": 501,
      "ate": 502,
      "uro": 503,
      "asa": 504,
      "wanwa": 505,
      "nteaseɛ": 506,
      "sɛe": 507,
      "agorɔ": 508,
      "ty": 509,
      "kɔsɛm": 510,
      "adu": 511,
      "ɛhia": 512,
      "akwantu": 513,
      "nwanwa": 514,
      "mmara": 515,
      "fɛ": 516,
      "as": 517,
      "nkyɛn": 518,
      "ebi": 519,
      "wɔyɛ": 520,
      "hene": 521,
      "ɔden": 522,
      "asom": 523,
      "ci": 524,
      "mmienu": 525,
      "ɛbɛyɛ": 526,
      "abu": 527,
      "wom": 528,
      "yɛwɔ": 529,
      "bom": 530,
      "mpo": 531,
      "ahoɔden": 532,
      "asomdwo": 533,
      "kuo": 534,
      "ɔfo": 535,
      "pe": 536,
      "wopɛ": 537,
      "No": 538,
      "ansa": 539,
      "rt": 540,
      "hyɛɛ": 541,
      "anigyeɛ": 542,
      "nnyina": 543,
      "anansesɛm": 544,
      "ɛnsɛ": 545,
      "202": 546,
      "wiase": 547,
      "pɔ": 548,
      "bɔne": 549,
      "nku": 550,
      "mmerɛ": 551,
      "lo": 552,
      "vi": 553,
      "dii": 554,
      "sisi": 555,
      "ankasa": 556,
      "koraa": 557,
      "yɛkɔ": 558,
      "tee": 559,
      "yɛnni": 560,
      "ki": 561,
      "nsuo": 562,
      "ɔmanfoɔ": 563,
      "ntam": 564,
      "neɛ": 565,
      "dodo": 566,
      "nam": 567,
      "dwumadie": 568,
      "kraman": 569,
      "akan": 570,
      "berɛ": 571,
      "nkye": 572,
      "yare": 573,
      "tiri": 574,
      "kyɛ": 575,
      "asomdwoeɛ": 576,
      "abo": 577,
      "mepɛ": 578,
      "din": 579,
      "am": 580,
      "abakɔsɛm": 581,
      "anyin": 582,
      "foforo": 583,
      "dz": 584,
      "bɛkɔ": 585,
      "asase": 586,
      "tie": 587,
      "in": 588,
      "wɔa": 589,
      "fie": 590,
      "bra": 591,
      "dɛ": 592,
      "nkurɔfo": 593,
      "koma": 594,
      "fam": 595,
      "too": 596,
      "kɔkɔɔ": 597,
      "ter": 598,
      "nkɔmmɔ": 599,
      "twa": 600,
      "biri": 601,
      "soro": 602,
      "ɛfiri": 603,
      "Ɛnnɛ": 604,
      "kan": 605,
      "haw": 606,
      "ll": 607,
      "nkɔsoɔ": 608,
      "nto": 609,
      "tum": 610,
      "mmɔden": 611,
      "foforɔ": 612,
      "Mo": 613,
      "Nk": 614,
      "tra": 615,
      "bɔɔlo": 616,
      "nkyerɛ": 617,
      "Ɔse": 618,
      "akoma": 619,
      "Nokware": 620,
      "reka": 621,
      "barima": 622,
      "ei": 623,
      "bɛka": 624,
      "Kwa": 625,
      "Mepɛ": 626,
      "atwa": 627,
      "ve": 628,
      "rekɔ": 629,
      "ɛho": 630,
      "ge": 631,
      "Mma": 632,
      "ru": 633,
      "yɛpɛ": 634,
      "asi": 635,
      "tete": 636,
      "rs": 637,
      "aw": 638,
      "dwene": 639,
      "hwee": 640,
      "wɔpɛ": 641,
      "panyin": 642,
      "ɛda": 643,
      "wote": 644,
      "basa": 645,
      "tun": 646,
      "Be": 647,
      "ɛkɔɔ": 648,
      "nimdeɛ": 649,
      "sii": 650,
      "sesa": 651,
      "tuntum": 652,
      "ɔne": 653,
      "Co": 654,
      "adwumayɛ": 655,
      "yam": 656,
      "Ɛwɔ": 657,
      "nhyehyɛ": 658,
      "akoko": 659,
      "nsam": 660,
      "nal": 661,
      "um": 662,
      "ment": 663,
      "kyi": 664,
      "of": 665,
      "mmu": 666,
      "\".": 667,
      "fitaa": 668,
      "ue": 669,
      "ata": 670,
      "yɛka": 671,
      "nyansa": 672,
      "susu": 673,
      "mfo": 674,
      "ɔhaw": 675,
      "awerɛ": 676,
      "mmeranteɛ": 677,
      "ete": 678,
      "ca": 679,
      "Ma": 680,
      "bɛba": 681,
      "ato": 682,
      "fuo": 683,
      "Ama": 684,
      "yɛnhwɛ": 685,
      "feɛ": 686,
      "nkuran": 687,
      "port": 688,
      "th": 689,
      "biribi": 690,
      "nɛ": 691,
      "Ebi": 692,
      "ck": 693,
      "meka": 694,
      "anom": 695,
      "2025": 696,
      "how": 697,
      "yɛnyɛ": 698,
      "go": 699,
      "gyae": 700,
      "yɛbɔ": 701,
      "ɔkwan": 702,
      "akansie": 703,
      "ry": 704,
      "dua": 705,
      "kuu": 706,
      "Dr": 707,
      "ua": 708,
      "nnwom": 709,
      "tirim": 710,
      "Nkur": 711,
      "mmoa": 712,
      "nkabom": 713,
      "anin": 714,
      "twe": 715,
      "nkra": 716,
      "Yaw": 717,
      "mmaa": 718,
      "akokoduru": 719,
      "Eyi": 720,
      "kita": 721,
      "ɔte": 722,
      "ɛne": 723,
      "bisa": 724,
      "ahyia": 725,
      "ataa": 726,
      "ren": 727,
      "ɔhene": 728,
      "ɛnni": 729,
      "Bo": 730,
      "mehwɛ": 731,
      "akyerɛ": 732,
      "Mi": 733,
      "yɛdi": 734,
      "bɔɔlobɔ": 735,
      "mfi": 736,
      "frɛ": 737,
      "anida": 738,
      "tia": 739,
      "ss": 740,
      "aduane": 741,
      "nsɛ": 742,
      "abra": 743,
      "ch": 744,
      "Ɔman": 745,
      "nneyɛɛ": 746,
      "efi": 747,
      "nnyɛ": 748,
      "hyɛn": 749,
      "ɔso": 750,
      "mehu": 751,
      "Aane": 752,
      "abrabɔ": 753,
      "nten": 754,
      "afe": 755,
      "mmarima": 756,
      "ɛde": 757,
      "dze": 758,
      "ahyɛ": 759,
      "Af": 760,
      "Wei": 761,
      "seɛ": 762,
      "mfeɛ": 763,
      "pɔn": 764,
      "Da": 765,
      "ɛna": 766,
      "adan": 767,
      "Ju": 768,
      "abusua": 769,
      "gi": 770,
      "adaa": 771,
      "yɛbɛka": 772,
      "Sɛnea": 773,
      "ly": 774,
      "wie": 775,
      "Si": 776,
      "pono": 777,
      "bɛyɛɛ": 778,
      "sti": 779,
      "nteɛ": 780,
      "baeɛ": 781,
      "asetena": 782,
      "papa": 783,
      "ɔbarima": 784,
      "onal": 785,
      "yɛbɛtumi": 786,
      "wobɛ": 787,
      "ayare": 788,
      "or": 789,
      "hɔn": 790,
      "dwen": 791,
      "nnaadaa": 792,
      "poli": 793,
      "tw": 794,
      "nhwɛ": 795,
      "mfasoɔ": 796,
      "yɛbɛyɛ": 797,
      "sta": 798,
      "kuro": 799,
      "apa": 800,
      "bio": 801,
      "nnya": 802,
      "kyerɛkyerɛ": 803,
      "akwanya": 804,
      "ɛbɛboa": 805,
      "Kwame": 806,
      "betumi": 807,
      "akyiri": 808,
      "animfoɔ": 809,
      "koro": 810,
      "abɛ": 811,
      "ɛbɛba": 812,
      "sukuu": 813,
      "panin": 814,
      "toɔ": 815,
      "ɔdɔ": 816,
      "Ne": 817,
      "asɛ": 818,
      "agodie": 819,
      "ɛnnɛ": 820,
      "kyere": 821,
      "kwaeɛ": 822,
      "Nkurɔfoɔ": 823,
      "Ac": 824,
      "Aba": 825,
      "dwom": 826,
      "nnwa": 827,
      "ts": 828,
      "ɔno": 829,
      "ɔhyɛ": 830,
      "anka": 831,
      "momma": 832,
      "ayaresa": 833,
      "Ni": 834,
      "ɛnsa": 835,
      "wɔreyɛ": 836,
      "wose": 837,
      "amammerɛ": 838,
      "anidasoɔ": 839,
      "daakye": 840,
      "tam": 841,
      "sra": 842,
      "ɔse": 843,
      "cy": 844,
      "tuo": 845,
      "Ɔkraman": 846,
      "gh": 847,
      "nuanom": 848,
      "afa": 849,
      "ɔkraman": 850,
      "hunuu": 851,
      "reba": 852,
      "pro": 853,
      "ol": 854,
      "Afri": 855,
      "ble": 856,
      "bɛtumi": 857,
      "ɛmaa": 858,
      "nhyehyɛeɛ": 859,
      "faa": 860,
      "sia": 861,
      "yera": 862,
      "anko": 863,
      "ou": 864,
      "sɛɛ": 865,
      "sere": 866,
      "ɛm": 867,
      "ɔbaa": 868,
      "woate": 869,
      "wɛ": 870,
      "yɛma": 871,
      "ɛba": 872,
      "siesie": 873,
      "ɔn": 874,
      "CO": 875,
      "sɛdeɛ": 876,
      "wɔte": 877,
      "amaneɛ": 878,
      "cra": 879,
      "Ɛnsɛ": 880,
      "ɛhyɛ": 881,
      "Po": 882,
      "kaeɛ": 883,
      "con": 884,
      "ver": 885,
      "kyerɛw": 886,
      "reyɛ": 887,
      "kete": 888,
      "hyiaa": 889,
      "tor": 890,
      "ac": 891,
      "asiane": 892,
      "akwankyerɛ": 893,
      "sen": 894,
      "efisɛ": 895,
      "Sika": 896,
      "Sta": 897,
      "Jo": 898,
      "nsu": 899,
      "yɛhu": 900,
      "rehwɛ": 901,
      "NP": 902,
      "ɛtɔ": 903,
      "mpanimfoɔ": 904,
      "nnye": 905,
      "gy": 906,
      "aboa": 907,
      "row": 908,
      "woa": 909,
      "Re": 910,
      "neɛma": 911,
      "nkrataa": 912,
      "mmea": 913,
      "tional": 914,
      "afi": 915,
      "Hwɛ": 916,
      "dɔm": 917,
      ",\"": 918,
      "doɔ": 919,
      "Ba": 920,
      "basabasa": 921,
      "binom": 922,
      "Se": 923,
      "Ɛte": 924,
      "Bere": 925,
      "redi": 926,
      "NPP": 927,
      "ssi": 928,
      "Asɛm": 929,
      "umadi": 930,
      "wura": 931,
      "for": 932,
      "nua": 933,
      "awerɛho": 934,
      "kɔn": 935,
      "bɛdi": 936,
      "Baa": 937,
      "and": 938,
      "bisaa": 939,
      "wɔnni": 940,
      "dia": 941,
      "amanaman": 942,
      "ah": 943,
      "yɛnnyɛ": 944,
      "kɛkɛ": 945,
      "abatoɔ": 946,
      "som": 947,
      "akwa": 948,
      "ball": 949,
      "adwumayɛfoɔ": 950,
      "ɔkɔ": 951,
      "rebɔ": 952,
      "pɛɛ": 953,
      "nkete": 954,
      "ɛka": 955,
      "nneyɛ": 956,
      "mmabaa": 957,
      "bɔɔlbɔ": 958,
      "lli": 959,
      "mmarahyɛ": 960,
      "Bi": 961,
      "beaeɛ": 962,
      "mekae": 963,
      "nkutoo": 964,
      "onipa": 965,
      "un": 966,
      "el": 967,
      "nkunim": 968,
      "ahosuo": 969,
      "Au": 970,
      "cial": 971,
      "afiri": 972,
      "agumadi": 973,
      "rɔfo": 974,
      "cu": 975,
      "rd": 976,
      "nyaa": 977,
      "dɔɔso": 978,
      "Mme": 979,
      "yɛa": 980,
      "19": 981,
      "ɛdi": 982,
      "gyinaa": 983,
      "ketewa": 984,
      "wuo": 985,
      "00": 986,
      "ankopɔn": 987,
      "eyi": 988,
      "nkɔanim": 989,
      "dy": 990,
      "per": 991,
      "tal": 992,
      "amanfoɔ": 993,
      "agu": 994,
      "es": 995,
      "ada": 996,
      "mmere": 997,
      "wodi": 998,
      "dodoɔ": 999,
      "As": 1000,
      "adwo": 1001,
      "kor": 1002,
      "Maa": 1003,
      "Aman": 1004,
      "susuw": 1005,
      "Ɔkaa": 1006,
      "lu": 1007,
      "ɔka": 1008,
      "akokɔ": 1009,
      "nnw": 1010,
      "Maame": 1011,
      "nyankopɔn": 1012,
      "bɔɔlɔ": 1013,
      "uri": 1014,
      "Mmaa": 1015,
      "bae": 1016,
      "Onyankopɔn": 1017,
      "Nneɛma": 1018,
      "ntɛm": 1019,
      "cal": 1020,
      "yɛnya": 1021,
      "lack": 1022,
      "yɔfoɔ": 1023,
      "asraa": 1024,
      "gal": 1025,
      "woka": 1026,
      "Ɔsebɔ": 1027,
      "yareɛ": 1028,
      "ayaresabea": 1029,
      "Te": 1030,
      "amanneɛ": 1031,
      "tua": 1032,
      "bota": 1033,
      "Baako": 1034,
      "mfoɔ": 1035,
      "cha": 1036,
      "ɛnneɛ": 1037,
      "ports": 1038,
      "wɔkɔ": 1039,
      "yɛbɛkɔ": 1040,
      "ent": 1041,
      "De": 1042,
      "wɔka": 1043,
      "Nti": 1044,
      "Abakɔsɛm": 1045,
      "nnyinasoɔ": 1046,
      "ir": 1047,
      "yɛfa": 1048,
      "mmiɛnsa": 1049,
      "teeɛ": 1050,
      "Nana": 1051,
      "asɛnni": 1052,
      "agye": 1053,
      "suban": 1054,
      "atwam": 1055,
      "ral": 1056,
      "nsesa": 1057,
      "nkyerɛkyerɛ": 1058,
      "Su": 1059,
      "nkonto": 1060,
      "asetra": 1061,
      "nkonimdie": 1062,
      "esi": 1063,
      "ong": 1064,
      "ntoma": 1065,
      "nteɛsoɔ": 1066,
      "amanyɔfoɔ": 1067,
      "keka": 1068,
      "Maha": 1069,
      "ame": 1070,
      "ot": 1071,
      "ɛteɛ": 1072,
      "wɔdi": 1073,
      "gyinagyina": 1074,
      "wɔhwɛ": 1075,
      "huu": 1076,
      "Momma": 1077,
      "bɛn": 1078,
      "nkontompo": 1079,
      "ster": 1080,
      "yɛte": 1081,
      "Tete": 1082,
      "amansan": 1083,
      "Accra": 1084,
      "ɔhwɛ": 1085,
      "bɛma": 1086,
      "resi": 1087,
      "aha": 1088,
      "ld": 1089,
      "the": 1090,
      "tse": 1091,
      "He": 1092,
      "Wi": 1093,
      "wɔfa": 1094,
      "Mini": 1095,
      "mpaeɛ": 1096,
      "Black": 1097,
      "ataade": 1098,
      "anu": 1099,
      "ntumi": 1100,
      "kora": 1101,
      "tions": 1102,
      "sei": 1103,
      "media": 1104,
      "nnan": 1105,
      "nnua": 1106,
      "anaasɛ": 1107,
      "DC": 1108,
      "gyee": 1109,
      "ɛreba": 1110,
      "agya": 1111,
      "dwa": 1112,
      "ahodoɔ": 1113,
      "Akwa": 1114,
      "ɛnde": 1115,
      "Wose": 1116,
      "dwi": 1117,
      "kyɛw": 1118,
      "tta": 1119,
      "Mm": 1120,
      "Yɛ": 1121,
      "mmabu": 1122,
      "basaa": 1123,
      "kakra": 1124,
      "yewa": 1125,
      "yɛanya": 1126,
      "ɔnni": 1127,
      "reɛ": 1128,
      "son": 1129,
      "ahwɛ": 1130,
      "jo": 1131,
      "Ku": 1132,
      "Ɔhene": 1133,
      "ɔkaa": 1134,
      "Mahama": 1135,
      "sifoɔ": 1136,
      "wɔfrɛ": 1137,
      "umba": 1138,
      "asɛnnibea": 1139,
      "Ɛfiri": 1140,
      "ɔbɛyɛ": 1141,
      "nnwuma": 1142,
      "ɔbɔ": 1143,
      "'.": 1144,
      "wɔbɛyɛ": 1145,
      "mete": 1146,
      "sikasɛm": 1147,
      "abi": 1148,
      "mmɔfra": 1149,
      "ap": 1150,
      "July": 1151,
      "Lumba": 1152,
      "Ghanafoɔ": 1153,
      "bɛboa": 1154,
      "badw": 1155,
      "Yi": 1156,
      "maame": 1157,
      "asɛe": 1158,
      "ɔdi": 1159,
      "il": 1160,
      "sini": 1161,
      "Cha": 1162,
      "wotee": 1163,
      "sɔ": 1164,
      "iɛ": 1165,
      "ste": 1166,
      "ɛnt": 1167,
      "bɛnya": 1168,
      "ntinn": 1169,
      "pintinn": 1170,
      "tenten": 1171,
      "asɔre": 1172,
      "akɛ": 1173,
      "onyam": 1174,
      "ɔfa": 1175,
      "Ɛwom": 1176,
      "tɔn": 1177,
      "yɛbɛfa": 1178,
      "Anansesɛm": 1179,
      "ab": 1180,
      "afoɔ": 1181,
      "ɔreyɛ": 1182,
      "Ɛda": 1183,
      "Pro": 1184,
      "ber": 1185,
      "adesua": 1186,
      "nyi": 1187,
      "Sa": 1188,
      "ɔbɛkɔ": 1189,
      "awi": 1190,
      "biako": 1191,
      "sey": 1192,
      "Wa": 1193,
      "ct": 1194,
      "kuta": 1195,
      "Sha": 1196,
      "up": 1197,
      "nteteeɛ": 1198,
      "amanɔne": 1199,
      "enti": 1200,
      "twɛn": 1201,
      "abufuo": 1202,
      "gua": 1203,
      "Ɔde": 1204,
      "Mmarima": 1205,
      "dzi": 1206,
      "nsakra": 1207,
      "ket": 1208,
      "Ab": 1209,
      "akonnwa": 1210,
      "yɛkasa": 1211,
      "Ɔbaa": 1212,
      "Le": 1213,
      "Augu": 1214,
      "wunya": 1215,
      "nkonimdi": 1216,
      "mfoni": 1217,
      "Dan": 1218,
      "lity": 1219,
      "sec": 1220,
      "ahorow": 1221,
      "ɔkɔɔ": 1222,
      "Wɔde": 1223,
      "ɔnim": 1224,
      "renya": 1225,
      "ɔbɛtumi": 1226,
      "Enti": 1227,
      "ɛhɔ": 1228,
      "mmofra": 1229,
      "ɛbɛtumi": 1230,
      "botaeɛ": 1231,
      "amane": 1232,
      "ga": 1233,
      "mpe": 1234,
      "manfoɔ": 1235,
      "asraafoɔ": 1236,
      "ɛkwan": 1237,
      "tive": 1238,
      "Poli": 1239,
      "Adwuma": 1240,
      "Ɛhɔ": 1241,
      "ID": 1242,
      "Abe": 1243,
      "wɔbɛdi": 1244,
      "rekyerɛ": 1245,
      "hena": 1246,
      "nwa": 1247,
      "August": 1248,
      "wɔreka": 1249,
      "NDC": 1250,
      "yaw": 1251,
      "ebinom": 1252,
      "ekyi": 1253,
      "Yɛnhwɛ": 1254,
      "pɔnkɔ": 1255,
      "amsey": 1256,
      "inte": 1257,
      "ɔda": 1258,
      "Di": 1259,
      "nneɛ": 1260,
      "Mmo": 1261,
      "fɔ": 1262,
      "wɔbɔ": 1263,
      "hip": 1264,
      "gyi": 1265,
      "gra": 1266,
      "nkuro": 1267,
      "ing": 1268,
      "ning": 1269,
      "int": 1270,
      "ita": 1271,
      "ɛbɛkyerɛ": 1272,
      "pae": 1273,
      "ze": 1274,
      "ɔkae": 1275,
      "bammɔ": 1276,
      "nnu": 1277,
      "hwere": 1278,
      "Chi": 1279,
      "ɔpanyin": 1280,
      "Mmara": 1281,
      "yan": 1282,
      "ɛt": 1283,
      "ahu": 1284,
      "sakra": 1285,
      "mpi": 1286,
      "nokwareɛ": 1287,
      "ence": 1288,
      "Ad": 1289,
      "wɔbɛtumi": 1290,
      "nsi": 1291,
      "Yiw": 1292,
      "adanseɛ": 1293,
      "twi": 1294,
      "ɔreka": 1295,
      "amanyɔkuo": 1296,
      "nneyɛe": 1297,
      "efiri": 1298,
      "Papa": 1299,
      "ture": 1300,
      "yɛkura": 1301,
      "aduon": 1302,
      "Aban": 1303,
      "biribiara": 1304,
      "mmabun": 1305,
      "nsesaeɛ": 1306,
      "akye": 1307,
      "ɛbi": 1308,
      "fuw": 1309,
      "yɛhia": 1310,
      "agyina": 1311,
      "ntaa": 1312,
      "rity": 1313,
      "Ho": 1314,
      "atadeɛ": 1315,
      "srɛ": 1316,
      "ɔpa": 1317,
      "rekasa": 1318,
      "FA": 1319,
      "tan": 1320,
      "ɔsebɔ": 1321,
      "yɛnka": 1322,
      "yɛboa": 1323,
      "wunni": 1324,
      "hosan": 1325,
      "sante": 1326,
      "anea": 1327,
      "Ampa": 1328,
      "Ar": 1329,
      "GH": 1330,
      "mpɛ": 1331,
      "ɛbɛsɛe": 1332,
      "We": 1333,
      "nifoɔ": 1334,
      "Shatta": 1335,
      "ɛboa": 1336,
      "tey": 1337,
      "wotumi": 1338,
      "otball": 1339,
      "dom": 1340,
      "nkɔm": 1341,
      "Par": 1342,
      "dibea": 1343,
      "adwumakuo": 1344,
      "sradeɛ": 1345,
      "mpɔ": 1346,
      "fufuo": 1347,
      "some": 1348,
      "abɛyɛ": 1349,
      "nee": 1350,
      "Do": 1351,
      "ria": 1352,
      "akwahosan": 1353,
      "mia": 1354,
      "bue": 1355,
      "ɔko": 1356,
      "stry": 1357,
      "bɛbɔ": 1358,
      "ex": 1359,
      "wɔrehwɛ": 1360,
      "pu": 1361,
      "Ɔkae": 1362,
      "Man": 1363,
      "pre": 1364,
      "awerɛhow": 1365,
      "tic": 1366,
      "ɔbɛdi": 1367,
      "nwo": 1368,
      "urity": 1369,
      "atena": 1370,
      "Africa": 1371,
      "ahobammɔ": 1372,
      "TV": 1373,
      "dent": 1374,
      "ɛdan": 1375,
      "ɛnna": 1376,
      "wɔhyɛ": 1377,
      "rante": 1378,
      "Mu": 1379,
      "nno": 1380,
      "akwanhyia": 1381,
      "kuma": 1382,
      "urt": 1383,
      "hwan": 1384,
      "abɔnten": 1385,
      "afoforo": 1386,
      "Abo": 1387,
      "hwehwɛɛ": 1388,
      "car": 1389,
      "ɛbɛkɔ": 1390,
      "lec": 1391,
      "Wale": 1392,
      "dwiri": 1393,
      "nkita": 1394,
      "ahyehyɛ": 1395,
      "nsakraeɛ": 1396,
      "yɛnnyina": 1397,
      "ananmu": 1398,
      "yɛbɛnya": 1399,
      "Ɛbɛyɛ": 1400,
      "hwi": 1401,
      "social": 1402,
      "aduonu": 1403,
      "ɔmo": 1404,
      "wɔbɛbɔ": 1405,
      "line": 1406,
      "tro": 1407,
      "wieeɛ": 1408,
      "ef": 1409,
      "ɛkyɛ": 1410,
      "Uni": 1411,
      "akyire": 1412,
      "alth": 1413,
      "nkitaho": 1414,
      "Mmeranteɛ": 1415,
      "uraa": 1416,
      "Ɔka": 1417,
      "wɔdze": 1418,
      "tare": 1419,
      "Ɛkyerɛ": 1420,
      "buaa": 1421,
      "ron": 1422,
      "mmra": 1423,
      "han": 1424,
      "Asa": 1425,
      "llion": 1426,
      "akɛseɛ": 1427,
      "ekyir": 1428,
      "boɔ": 1429,
      "nhyia": 1430,
      "difoɔ": 1431,
      "Akwatia": 1432,
      "nidi": 1433,
      "In": 1434,
      "ght": 1435,
      "im": 1436,
      "Ɛnneɛ": 1437,
      "adaka": 1438,
      "Li": 1439,
      "Nipa": 1440,
      "bosome": 1441,
      "les": 1442,
      "aduru": 1443,
      "ɔyɛɛ": 1444,
      "galamsey": 1445,
      "agoru": 1446,
      "akasa": 1447,
      "wɔbɛfa": 1448,
      "ɔkyerɛ": 1449,
      "fɛɛ": 1450,
      "COV": 1451,
      "Agya": 1452,
      "COVID": 1453,
      "pra": 1454,
      "sion": 1455,
      "pho": 1456,
      "asesa": 1457,
      "yɛbɛma": 1458,
      "tiriw": 1459,
      "pri": 1460,
      "ahwehwɛ": 1461,
      "rebu": 1462,
      "Yɛwɔ": 1463,
      "titiriw": 1464,
      "animgu": 1465,
      "mpae": 1466,
      "yɛmfa": 1467,
      "Nea": 1468,
      "aeɛ": 1469,
      "Ebinom": 1470,
      "yɛreka": 1471,
      "Gol": 1472,
      "abofra": 1473,
      "krataa": 1474,
      "ahaban": 1475,
      "asomdwoe": 1476,
      "der": 1477,
      "rika": 1478,
      "mono": 1479,
      "nkoaa": 1480,
      "heli": 1481,
      "Nige": 1482,
      "koto": 1483,
      "yɛgye": 1484,
      "pter": 1485,
      "nkyɛ": 1486,
      "ting": 1487,
      "Dɛn": 1488,
      "sɔre": 1489,
      "Dad": 1490,
      "So": 1491,
      "wɔanya": 1492,
      "dea": 1493,
      "National": 1494,
      "duruu": 1495,
      "abusuabɔ": 1496,
      "nse": 1497,
      "yii": 1498,
      "can": 1499,
      "ted": 1500,
      "wunim": 1501,
      "To": 1502,
      "ation": 1503,
      "qua": 1504,
      "Al": 1505,
      "che": 1506,
      "bɛsɛe": 1507,
      "ebia": 1508,
      "Stars": 1509,
      "ɔkasa": 1510,
      "akwantuo": 1511,
      "ataadeɛ": 1512,
      "Joh": 1513,
      "tutu": 1514,
      "nnamfo": 1515,
      "Obiara": 1516,
      "twerɛ": 1517,
      "football": 1518,
      "kyɛn": 1519,
      "baawa": 1520,
      "wore": 1521,
      "kar": 1522,
      "outh": 1523,
      "ssion": 1524,
      "sh": 1525,
      "pene": 1526,
      "Hi": 1527,
      "egyina": 1528,
      "nsia": 1529,
      "team": 1530,
      "Minister": 1531,
      "Bawu": 1532,
      "wɔtwe": 1533,
      "Daddy": 1534,
      "awa": 1535,
      "ɛhe": 1536,
      "gyaa": 1537,
      "lue": 1538,
      "wɔgyina": 1539,
      "nnis": 1540,
      "Bawumia": 1541,
      "copter": 1542,
      "ɔnyɛ": 1543,
      "sɛn": 1544,
      "abom": 1545,
      "asɔ": 1546,
      "sports": 1547,
      "awerɛhoɔ": 1548,
      "mpɔtam": 1549,
      "wɔayɛ": 1550,
      "ces": 1551,
      "nkaeɛ": 1552,
      "reko": 1553,
      "mber": 1554,
      "Mar": 1555,
      "hwɛɛ": 1556,
      "wɔrebɔ": 1557,
      "lub": 1558,
      "ɛmfa": 1559,
      "polisifoɔ": 1560,
      "gyidi": 1561,
      "yɛkae": 1562,
      "atade": 1563,
      "mmerɛw": 1564,
      "table": 1565,
      "au": 1566,
      "ɔdii": 1567,
      "2024": 1568,
      "yɛbɛdi": 1569,
      "Ro": 1570,
      "pɛɛpɛ": 1571,
      "suro": 1572,
      "wɔredi": 1573,
      "akannifoɔ": 1574,
      "awerɛhosɛm": 1575,
      "stice": 1576,
      "Obi": 1577,
      "sk": 1578,
      "EC": 1579,
      "awieeɛ": 1580,
      "yim": 1581,
      "nhyehyɛɛ": 1582,
      "afoforɔ": 1583,
      "stra": 1584,
      "Kw": 1585,
      "yɛgyina": 1586,
      "nhwehwɛ": 1587,
      "ɔma": 1588,
      "ɔfra": 1589,
      "ɛnnyɛ": 1590,
      "Nigeria": 1591,
      "kuw": 1592,
      "mman": 1593,
      "Ɔpɛ": 1594,
      "hɔnom": 1595,
      "AF": 1596,
      "Commi": 1597,
      "deo": 1598,
      "tenaa": 1599,
      "nnim": 1600,
      "adze": 1601,
      "security": 1602,
      "rld": 1603,
      "Wiase": 1604,
      "basabasayɛ": 1605,
      "woan": 1606,
      "yere": 1607,
      "rth": 1608,
      "abere": 1609,
      "bobɔ": 1610,
      "nketenkete": 1611,
      "Kwadwo": 1612,
      "atar": 1613,
      "sport": 1614,
      "nhyɛ": 1615,
      "Ɔkɔɔ": 1616,
      "ɛsɛe": 1617,
      "Go": 1618,
      "pla": 1619,
      "Ako": 1620,
      "nhwɛsoɔ": 1621,
      "Police": 1622,
      "ɛbɔ": 1623,
      "ans": 1624,
      "pɛpɛɛpɛ": 1625,
      "pue": 1626,
      "nkɔso": 1627,
      "Vi": 1628,
      "Mmɔfra": 1629,
      "brɛ": 1630,
      "bɔfoɔ": 1631,
      "par": 1632,
      "Ɛyɛɛ": 1633,
      "dɔɔ": 1634,
      "nson": 1635,
      "korɛ": 1636,
      "Dabi": 1637,
      "Amanyɔ": 1638,
      "urna": 1639,
      "yɛreyɛ": 1640,
      "atoro": 1641,
      "wɔne": 1642,
      "blue": 1643,
      "sto": 1644,
      "Afe": 1645,
      "monhwɛ": 1646,
      "korɔ": 1647,
      "ɔbɔɔ": 1648,
      "see": 1649,
      "yɔnko": 1650,
      "sy": 1651,
      "renee": 1652,
      "pong": 1653,
      "national": 1654,
      "yɛbɛhu": 1655,
      "ɔbɛka": 1656,
      "Fi": 1657,
      "wɔbɛma": 1658,
      "Bu": 1659,
      "sor": 1660,
      "Nko": 1661,
      "nhyehyɛe": 1662,
      "John": 1663,
      "Esi": 1664,
      "edi": 1665,
      "lf": 1666,
      "dane": 1667,
      "spe": 1668,
      "yɛnkɔ": 1669,
      "lic": 1670,
      "ampa": 1671,
      "nneyɛeɛ": 1672,
      "ɛwom": 1673,
      "fɛɛfɛ": 1674,
      "ɔɔ": 1675,
      "wɔbɔɔ": 1676,
      "nd": 1677,
      "\",": 1678,
      "ayi": 1679,
      "animu": 1680,
      "mmeaeɛ": 1681,
      "adɛn": 1682,
      "Nsɛm": 1683,
      "awiei": 1684,
      "dio": 1685,
      "yɛhyɛ": 1686,
      "deda": 1687,
      "woyi": 1688,
      "yo": 1689,
      "ness": 1690,
      "Ɛbi": 1691,
      "serew": 1692,
      "ms": 1693,
      "mmerante": 1694,
      "Asante": 1695,
      "mba": 1696,
      "ons": 1697,
      "Addo": 1698,
      "pon": 1699,
      "Ɛdan": 1700,
      "Presi": 1701,
      "Ban": 1702,
      "mantam": 1703,
      "Nkurɔfo": 1704,
      "gugu": 1705,
      "Cup": 1706,
      "menim": 1707,
      "yaa": 1708,
      "ae": 1709,
      "tire": 1710,
      "nye": 1711,
      "emu": 1712,
      "ɔbɛma": 1713,
      "by": 1714,
      "cre": 1715,
      "video": 1716,
      "animuonyam": 1717,
      "akata": 1718,
      "ɛbaa": 1719,
      "ɔrehwɛ": 1720,
      "kɔsi": 1721,
      "ɔmanpanin": 1722,
      "kyeree": 1723,
      "Ɔkɔ": 1724,
      "ɛsom": 1725,
      "enne": 1726,
      "ague": 1727,
      "ɛsi": 1728,
      "Sports": 1729,
      "ph": 1730,
      "kosi": 1731,
      "ɛyɛɛ": 1732,
      "boro": 1733,
      "MP": 1734,
      "animguaseɛ": 1735,
      "ɛmu": 1736,
      "Wɔka": 1737,
      "wube": 1738,
      "mmɔdenbɔ": 1739,
      "badwa": 1740,
      "Ɔbarima": 1741,
      "ɛso": 1742,
      "cho": 1743,
      "tow": 1744,
      "gyeɛ": 1745,
      "lan": 1746,
      "dis": 1747,
      "kyerɛe": 1748,
      "Adan": 1749,
      "fii": 1750,
      "mic": 1751,
      "Ei": 1752,
      "yɛhwehwɛ": 1753,
      "mmirika": 1754,
      "ɔrekyerɛ": 1755,
      "Ri": 1756,
      "Adɛn": 1757,
      "yɛfoɔ": 1758,
      "rema": 1759,
      "duku": 1760,
      "wɔyɛɛ": 1761,
      "raman": 1762,
      "Regi": 1763,
      "Amanyɔsɛm": 1764,
      "Nnua": 1765,
      "life": 1766,
      "yɛbu": 1767,
      "rɛw": 1768,
      "Chief": 1769,
      "South": 1770,
      "ɛkura": 1771,
      "ɛneɛ": 1772,
      "Mr": 1773,
      "Ser": 1774,
      "Ti": 1775,
      "agodifoɔ": 1776,
      "million": 1777,
      "Kojo": 1778,
      "dwoo": 1779,
      "tsena": 1780,
      "gen": 1781,
      "rankaa": 1782,
      "bility": 1783,
      "cation": 1784,
      "nsah": 1785,
      "nnam": 1786,
      "nkonnwa": 1787,
      "Fo": 1788,
      "Ɔmanpanyin": 1789,
      "vo": 1790,
      "Aberanteɛ": 1791,
      "obu": 1792,
      "nkum": 1793,
      "ati": 1794,
      "anɛt": 1795,
      "Ɛneɛ": 1796,
      "abue": 1797,
      "adane": 1798,
      "ctor": 1799,
      "hamme": 1800,
      "mpan": 1801,
      "sic": 1802,
      "nkura": 1803,
      "vice": 1804,
      "kro": 1805,
      "mfimfi": 1806,
      "amah": 1807,
      "World": 1808,
      "kanyan": 1809,
      "tom": 1810,
      "Ɔyɛ": 1811,
      "ling": 1812,
      "Justice": 1813,
      "abɔfra": 1814,
      "ɛreyɛ": 1815,
      "Fe": 1816,
      "High": 1817,
      "atɛnt": 1818,
      "sm": 1819,
      "tes": 1820,
      "bena": 1821,
      "ɔrekɔ": 1822,
      "ayera": 1823,
      "kɔeɛ": 1824,
      "wɔrekɔ": 1825,
      "acci": 1826,
      "Mfeɛ": 1827,
      "ɔbɛfa": 1828,
      "tho": 1829,
      "bɛhyɛ": 1830,
      "nkae": 1831,
      "hammed": 1832,
      "US": 1833,
      "wɔhwehwɛ": 1834,
      "yɛrehwɛ": 1835,
      "atɔ": 1836,
      "lls": 1837,
      "anuonyam": 1838,
      "mpaboa": 1839,
      "akokɔsradeɛ": 1840,
      "spi": 1841,
      "twaa": 1842,
      "ɔbɛnya": 1843,
      "intanɛt": 1844,
      "Koto": 1845,
      "North": 1846,
      "EO": 1847,
      "bibi": 1848,
      "ɛdɔɔso": 1849,
      "dium": 1850,
      "nhwehwɛmu": 1851,
      "ɔmanpanyin": 1852,
      "President": 1853,
      "ben": 1854,
      "ɛɛ": 1855,
      "dus": 1856,
      "nnamfoɔ": 1857,
      "Binom": 1858,
      "ɛnam": 1859,
      "fufuw": 1860,
      "esisi": 1861,
      "nho": 1862,
      "je": 1863,
      "Kudus": 1864,
      "owuo": 1865,
      "wɔnyɛ": 1866,
      "eneral": 1867,
      "Afrika": 1868,
      "dwiriw": 1869,
      "yɛnim": 1870,
      "is": 1871,
      "nkwadaa": 1872,
      "ɔhyɛɛ": 1873,
      "niwa": 1874,
      "kame": 1875,
      "sereɛ": 1876,
      "ɔbɛkyerɛ": 1877,
      "retwa": 1878,
      "aduro": 1879,
      "afo": 1880,
      "Yɛnni": 1881,
      "afiase": 1882,
      "abote": 1883,
      "mpoano": 1884,
      "nipadua": 1885,
      "Pe": 1886,
      "dge": 1887,
      "afei": 1888,
      "helicopter": 1889,
      "tch": 1890,
      "Ɔbɛ": 1891,
      "nwura": 1892,
      "tew": 1893,
      "Ɔno": 1894,
      "day": 1895,
      "nnum": 1896,
      "baabiara": 1897,
      "abe": 1898,
      "ɔgyina": 1899,
      "Nkwa": 1900,
      "nhyiamu": 1901,
      "nnyi": 1902,
      "nnyinaso": 1903,
      "Yɛhia": 1904,
      "atɛntrenee": 1905,
      "mpanin": 1906,
      "anadwo": 1907,
      "vision": 1908,
      "Ɛne": 1909,
      "muo": 1910,
      "nokorɛ": 1911,
      "rɔfoɔ": 1912,
      "mmeɛnsa": 1913,
      "ɛgyina": 1914,
      "boaboa": 1915,
      "hyeɛ": 1916,
      "ɔmanfo": 1917,
      "Mepa": 1918,
      "golf": 1919,
      "wɔbɛkɔ": 1920,
      "kyerɛkyerɛɛ": 1921,
      "yer": 1922,
      "mpaebɔ": 1923,
      "wene": 1924,
      "age": 1925,
      "ebien": 1926,
      "Mohammed": 1927,
      "inter": 1928,
      "hwiren": 1929,
      "atia": 1930,
      "General": 1931,
      "kum": 1932,
      "mehyɛ": 1933,
      "mpanyin": 1934,
      "ration": 1935,
      "tene": 1936,
      "nin": 1937,
      "Mensah": 1938,
      "num": 1939,
      "mpre": 1940,
      "anidaso": 1941,
      "mpem": 1942,
      "Mon": 1943,
      "daadaa": 1944,
      "kyiri": 1945,
      "yɛnkyerɛ": 1946,
      "nwonwa": 1947,
      "Nya": 1948,
      "rehyɛ": 1949,
      "yɛnyina": 1950,
      "ju": 1951,
      "wɔmfa": 1952,
      "Agye": 1953,
      "sho": 1954,
      "fee": 1955,
      "tuu": 1956,
      "bɛfa": 1957,
      "wuhu": 1958,
      "wɔnam": 1959,
      "nkɔmhyɛ": 1960,
      "fɛfɛɛfɛ": 1961,
      "dɛɛ": 1962,
      "amanneɛbɔ": 1963,
      "Mmarahyɛ": 1964,
      "Aku": 1965,
      "yɛhunu": 1966,
      "rɛn": 1967,
      "tiee": 1968,
      "mienu": 1969,
      "lia": 1970,
      "yɛbisa": 1971,
      "tran": 1972,
      "Con": 1973,
      "box": 1974,
      "qu": 1975,
      "Ɔpa": 1976,
      "bɛkyerɛ": 1977,
      "bɛto": 1978,
      "ds": 1979,
      "stru": 1980,
      "mfiri": 1981,
      "amanmuo": 1982,
      "ding": 1983,
      "tain": 1984,
      "bɔɔlobɔfoɔ": 1985,
      "frankaa": 1986,
      "Mese": 1987,
      "abotare": 1988,
      "pan": 1989,
      "cou": 1990,
      "ast": 1991,
      "asua": 1992,
      "hwene": 1993,
      "Ɔsebo": 1994,
      "yɛan": 1995,
      "reyi": 1996,
      "wɔahyehyɛ": 1997,
      "ataare": 1998,
      "yɛfrɛ": 1999,
      "Wu": 2000,
      "bɛgyina": 2001,
      "Car": 2002,
      "wia": 2003,
      "chi": 2004,
      "Adu": 2005,
      "ws": 2006,
      "000": 2007,
      "gre": 2008,
      "paw": 2009,
      "ɔbɛboa": 2010,
      "bɛkaa": 2011,
      "awo": 2012,
      "faako": 2013,
      "ahwehwɛniwa": 2014,
      "Ɛkame": 2015,
      "rehu": 2016,
      "afidie": 2017,
      "duro": 2018,
      "baayewa": 2019,
      "atumi": 2020,
      "tsi": 2021,
      "Ɔso": 2022,
      "ɔhunuu": 2023,
      "ser": 2024,
      "nkyin": 2025,
      "dadeɛ": 2026,
      "ɛntɛn": 2027,
      "onim": 2028,
      "ji": 2029,
      "funu": 2030,
      "Kwabena": 2031,
      "hyerɛn": 2032,
      "wɔhu": 2033,
      "wogye": 2034,
      "yɛkyerɛ": 2035,
      "wɔdii": 2036,
      "shi": 2037,
      "wotwa": 2038,
      "hyehye": 2039,
      "mpions": 2040,
      "GFA": 2041,
      "ok": 2042,
      "bɛtena": 2043,
      "wadi": 2044,
      "mfonini": 2045,
      "ntie": 2046,
      "tics": 2047,
      "Kuma": 2048,
      "wer": 2049,
      "aniwu": 2050,
      "wanya": 2051,
      "ɛpono": 2052,
      "mmuaeɛ": 2053,
      "awu": 2054,
      "Nsuo": 2055,
      "hyew": 2056,
      "tennis": 2057,
      "monyɛ": 2058,
      "mpɔn": 2059,
      "Kotoko": 2060,
      "mpong": 2061,
      "talent": 2062,
      "wɔaka": 2063,
      "res": 2064,
      "kɔkɔ": 2065,
      "Adwene": 2066,
      "dwe": 2067,
      "gital": 2068,
      "stitu": 2069,
      "ente": 2070,
      "mar": 2071,
      "Ministry": 2072,
      "Ɛna": 2073,
      "Wɔpɛ": 2074,
      "ties": 2075,
      "wɔsɛe": 2076,
      "Gya": 2077,
      "men": 2078,
      "dwadie": 2079,
      "rest": 2080,
      "ɛhyɛn": 2081,
      "mmuo": 2082,
      "llo": 2083,
      "Aborɔfo": 2084,
      "asu": 2085,
      "Boamah": 2086,
      "aniwuo": 2087,
      "wiem": 2088,
      "Oman": 2089,
      "ami": 2090,
      "yɛrekɔ": 2091,
      "syste": 2092,
      "atra": 2093,
      "Nnipakuo": 2094,
      "wɔhyehyɛ": 2095,
      "ls": 2096,
      "ogya": 2097,
      "abien": 2098,
      "kanea": 2099,
      "bɛpɛ": 2100,
      "cle": 2101,
      "Wɔse": 2102,
      "nkunimdie": 2103,
      "om": 2104,
      "nananom": 2105,
      "soci": 2106,
      "dada": 2107,
      "por": 2108,
      "nter": 2109,
      "asiesie": 2110,
      "ɔfiri": 2111,
      "anɔpa": 2112,
      "hokwan": 2113,
      "ric": 2114,
      "yɛbɛgyina": 2115,
      "hyira": 2116,
      "mfaso": 2117,
      "af": 2118,
      "ahyɛn": 2119,
      "elec": 2120,
      "waa": 2121,
      "ɛkanyan": 2122,
      "dɛm": 2123,
      "Ebia": 2124,
      "Ɔbɔɔ": 2125,
      "wor": 2126,
      "wowɔ": 2127,
      "list": 2128,
      "court": 2129,
      "pen": 2130,
      "radio": 2131,
      "fura": 2132,
      "nnyae": 2133,
      "Sukuu": 2134,
      "yɛbɛhwɛ": 2135,
      "woahunu": 2136,
      "ɛtwa": 2137,
      "ace": 2138,
      "abɛka": 2139,
      "inve": 2140,
      "cer": 2141,
      "blic": 2142,
      "Kwe": 2143,
      "wɔbɛboa": 2144,
      "League": 2145,
      "Nkwadaa": 2146,
      "mon": 2147,
      "ens": 2148,
      "ɔnya": 2149,
      "key": 2150,
      "Woka": 2151,
      "Web": 2152,
      "party": 2153,
      "ɔkaeɛ": 2154,
      "For": 2155,
      "Bank": 2156,
      "egu": 2157,
      "mask": 2158,
      "kyerɛkyerɛfoɔ": 2159,
      "GhanaWeb": 2160,
      "twene": 2161,
      "bɛhwɛ": 2162,
      "phone": 2163,
      "NA": 2164,
      "wɔbɛka": 2165,
      "ney": 2166,
      "mate": 2167,
      "bɛhu": 2168,
      "mfonin": 2169,
      "woanya": 2170,
      "didi": 2171,
      "ahe": 2172,
      "club": 2173,
      "lle": 2174,
      "Amo": 2175,
      "Ago": 2176,
      "ction": 2177,
      "ɛhwehwɛ": 2178,
      "ahoma": 2179,
      "lɔ": 2180,
      "abɔdeɛ": 2181,
      "cture": 2182,
      "gyaee": 2183,
      "ɛkame": 2184,
      "wɔfiri": 2185,
      "nkitahodie": 2186,
      "Mmofra": 2187,
      "Able": 2188,
      "ahofa": 2189,
      "wɔrekyerɛ": 2190,
      "pere": 2191,
      "Commission": 2192,
      "apɔ": 2193,
      "tical": 2194,
      "ɛbɛtena": 2195,
      "wei": 2196,
      "II": 2197,
      "kuraa": 2198,
      "music": 2199,
      "cip": 2200,
      "Service": 2201,
      "Ablekuma": 2202,
      "wui": 2203,
      "ffi": 2204,
      "tɛ": 2205,
      "ɔbea": 2206,
      "nnamfonom": 2207,
      "him": 2208,
      "red": 2209,
      "The": 2210,
      "mpren": 2211,
      "mmuni": 2212,
      "dwumadi": 2213,
      "atɛn": 2214,
      "eco": 2215,
      "firii": 2216,
      "aku": 2217,
      "asisi": 2218,
      "ɛnkyerɛ": 2219,
      "enyim": 2220,
      "afahyɛ": 2221,
      "agyapa": 2222,
      "trans": 2223,
      "ach": 2224,
      "ssa": 2225,
      "Health": 2226,
      "ɔpatuo": 2227,
      "kama": 2228,
      "wɔkɔɔ": 2229,
      "ten": 2230,
      "wee": 2231,
      "wubetumi": 2232,
      "ɛdɛn": 2233,
      "bɛsi": 2234,
      "Ɔhyɛ": 2235,
      "prama": 2236,
      "ramani": 2237,
      "Ɔbaako": 2238,
      "digital": 2239,
      "rship": 2240,
      "agyae": 2241,
      "ttee": 2242,
      "adwumayɛbea": 2243,
      "Pre": 2244,
      "versi": 2245,
      "ard": 2246,
      "Ɛnɛ": 2247,
      "Wɔre": 2248,
      "bɔɔlbɔfoɔ": 2249,
      "Ag": 2250,
      "yɛeɛ": 2251,
      "nkogu": 2252,
      "baasa": 2253,
      "woahwɛ": 2254,
      "ina": 2255,
      "ɔboa": 2256,
      "wɔboa": 2257,
      "akokoɔ": 2258,
      "24": 2259,
      "metumi": 2260,
      "wɔma": 2261,
      "top": 2262,
      "wuiɛ": 2263,
      "Omane": 2264,
      "ɛsii": 2265,
      "hel": 2266,
      "akuraa": 2267,
      "akansi": 2268,
      "sane": 2269,
      "ɛhaw": 2270,
      "indu": 2271,
      "atu": 2272,
      "nwɔtwe": 2273,
      "Mete": 2274,
      "offi": 2275,
      "leade": 2276,
      "Ye": 2277,
      "15": 2278,
      "Yɛre": 2279,
      "gn": 2280,
      "ɔsan": 2281,
      "pɛn": 2282,
      "Ntikuma": 2283,
      "val": 2284,
      "nsunsu": 2285,
      "wubehu": 2286,
      "10": 2287,
      "sukuufoɔ": 2288,
      "refa": 2289,
      "abubu": 2290,
      "Dramani": 2291,
      "stan": 2292,
      "Bɔɔ": 2293,
      "Pri": 2294,
      "Fran": 2295,
      "wogyina": 2296,
      "gyei": 2297,
      "abobɔ": 2298,
      "health": 2299,
      "ker": 2300,
      "nkrabea": 2301,
      "ses": 2302,
      "wofa": 2303,
      "wɔan": 2304,
      "repɛ": 2305,
      "nsunsuan": 2306,
      "wɔbɛnya": 2307,
      "Stadium": 2308,
      "Sto": 2309,
      "wɔnya": 2310,
      "tri": 2311,
      "United": 2312,
      "Sar": 2313,
      "afuo": 2314,
      "nyame": 2315,
      "2023": 2316,
      "demo": 2317,
      "Kumasi": 2318,
      "mfimfini": 2319,
      "bɔfra": 2320,
      "sociation": 2321,
      "mfe": 2322,
      "arti": 2323,
      "strate": 2324,
      "Ɛdɛn": 2325,
      "Ofo": 2326,
      "yɛbɛbɔ": 2327,
      "Barima": 2328,
      "nkuranhyɛ": 2329,
      "Ɔpatuo": 2330,
      "anwu": 2331,
      "pem": 2332,
      "Ah": 2333,
      "ɛhwɛ": 2334,
      "ɔrebɔ": 2335,
      "stri": 2336,
      "King": 2337,
      "tebea": 2338,
      "wɔrehyɛ": 2339,
      "Ta": 2340,
      "ɛbɛyɛɛ": 2341,
      "vacci": 2342,
      "CON": 2343,
      "nes": 2344,
      "Court": 2345,
      "od": 2346,
      "Abu": 2347,
      "arts": 2348,
      "pefee": 2349,
      "Ame": 2350,
      "nteɛteɛ": 2351,
      "akasakasa": 2352,
      "Que": 2353,
      "nation": 2354,
      "sin": 2355,
      "beebi": 2356,
      "bia": 2357,
      "ɔbɛba": 2358,
      "Yo": 2359,
      "nifa": 2360,
      "sector": 2361,
      "ntadeɛ": 2362,
      "system": 2363,
      "pl": 2364,
      "Partey": 2365,
      "akwantufoɔ": 2366,
      "nnuane": 2367,
      "nose": 2368,
      "awareɛ": 2369,
      "wɔnim": 2370,
      "ntɔ": 2371,
      "AFCON": 2372,
      "discip": 2373,
      "mede": 2374,
      "meteɛ": 2375,
      "yɛgyae": 2376,
      "Kor": 2377,
      "und": 2378,
      "ɔsom": 2379,
      "Nyame": 2380,
      "mer": 2381,
      "FM": 2382,
      "Afei": 2383,
      "AC": 2384,
      "Ex": 2385,
      "yɛsesa": 2386,
      "Agra": 2387,
      "tru": 2388,
      "Golf": 2389,
      "buo": 2390,
      "agoprama": 2391,
      "ɛmfata": 2392,
      "atwerɛ": 2393,
      "ames": 2394,
      "ananmusini": 2395,
      "Akan": 2396,
      "Owu": 2397,
      "meyɛ": 2398,
      "metee": 2399,
      "Yɛnyɛ": 2400,
      "nkɔmmɔdie": 2401,
      "uni": 2402,
      "yɛwerɛ": 2403,
      "mpanyi": 2404,
      "siness": 2405,
      "mpon": 2406,
      "bro": 2407,
      "wɔnnyɛ": 2408,
      "sup": 2409,
      "lar": 2410,
      "ɛpo": 2411,
      "wea": 2412,
      "cri": 2413,
      "yɛnam": 2414,
      "foro": 2415,
      "nkron": 2416,
      "Ap": 2417,
      "nkan": 2418,
      "annye": 2419,
      "mini": 2420,
      "Agradaa": 2421,
      "kɔe": 2422,
      "Mmranteɛ": 2423,
      "industry": 2424,
      "mehunu": 2425,
      "guu": 2426,
      "lympi": 2427,
      "apagya": 2428,
      "us": 2429,
      "dri": 2430,
      "Association": 2431,
      "yɛtie": 2432,
      "rus": 2433,
      "Cen": 2434,
      "asraafo": 2435,
      "dwane": 2436,
      "nwoma": 2437,
      "agement": 2438,
      "ns": 2439,
      "ring": 2440,
      "anigyesɛm": 2441,
      "tsir": 2442,
      "yɛsakra": 2443,
      "ɔrekasa": 2444,
      "Ɔmanpanin": 2445,
      "nsem": 2446,
      "18": 2447,
      "Kaa": 2448,
      "wɔgye": 2449,
      "Ɔpanyin": 2450,
      "versity": 2451,
      "renyɛ": 2452,
      "Mema": 2453,
      "ɔpanin": 2454,
      "zi": 2455,
      "EOCO": 2456,
      "adwe": 2457,
      "Champions": 2458,
      "net": 2459,
      "abibi": 2460,
      "chool": 2461,
      "rentumi": 2462,
      "atwe": 2463,
      "bas": 2464,
      "Gold": 2465,
      "Ge": 2466,
      "titire": 2467,
      "penee": 2468,
      "discipline": 2469,
      "sesei": 2470,
      "agumadifoɔ": 2471,
      "nnomaa": 2472,
      "borɔ": 2473,
      "hea": 2474,
      "Daa": 2475,
      "ers": 2476,
      "denne": 2477,
      "kata": 2478,
      "Owusu": 2479,
      "wonni": 2480,
      "kente": 2481,
      "Region": 2482,
      "tiaa": 2483,
      "siafo": 2484,
      "election": 2485,
      "akyerɛkyerɛ": 2486,
      "baanu": 2487,
      "ɛbɛka": 2488,
      "it": 2489,
      "ɛsen": 2490,
      "retwɛn": 2491,
      "adɔ": 2492,
      "boxing": 2493,
      "Ch": 2494,
      "Prof": 2495,
      "akura": 2496,
      "muel": 2497,
      "Samuel": 2498,
      "structure": 2499,
      "yini": 2500,
      "cil": 2501,
      "nkurow": 2502,
      "wogyae": 2503,
      "mihunu": 2504,
      "mehuu": 2505,
      "wobɛhu": 2506,
      "don": 2507,
      "Ɛtɔ": 2508,
      "Wote": 2509,
      "retu": 2510,
      "dɔn": 2511,
      "Mmienu": 2512,
      "ley": 2513,
      "African": 2514,
      "wohwɛ": 2515,
      "ɔpɔnkɔ": 2516,
      "bre": 2517,
      "bal": 2518,
      "akyɛ": 2519,
      "akyekyere": 2520,
      "kyekyere": 2521,
      "legal": 2522,
      "daw": 2523,
      "fɛw": 2524,
      "nest": 2525,
      "amann": 2526,
      "king": 2527,
      "abaso": 2528,
      "woahu": 2529,
      "11": 2530,
      "ɔkyerɛɛ": 2531,
      "nance": 2532,
      "amu": 2533,
      "fl": 2534,
      "akwannya": 2535,
      "Mmoa": 2536,
      "liament": 2537,
      "bɛte": 2538,
      "mprempren": 2539,
      "HI": 2540,
      "sem": 2541,
      "kyire": 2542,
      "Ha": 2543,
      "Osei": 2544,
      "ɔyareɛ": 2545,
      "nkwase": 2546,
      "aberanteɛ": 2547,
      "akwadaa": 2548,
      "botae": 2549,
      "ɔfata": 2550,
      "work": 2551,
      "lympic": 2552,
      "ahoto": 2553,
      "wɔbɛhwɛ": 2554,
      "Abena": 2555,
      "benkum": 2556,
      "Tema": 2557,
      "pment": 2558,
      "ary": 2559,
      "goal": 2560,
      "Ca": 2561,
      "nhwiren": 2562,
      "yɛayɛ": 2563,
      "muden": 2564,
      "dam": 2565,
      "awerɛhɔ": 2566,
      "Abranteɛ": 2567,
      "adom": 2568,
      "antumi": 2569,
      "Gal": 2570,
      "tɔɔ": 2571,
      "fɔm": 2572,
      "fan": 2573,
      "Ɛhyɛn": 2574,
      "nkuraa": 2575,
      "rds": 2576,
      "senea": 2577,
      "saw": 2578,
      "nda": 2579,
      "ɛkeka": 2580,
      "nsra": 2581,
      "frama": 2582,
      "Queens": 2583,
      "etwa": 2584,
      "Wɔyɛ": 2585,
      "mfiridwuma": 2586,
      "nsunsuansoɔ": 2587,
      "yɛbɛtena": 2588,
      "twitwa": 2589,
      "public": 2590,
      "tt": 2591,
      "tapho": 2592,
      "Woyɛ": 2593,
      "wobɛyɛ": 2594,
      "nsoro": 2595,
      "fidie": 2596,
      "nsamu": 2597,
      "thi": 2598,
      "Ɔwɔ": 2599,
      "police": 2600,
      "tech": 2601,
      "Ga": 2602,
      "Hearts": 2603,
      "Highlife": 2604,
      "ɔgye": 2605,
      "velo": 2606,
      "kyerɛwfoɔ": 2607,
      "Akwan": 2608,
      "adidi": 2609,
      "fã": 2610,
      "yɛmmɔ": 2611,
      "gyinaeɛ": 2612,
      "buu": 2613,
      "akodi": 2614,
      "aburo": 2615,
      "ennen": 2616,
      "denneennen": 2617,
      "land": 2618,
      "akokoɔduro": 2619,
      "Bro": 2620,
      "glo": 2621,
      "ɔbaako": 2622,
      "ɛtete": 2623,
      "mbe": 2624,
      "nment": 2625,
      "yɛbɛboa": 2626,
      "sono": 2627,
      "bɛgye": 2628,
      "Mpo": 2629,
      "Ɛhe": 2630,
      "nkurase": 2631,
      "wɔnhwɛ": 2632,
      "ves": 2633,
      "llow": 2634,
      "wɔkyeree": 2635,
      "cent": 2636,
      "kunu": 2637,
      "kyinkyin": 2638,
      "basket": 2639,
      "University": 2640,
      "point": 2641,
      "Yɛpɛ": 2642,
      "agyapadeɛ": 2643,
      "nenam": 2644,
      "Alha": 2645,
      "Stone": 2646,
      "Ken": 2647,
      "ahunu": 2648,
      "nsɛn": 2649,
      "Inter": 2650,
      "her": 2651,
      "ries": 2652,
      "cess": 2653,
      "Show": 2654,
      "ɔba": 2655,
      "nkateɛ": 2656,
      "vie": 2657,
      "aborɔfo": 2658,
      "Dire": 2659,
      "nwi": 2660,
      "Ɛnnyɛ": 2661,
      "Tra": 2662,
      "cto": 2663,
      "nnɔ": 2664,
      "comp": 2665,
      "Ɔsoafoɔ": 2666,
      "dɔteɛ": 2667,
      "nsoromma": 2668,
      "soa": 2669,
      "kyekye": 2670,
      "Bar": 2671,
      "Ke": 2672,
      "sur": 2673,
      "Baw": 2674,
      "rgy": 2675,
      "bɛhunu": 2676,
      "waka": 2677,
      "ɛdeɛn": 2678,
      "kɛntɛn": 2679,
      "Ɔmanfoɔ": 2680,
      "30": 2681,
      "lla": 2682,
      "chan": 2683,
      "Bawku": 2684,
      "yansa": 2685,
      "dwumadibea": 2686,
      "uncil": 2687,
      "16": 2688,
      "Kenne": 2689,
      "Berɛ": 2690,
      "ɔkura": 2691,
      "sifo": 2692,
      "gover": 2693,
      "Ɛkɔɔ": 2694,
      "ɛfo": 2695,
      "14": 2696,
      "Ade": 2697,
      "FI": 2698,
      "ine": 2699,
      "ntaban": 2700,
      "Won": 2701,
      "Adwumayɛfoɔ": 2702,
      "fata": 2703,
      "aduan": 2704,
      "kyerɛkyerɛni": 2705,
      "ahabanmono": 2706,
      "adwi": 2707,
      "yɛdwen": 2708,
      "Amanfoɔ": 2709,
      "tter": 2710,
      "woy": 2711,
      "ntetee": 2712,
      "ɛtene": 2713,
      "bwoy": 2714,
      "op": 2715,
      "obe": 2716,
      "Ɔtwe": 2717,
      "Mehwɛ": 2718,
      "Stonebwoy": 2719,
      "',": 2720,
      "wɔadi": 2721,
      "dɛw": 2722,
      "wotie": 2723,
      "Yɛbɛ": 2724,
      "sodeɛ": 2725,
      "mekyerɛ": 2726,
      "whe": 2727,
      "akodeɛ": 2728,
      "ntease": 2729,
      "nkyi": 2730,
      "Nkonnwa": 2731,
      "12": 2732,
      "ul": 2733,
      "tral": 2734,
      "nteɛso": 2735,
      "atifi": 2736,
      "Ibra": 2737,
      "ɛhyɛɛ": 2738,
      "mere": 2739,
      "fini": 2740,
      "ware": 2741,
      "mɛ": 2742,
      "bag": 2743,
      "rown": 2744,
      "lɔɔre": 2745,
      "Club": 2746,
      "ɛboro": 2747,
      "deɛn": 2748,
      "frɛɛ": 2749,
      "Nyi": 2750,
      "asan": 2751,
      "Bri": 2752,
      "wɔatumi": 2753,
      "buae": 2754,
      "business": 2755,
      "beree": 2756,
      "fessi": 2757,
      "Abaayewa": 2758,
      "ghts": 2759,
      "cul": 2760,
      "nsrahwɛ": 2761,
      "uroni": 2762,
      "ff": 2763,
      "naa": 2764,
      "Ɔyɛɛ": 2765,
      "Moro": 2766,
      "ven": 2767,
      "wɔhyɛɛ": 2768,
      "esiane": 2769,
      "pira": 2770,
      "wɔayi": 2771,
      "renyin": 2772,
      "meda": 2773,
      "wobɛhwɛ": 2774,
      "Pra": 2775,
      "rg": 2776,
      "wɔse": 2777,
      "nhoma": 2778,
      "Ben": 2779,
      "Hɔn": 2780,
      "atete": 2781,
      "anwea": 2782,
      "yɛbɛhunu": 2783,
      "Ɔne": 2784,
      "toral": 2785,
      "atare": 2786,
      "Parliament": 2787,
      "Agyapong": 2788,
      "akɛse": 2789,
      "annya": 2790,
      "wotena": 2791,
      "ham": 2792,
      "Abɔfra": 2793,
      "nolo": 2794,
      "kɔm": 2795,
      "rence": 2796,
      "Adeɛ": 2797,
      "Ci": 2798,
      "Kye": 2799,
      "nketewa": 2800,
      "akyirikyiri": 2801,
      "ckey": 2802,
      "book": 2803,
      "noo": 2804,
      "toto": 2805,
      "akatua": 2806,
      "cor": 2807,
      "spital": 2808,
      "green": 2809,
      "WA": 2810,
      "Ɔkwan": 2811,
      "Yoo": 2812,
      "ɔkan": 2813,
      "wɔtɔn": 2814,
      "velopment": 2815,
      "pta": 2816,
      "ducation": 2817,
      "one": 2818,
      "bɔdeɛ": 2819,
      "nomy": 2820,
      "Council": 2821,
      "Ababaawa": 2822,
      "Opo": 2823,
      "Tu": 2824,
      "ɔdan": 2825,
      "gyedie": 2826,
      "commi": 2827,
      "policy": 2828,
      "mmabaawa": 2829,
      "Asraa": 2830,
      "Ibrahim": 2831,
      "Ka": 2832,
      "vate": 2833,
      "yɛfiri": 2834,
      "wɔro": 2835,
      "kiti": 2836,
      "Kumi": 2837,
      "cco": 2838,
      "yellow": 2839,
      "nkwaseasɛm": 2840,
      "Onyame": 2841,
      "ign": 2842,
      "bɛda": 2843,
      "West": 2844,
      "Kennedy": 2845,
      "yɛe": 2846,
      "kwaa": 2847,
      "lex": 2848,
      "chair": 2849,
      "wɔkasa": 2850,
      "gan": 2851,
      "bɔn": 2852,
      "baage": 2853,
      "quali": 2854,
      "Central": 2855,
      "MA": 2856,
      "ining": 2857,
      "pte": 2858,
      "owu": 2859,
      "wɔahyia": 2860,
      "wɔda": 2861,
      "wobɛka": 2862,
      "Char": 2863,
      "Er": 2864,
      "wɔkura": 2865,
      "wosusuw": 2866,
      "pia": 2867,
      "Septe": 2868,
      "bibire": 2869,
      "Morocco": 2870,
      "Atta": 2871,
      "Efi": 2872,
      "nkasa": 2873,
      "Director": 2874,
      "kraa": 2875,
      "amammuo": 2876,
      "Pa": 2877,
      "adwumaden": 2878,
      "September": 2879,
      "hy": 2880,
      "lass": 2881,
      "toom": 2882,
      "bisae": 2883,
      "Opoku": 2884,
      "Ɔte": 2885,
      "board": 2886,
      "mmoden": 2887,
      "wɔahyɛ": 2888,
      "kyini": 2889,
      "Mills": 2890,
      "stic": 2891,
      "Ada": 2892,
      "Ɔmo": 2893,
      "yɛtumi": 2894,
      "Wɔkaa": 2895,
      "mmɔfoɔ": 2896,
      "ndua": 2897,
      "rea": 2898,
      "yɛrekyerɛ": 2899,
      "yɛne": 2900,
      "wɔkyerɛ": 2901,
      "Meka": 2902,
      "mmarahyɛbadwa": 2903,
      "Elec": 2904,
      "woakɔ": 2905,
      "yɛda": 2906,
      "horo": 2907,
      "wate": 2908,
      "Agyeman": 2909,
      "ance": 2910,
      "ntwi": 2911,
      "Ɔpɛpɔn": 2912,
      "vid": 2913,
      "woe": 2914,
      "wosusu": 2915,
      "Wopɛ": 2916,
      "ntaade": 2917,
      "stu": 2918,
      "wrest": 2919,
      "nke": 2920,
      "tary": 2921,
      "fira": 2922,
      "mpanyimfoɔ": 2923,
      "Nyimpa": 2924,
      "part": 2925,
      "ɛbɛsi": 2926,
      "aboterɛ": 2927,
      "ankɔ": 2928,
      "yɛbɛgyae": 2929,
      "nyimpa": 2930,
      "seesei": 2931,
      "At": 2932,
      "sing": 2933,
      "dor": 2934,
      "wɔreba": 2935,
      "kurow": 2936,
      "Olympic": 2937,
      "esii": 2938,
      "yɛrebɔ": 2939,
      "frastructure": 2940,
      "yɛrehu": 2941,
      "flag": 2942,
      "Offi": 2943,
      "nyin": 2944,
      "ngua": 2945,
      "yɛtee": 2946,
      "sea": 2947,
      "apo": 2948,
      "yɛrebu": 2949,
      "taphor": 2950,
      "Euro": 2951,
      "yɛahu": 2952,
      "Sɛdeɛ": 2953,
      "mmarahyɛbadw": 2954,
      "wheel": 2955,
      "17": 2956,
      "wɔnkɔ": 2957,
      "awia": 2958,
      "ɔsɛe": 2959,
      "hanti": 2960,
      "atwi": 2961,
      "ɛnso": 2962,
      "nnuan": 2963,
      "kɔhwehwɛɛ": 2964,
      "ɛreka": 2965,
      "ɔrehyɛ": 2966,
      "Ashanti": 2967,
      "wrestling": 2968,
      "ɔm": 2969,
      "bɛkasa": 2970,
      "koo": 2971,
      "boaa": 2972,
      "Nokwareɛ": 2973,
      "denti": 2974,
      "nkata": 2975,
      "wɔhunu": 2976,
      "billion": 2977,
      "santene": 2978,
      "management": 2979,
      "Mor": 2980,
      "counta": 2981,
      "Chri": 2982,
      "wofiri": 2983,
      "ton": 2984,
      "aduasa": 2985,
      "SA": 2986,
      "enyi": 2987,
      "Aye": 2988,
      "anum": 2989,
      "wonim": 2990,
      "wim": 2991,
      "ahyiam": 2992,
      "yɛrehyɛ": 2993,
      "artiste": 2994,
      "ɔtee": 2995,
      "ɔnam": 2996,
      "ters": 2997,
      "amannɔne": 2998,
      "power": 2999,
      "Achea": 3000,
      "professi": 3001,
      "Acheampong": 3002,
      "roup": 3003,
      "ntama": 3004,
      "FIFA": 3005,
      "kurom": 3006,
      "mmabunu": 3007,
      "Tama": 3008,
      "Kwaku": 3009,
      "Geor": 3010,
      "13": 3011,
      "Dua": 3012,
      "my": 3013,
      "adwenem": 3014,
      "asotwe": 3015,
      "ahwe": 3016,
      "mebisa": 3017,
      "beberee": 3018,
      "boah": 3019,
      "ɔbɛbɔ": 3020,
      "Lo": 3021,
      "akyere": 3022,
      "ɛpɛ": 3023,
      "homa": 3024,
      "ɛbɛdi": 3025,
      "2028": 3026,
      "Pono": 3027,
      "IG": 3028,
      "Tor": 3029,
      "ofiri": 3030,
      "ɛberɛ": 3031,
      "ɛbɛn": 3032,
      "thority": 3033,
      "Ɔkasa": 3034,
      "nnwo": 3035,
      "nkoto": 3036,
      "ference": 3037,
      "gency": 3038,
      "Championship": 3039,
      "pagya": 3040,
      "bɔtɔ": 3041,
      "Ase": 3042,
      "Ná": 3043,
      "ɛnneɛma": 3044,
      "fes": 3045,
      "adua": 3046,
      "Pal": 3047,
      "kɔhwɛ": 3048,
      "mining": 3049,
      "2020": 3050,
      "abɛdi": 3051,
      "nsusu": 3052,
      "kwae": 3053,
      "ɛnkyɛ": 3054,
      "apam": 3055,
      "Ernest": 3056,
      "Ger": 3057,
      "mogya": 3058,
      "nnyigyei": 3059,
      "kɔdii": 3060,
      "law": 3061,
      "Heli": 3062,
      "llar": 3063,
      "urnalist": 3064,
      "ntɔkwa": 3065,
      "ud": 3066,
      "Ɛma": 3067,
      "kɔsii": 3068,
      "lap": 3069,
      "contra": 3070,
      "dwoodwoo": 3071,
      "mwrestling": 3072,
      "menta": 3073,
      "Aboa": 3074,
      "Fri": 3075,
      "Mfo": 3076,
      "ɛnka": 3077,
      "ɛrebɔ": 3078,
      "phe": 3079,
      "dade": 3080,
      "star": 3081,
      "News": 3082,
      "urnament": 3083,
      "Hou": 3084,
      "wɔkaa": 3085,
      "meate": 3086,
      "Asare": 3087,
      "Az": 3088,
      "yɛkeka": 3089,
      "China": 3090,
      "abasobɔdeɛ": 3091,
      "Committee": 3092,
      "show": 3093,
      "saase": 3094,
      "ger": 3095,
      "ɔdze": 3096,
      "yɛdwene": 3097,
      "ɛbɛfiri": 3098,
      "beae": 3099,
      "stage": 3100,
      "Nsu": 3101,
      "reco": 3102,
      "School": 3103,
      "nnoɔma": 3104,
      "fer": 3105,
      "sha": 3106,
      "reboa": 3107,
      "ress": 3108,
      "ahonya": 3109,
      "akonwa": 3110,
      "Oak": 3111,
      "ranimfoɔ": 3112,
      "Asase": 3113,
      "Ofori": 3114,
      "Mehu": 3115,
      "Ki": 3116,
      "fessor": 3117,
      "Premi": 3118,
      "dra": 3119,
      "ntena": 3120,
      "ammu": 3121,
      "ambo": 3122,
      "stiga": 3123,
      "Tennis": 3124,
      "nkitahodi": 3125,
      "ɛhyia": 3126,
      "tohɔ": 3127,
      "political": 3128,
      "ders": 3129,
      "kodoɔ": 3130,
      "ɛtumi": 3131,
      "noa": 3132,
      "Electoral": 3133,
      "metie": 3134,
      "fɛfoɔ": 3135,
      "infrastructure": 3136,
      "adwumayɛfo": 3137,
      "ason": 3138,
      "yɛaka": 3139,
      "training": 3140,
      "wɔabɔ": 3141,
      "set": 3142,
      "Nn": 3143,
      "rewu": 3144,
      "New": 3145,
      "doh": 3146,
      "ath": 3147,
      "Jose": 3148,
      "ɔredi": 3149,
      "wɔbɛtena": 3150,
      "ous": 3151,
      "Ja": 3152,
      "cycle": 3153,
      "Premier": 3154,
      "Mp": 3155,
      "mframa": 3156,
      "rate": 3157,
      "moa": 3158,
      "ɛsan": 3159,
      "nkanea": 3160,
      "wii": 3161,
      "abotɔ": 3162,
      "Gover": 3163,
      "tainment": 3164,
      "Galamsey": 3165,
      "La": 3166,
      "mewɔ": 3167,
      "Wɔwɔ": 3168,
      "akontaa": 3169,
      "atɛkyɛ": 3170,
      "hɛn": 3171,
      "megye": 3172,
      "amanyɔfo": 3173,
      "final": 3174,
      "sul": 3175,
      "akora": 3176,
      "asra": 3177,
      "wɔhia": 3178,
      "mmɔn": 3179,
      "ful": 3180,
      "St": 3181,
      "dence": 3182,
      "virus": 3183,
      "Mmaayewa": 3184,
      "nhom": 3185,
      "support": 3186,
      "Ru": 3187,
      "Ɛkwan": 3188,
      "adwen": 3189,
      "wɔrebu": 3190,
      "atesɛm": 3191,
      "state": 3192,
      "ahen": 3193,
      "ntaadeɛ": 3194,
      "Vice": 3195,
      "qualifi": 3196,
      "asere": 3197,
      "cus": 3198,
      "countability": 3199,
      "asoɔ": 3200,
      "odi": 3201,
      "wn": 3202,
      "deration": 3203,
      "umah": 3204,
      "suu": 3205,
      "doo": 3206,
      "Chair": 3207,
      "SP": 3208,
      "bɛtɔ": 3209,
      "atoto": 3210,
      "25": 3211,
      "Air": 3212,
      "ɔbɛyɛɛ": 3213,
      "bile": 3214,
      "sensɛn": 3215,
      "Akufo": 3216,
      "ɔmfa": 3217,
      "ɔhuu": 3218,
      "nical": 3219,
      "atom": 3220,
      "ogyina": 3221,
      "data": 3222,
      "mmono": 3223,
      "mfidie": 3224,
      "economy": 3225,
      "Nwura": 3226,
      "aye": 3227,
      "wɔkae": 3228,
      "wɔsan": 3229,
      "resa": 3230,
      "2026": 3231,
      "form": 3232,
      "force": 3233,
      "lling": 3234,
      "Hospital": 3235,
      "nii": 3236,
      "moto": 3237,
      "ankoran": 3238,
      "Sec": 3239,
      "afu": 3240,
      "ut": 3241,
      "kuru": 3242,
      "baakoyɛ": 3243,
      "nnwen": 3244,
      "Ɛberɛ": 3245,
      "mefa": 3246,
      "aniso": 3247,
      "enter": 3248,
      "kyiniiɛ": 3249,
      "air": 3250,
      "obetumi": 3251,
      "Nnipadɔm": 3252,
      "asuafoɔ": 3253,
      "Gi": 3254,
      "ɔmaa": 3255,
      "nority": 3256,
      "ababaawa": 3257,
      "dwoa": 3258,
      "apata": 3259,
      "ɛmba": 3260,
      "wɔhunuu": 3261,
      "mahu": 3262,
      "Yɛnkɔ": 3263,
      "House": 3264,
      "bri": 3265,
      "abɛɛfo": 3266,
      "Gu": 3267,
      "ski": 3268,
      "va": 3269,
      "seree": 3270,
      "atri": 3271,
      "pɔw": 3272,
      "woayɛ": 3273,
      "BA": 3274,
      "Bon": 3275,
      "Ɔs": 3276,
      "ɛnteɛ": 3277,
      "ɔyɛeɛ": 3278,
      "anwummere": 3279,
      "Meteɛ": 3280,
      "nyo": 3281,
      "May": 3282,
      "kɔtoo": 3283,
      "mfom": 3284,
      "Boate": 3285,
      "Abofra": 3286,
      "Security": 3287,
      "cti": 3288,
      "metaphor": 3289,
      "sum": 3290,
      "Appi": 3291,
      "Alhaji": 3292,
      "ɛhyehyɛ": 3293,
      "wɔtete": 3294,
      "cracy": 3295,
      "George": 3296,
      "owia": 3297,
      "wɛn": 3298,
      "ɔkye": 3299,
      "Gyata": 3300,
      "change": 3301,
      "yɛfo": 3302,
      "wɔakɔ": 3303,
      "nimfini": 3304,
      "wɔregye": 3305,
      "akyir": 3306,
      "lay": 3307,
      "Bas": 3308,
      "adwa": 3309,
      "energy": 3310,
      "ntene": 3311,
      "toma": 3312,
      "ɛtrɛw": 3313,
      "Ayi": 3314,
      "Du": 3315,
      "ecu": 3316,
      "Ɔkaeɛ": 3317,
      "ɛgu": 3318,
      "wɔbu": 3319,
      "sida": 3320,
      "atew": 3321,
      "Mmarahyɛbadwa": 3322,
      "won": 3323,
      "ahotosoɔ": 3324,
      "Ɛbɛyɛɛ": 3325,
      "nior": 3326,
      "wɔreko": 3327,
      "Professor": 3328,
      "market": 3329,
      "nhyira": 3330,
      "kyerɛeɛ": 3331,
      "wɔbɛkyerɛ": 3332,
      "anisoade": 3333,
      "ed": 3334,
      "Ɛduruu": 3335,
      "yɛnkae": 3336,
      "Minority": 3337,
      "sdom": 3338,
      "mene": 3339,
      "ɛdii": 3340,
      "wobe": 3341,
      "yɛatumi": 3342,
      "Mmom": 3343,
      "ope": 3344,
      "bɛdii": 3345,
      "sah": 3346,
      "Ber": 3347,
      "Mur": 3348,
      "grity": 3349,
      "tala": 3350,
      "akɔkyerɛ": 3351,
      "private": 3352,
      "test": 3353,
      "akyerɛw": 3354,
      "Murtala": 3355,
      "26": 3356,
      "Adwoa": 3357,
      "GT": 3358,
      "Nkɔ": 3359,
      "dodow": 3360,
      "Helicopter": 3361,
      "Awu": 3362,
      "Spe": 3363,
      "teaseɛ": 3364,
      "mmeae": 3365,
      "Abusua": 3366,
      "mode": 3367,
      "lism": 3368,
      "Authority": 3369,
      "atutu": 3370,
      "abodin": 3371,
      "28": 3372,
      "RA": 3373,
      "fans": 3374,
      "yɛnnya": 3375,
      "horow": 3376,
      "wɔrehwehwɛ": 3377,
      "ɔbɛkora": 3378,
      "mfinimfini": 3379,
      "Monhwɛ": 3380,
      "Hyɛn": 3381,
      "dwan": 3382,
      "Medi": 3383,
      "Mepene": 3384,
      "aduanan": 3385,
      "Seme": 3386,
      "nnansa": 3387,
      "International": 3388,
      "Boateng": 3389,
      "Vol": 3390,
      "mihu": 3391,
      "anammɔn": 3392,
      "gyaw": 3393,
      "ananseɛ": 3394,
      "transpa": 3395,
      "tern": 3396,
      "Kweku": 3397,
      "Asraafoɔ": 3398,
      "ankorankoro": 3399,
      "Ste": 3400,
      "Wɔkɔɔ": 3401,
      "Regional": 3402,
      "mbo": 3403,
      "kwaw": 3404,
      "legen": 3405,
      "One": 3406,
      "asaase": 3407,
      "mereka": 3408,
      "Wɔhyɛ": 3409,
      "onto": 3410,
      "wuhwɛ": 3411,
      "kyerɛwtohɔ": 3412,
      "Semenyo": 3413,
      "nsakrae": 3414,
      "ɔnkɔ": 3415,
      "medwene": 3416,
      "gic": 3417,
      "animguase": 3418,
      "nology": 3419,
      "ele": 3420,
      "hoɔ": 3421,
      "agen": 3422,
      "AI": 3423,
      "dzɛmba": 3424,
      "Asie": 3425,
      "fai": 3426,
      "tournament": 3427,
      "Wode": 3428,
      "ater": 3429,
      "ahyɛnsodeɛ": 3430,
      "Tamale": 3431,
      "forma": 3432,
      "uta": 3433,
      "yɛsɛe": 3434,
      "nomic": 3435,
      "nyansafoɔ": 3436,
      "benyin": 3437,
      "que": 3438,
      "wohu": 3439,
      "2022": 3440,
      "ahwɛyiye": 3441,
      "Adansi": 3442,
      "Morning": 3443,
      "menya": 3444,
      "communi": 3445,
      "ams": 3446,
      "wɔato": 3447,
      "integrity": 3448,
      "HIV": 3449,
      "kɔyɛ": 3450,
      "ɛrehwɛ": 3451,
      "Coast": 3452,
      "Mmea": 3453,
      "buee": 3454,
      "mpaninfoɔ": 3455,
      "Otum": 3456,
      "ɔmpɛ": 3457,
      "nie": 3458,
      "wɔnka": 3459,
      "urse": 3460,
      "duu": 3461,
      "abɔne": 3462,
      "dedaw": 3463,
      "bɛsesa": 3464,
      "akyinnye": 3465,
      "Mpanimfoɔ": 3466,
      "abaa": 3467,
      "reto": 3468,
      "bɛhwe": 3469,
      "Kwesi": 3470,
      "wɔmpɛ": 3471,
      "nkɔmmɔbɔ": 3472,
      "awieɛ": 3473,
      "abibifoɔ": 3474,
      "ɔyare": 3475,
      "regu": 3476,
      "med": 3477,
      "mua": 3478,
      "lega": 3479,
      "kenkan": 3480,
      "nnwonto": 3481,
      "kɔhyɛɛ": 3482,
      "wobɛtumi": 3483,
      "21": 3484,
      "Pu": 3485,
      "trɛw": 3486,
      "ɔsɛ": 3487,
      "hing": 3488,
      "200": 3489,
      "ecutive": 3490,
      "Lon": 3491,
      "ɔsoro": 3492,
      "bedi": 3493,
      "amaneɛbɔ": 3494,
      "Abdu": 3495,
      "ɔto": 3496,
      "ɛha": 3497,
      "yɛntumi": 3498,
      "wayɛ": 3499,
      "all": 3500,
      "Daabi": 3501,
      "urs": 3502,
      "ɔrepɛ": 3503,
      "stment": 3504,
      "wiee": 3505,
      "Gre": 3506,
      "use": 3507,
      "ɔtwe": 3508,
      "yɛbɛsɛe": 3509,
      "wɔreboa": 3510,
      "ɔbɛhwɛ": 3511,
      "CEO": 3512,
      "bɛhyia": 3513,
      "Wɔbɔɔ": 3514,
      "Chairman": 3515,
      "Chan": 3516,
      "yɛyi": 3517,
      "Kenya": 3518,
      "Patri": 3519,
      "amfa": 3520,
      "cli": 3521,
      "com": 3522,
      "Football": 3523,
      "East": 3524,
      "asosɔ": 3525,
      "Beaeɛ": 3526,
      "Asom": 3527,
      "Face": 3528,
      "resere": 3529,
      "ɔpɛɛ": 3530,
      "proje": 3531,
      "Chel": 3532,
      "IM": 3533,
      "asaw": 3534,
      "professional": 3535,
      "whi": 3536,
      "Maamefoɔ": 3537,
      "Chelsea": 3538,
      "Law": 3539,
      "buroni": 3540,
      "ntan": 3541,
      "dwinnwen": 3542,
      "culture": 3543,
      "Glo": 3544,
      "Je": 3545,
      "pt": 3546,
      "yɛnhwehwɛ": 3547,
      "nimaa": 3548,
      "honhom": 3549,
      "adwumakuw": 3550,
      "wers": 3551,
      "llen": 3552,
      "abusuafoɔ": 3553,
      "Eng": 3554,
      "Ɔma": 3555,
      "nnyaa": 3556,
      "hini": 3557,
      "ɛrekyerɛ": 3558,
      "uel": 3559,
      "wuma": 3560,
      "ridzi": 3561,
      "sure": 3562,
      "mmɛ": 3563,
      "amumu": 3564,
      "London": 3565,
      "Edw": 3566,
      "mfɛfoɔ": 3567,
      "nifo": 3568,
      "vaccine": 3569,
      "ks": 3570,
      "produ": 3571,
      "phy": 3572,
      "GA": 3573,
      "yɛsua": 3574,
      "Ananseɛ": 3575,
      "ake": 3576,
      "wisdom": 3577,
      "head": 3578,
      "Agyemang": 3579,
      "CE": 3580,
      "free": 3581,
      "Nhwiren": 3582,
      "Ɛnkyɛ": 3583,
      "ɛsisi": 3584,
      "mufoɔ": 3585,
      "hyehyɛɛ": 3586,
      "laptop": 3587,
      "kɔmaa": 3588,
      "akɔyɛ": 3589,
      "An": 3590,
      "ɛtoo": 3591,
      "soso": 3592,
      "wama": 3593,
      "bereɛ": 3594,
      "ɛkyerɛɛ": 3595,
      "pper": 3596,
      "rehyia": 3597,
      "dida": 3598,
      "amena": 3599,
      "dget": 3600,
      "Ra": 3601,
      "safe": 3602,
      "yafunu": 3603,
      "famu": 3604,
      "mmua": 3605,
      "Joy": 3606,
      "Tok": 3607,
      "Mbe": 3608,
      "nansa": 3609,
      "adesoa": 3610,
      "lor": 3611,
      "State": 3612,
      "Pi": 3613,
      "ɛredi": 3614,
      "Charles": 3615,
      "Joseph": 3616,
      "Twi": 3617,
      "ice": 3618,
      "ption": 3619,
      "wɔbɛsi": 3620,
      "Torkor": 3621,
      "ɔhu": 3622,
      "rona": 3623,
      "twere": 3624,
      "Adom": 3625,
      "Games": 3626,
      "edwuma": 3627,
      "kyie": 3628,
      "pha": 3629,
      "ɔpono": 3630,
      "ɛdɔ": 3631,
      "abatow": 3632,
      "dwoeɛ": 3633,
      "leadership": 3634,
      "23": 3635,
      "Nnu": 3636,
      "atuo": 3637,
      "annyina": 3638,
      "yɛnkasa": 3639,
      "atenten": 3640,
      "station": 3641,
      "ahyehyɛdeɛ": 3642,
      "player": 3643,
      "Torkornoo": 3644,
      "FC": 3645,
      "lɔre": 3646,
      "ɔnhwɛ": 3647,
      "menyɛ": 3648,
      "nsow": 3649,
      "Mantam": 3650,
      "Yeboah": 3651,
      "strategy": 3652,
      "hweneɛ": 3653,
      "Tru": 3654,
      "basketball": 3655,
      "Har": 3656,
      "Nnɛ": 3657,
      "ɔtumi": 3658,
      "mance": 3659,
      "bammono": 3660,
      "qui": 3661,
      "nante": 3662,
      "Day": 3663,
      "ɔhwɛɛ": 3664,
      "CA": 3665,
      "Tot": 3666,
      "ɔbra": 3667,
      "wuwu": 3668,
      "Nii": 3669,
      "Tech": 3670,
      "tenham": 3671,
      "IGP": 3672,
      "Tottenham": 3673,
      "vation": 3674,
      "Ɔhyɛɛ": 3675,
      "season": 3676,
      "yɛbɛhwere": 3677,
      "crash": 3678,
      "apan": 3679,
      "Dwa": 3680,
      "bran": 3681,
      "mɛka": 3682,
      "wɔyɛeɛ": 3683,
      "cies": 3684,
      "Sɛn": 3685,
      "gon": 3686,
      "vy": 3687,
      "bow": 3688,
      "ges": 3689,
      "kitakita": 3690,
      "perfor": 3691,
      "ES": 3692,
      "ebaasa": 3693,
      "nhu": 3694,
      "kunkum": 3695,
      "keteke": 3696,
      "Abibi": 3697,
      "ft": 3698,
      "mebɔ": 3699,
      "mina": 3700,
      "Meate": 3701,
      "Willi": 3702,
      "kɔkɔbɔ": 3703,
      "Asi": 3704,
      "Hon": 3705,
      "remfi": 3706,
      "tax": 3707,
      "mmy": 3708,
      "kin": 3709,
      "nnyinasosɛm": 3710,
      "kɔkaa": 3711,
      "koko": 3712,
      "kota": 3713,
      "cedi": 3714,
      "Mali": 3715,
      "cks": 3716,
      "ɔtare": 3717,
      "match": 3718,
      "yers": 3719,
      "medi": 3720,
      "ngo": 3721,
      "Afriyie": 3722,
      "view": 3723,
      "Dani": 3724,
      "mmɔne": 3725,
      "Ivo": 3726,
      "wɔyi": 3727,
      "woyɛɛ": 3728,
      "Micha": 3729,
      "Star": 3730,
      "abranteɛ": 3731,
      "Michael": 3732,
      "50": 3733,
      "bɛsan": 3734,
      "ury": 3735,
      "Wɔkae": 3736,
      "199": 3737,
      "plat": 3738,
      "entertainment": 3739,
      "atua": 3740,
      "pitch": 3741,
      "Mmabaawa": 3742,
      "ee": 3743,
      "rent": 3744,
      "polisifo": 3745,
      "puty": 3746,
      "ɔkannifoɔ": 3747,
      "legend": 3748,
      "Otumfuo": 3749,
      "Ogya": 3750,
      "rehwehwɛ": 3751,
      "ɛbɛbɔ": 3752,
      "rency": 3753,
      "ricket": 3754,
      "Sal": 3755,
      "hohoro": 3756,
      "aduo": 3757,
      "Baf": 3758,
      "mpeti": 3759,
      "Ot": 3760,
      "woaka": 3761,
      "dɔfo": 3762,
      "Nkrɔfoɔ": 3763,
      "perso": 3764,
      "ahabammono": 3765,
      "dawuro": 3766,
      "id": 3767,
      "tual": 3768,
      "light": 3769,
      "peri": 3770,
      "Bɔɔlo": 3771,
      "Afi": 3772,
      "Pau": 3773,
      "Ɔhunuu": 3774,
      "met": 3775,
      "nnwontofoɔ": 3776,
      "development": 3777,
      "kɔka": 3778,
      "wɔbɛhyɛ": 3779,
      "Akwadaa": 3780,
      "investiga": 3781,
      "100": 3782,
      "adwiri": 3783,
      "ja": 3784,
      "bokiti": 3785,
      "sts": 3786,
      "pegya": 3787,
      "demokra": 3788,
      "aburokyire": 3789,
      "ɔkyena": 3790,
      ").": 3791,
      "fla": 3792,
      "flo": 3793,
      "Daniel": 3794,
      "okita": 3795,
      "noho": 3796,
      "moah": 3797,
      "Wɔte": 3798,
      "Wɔahyehyɛ": 3799,
      "nnuaba": 3800,
      "standa": 3801,
      "Appiah": 3802,
      "ndzɛmba": 3803,
      "kɔtɔ": 3804,
      "hockey": 3805,
      "wobɛte": 3806,
      "nkyerɛkyerɛmu": 3807,
      "Facebook": 3808,
      "ronavirus": 3809,
      "nkwan": 3810,
      "wobɔ": 3811,
      "ananmusifoɔ": 3812,
      "Wontumi": 3813,
      "Asiedu": 3814,
      "31": 3815,
      "idoo": 3816,
      "yiedie": 3817,
      "politics": 3818,
      "ɛsono": 3819,
      "presi": 3820,
      "van": 3821,
      "medwen": 3822,
      "field": 3823,
      "Ayare": 3824,
      "Lar": 3825,
      "enyo": 3826,
      "dum": 3827,
      "kers": 3828,
      "Ɔtee": 3829,
      "wɔtumi": 3830,
      "hui": 3831,
      "nyane": 3832,
      "2019": 3833,
      "mehwɛɛ": 3834,
      "korɔn": 3835,
      "Wunim": 3836,
      "official": 3837,
      "Ɔmampanyin": 3838,
      "Bra": 3839,
      "tte": 3840,
      "vol": 3841,
      "resɛe": 3842,
      "sed": 3843,
      "fashi": 3844,
      "league": 3845,
      "Kwaeɛ": 3846,
      "ɔgyinaa": 3847,
      "fom": 3848,
      "ɔrehwehwɛ": 3849,
      "Box": 3850,
      "asɛdeɛ": 3851,
      "quah": 3852,
      "asie": 3853,
      "abaayewa": 3854,
      "rebisa": 3855,
      "time": 3856,
      "anomaa": 3857,
      "Armwrestling": 3858,
      "onni": 3859,
      "bɛbu": 3860,
      "Muni": 3861,
      "Kɔ": 3862,
      "TA": 3863,
      "ehyia": 3864,
      "hie": 3865,
      "fua": 3866,
      "sty": 3867,
      "dɛɛdɛɛ": 3868,
      "Ato": 3869,
      "NI": 3870,
      "Ɛnam": 3871,
      "wɔrehu": 3872,
      "hemaa": 3873,
      "yɛrentumi": 3874,
      "wobɛhunu": 3875,
      "Richa": 3876,
      "Tik": 3877,
      "Sarko": 3878,
      "Spi": 3879,
      "gyafoɔ": 3880,
      "adanse": 3881,
      "Akandoh": 3882,
      "),": 3883,
      "kã": 3884,
      "pool": 3885,
      "forms": 3886,
      "illegal": 3887,
      "wiemhyɛn": 3888,
      "Paul": 3889,
      "Gra": 3890,
      "brown": 3891,
      "kyerɛfoɔ": 3892,
      "bar": 3893,
      "banbɔ": 3894,
      "ɔbɛtena": 3895,
      "mfimfin": 3896,
      "Table": 3897,
      "Sarkodie": 3898,
      "Hu": 3899,
      "Nke": 3900,
      "yɛadi": 3901,
      "gyinabea": 3902,
      "bua": 3903,
      "contract": 3904,
      "wɔatwerɛ": 3905,
      "sour": 3906,
      "wobɛkɔ": 3907,
      "tation": 3908,
      "yɛbɛkura": 3909,
      "amanehunu": 3910,
      "gyidie": 3911,
      "short": 3912,
      "urnalists": 3913,
      "Awa": 3914,
      "ɔnyaa": 3915,
      "aneɛ": 3916,
      "mah": 3917,
      "kyea": 3918,
      "leum": 3919,
      "ɛkasa": 3920,
      "tele": 3921,
      "mmaranimfoɔ": 3922,
      "ntem": 3923,
      "Obu": 3924,
      "Yaa": 3925,
      "ɔgyaee": 3926,
      "Media": 3927,
      "toa": 3928,
      "Dece": 3929,
      "29": 3930,
      "Aya": 3931,
      "Lambo": 3932,
      "ɛtra": 3933,
      "kɔhwɛɛ": 3934,
      "Deputy": 3935,
      "Akonnwa": 3936,
      "beare": 3937,
      "Wosusuw": 3938,
      "Abdul": 3939,
      "December": 3940,
      "Nkor": 3941,
      "wɔkyerɛɛ": 3942,
      "motor": 3943,
      "\"?": 3944,
      "Ahe": 3945,
      "Thoma": 3946,
      "ɛse": 3947,
      "wɔtee": 3948,
      "Nkran": 3949,
      "rghini": 3950,
      "Lamborghini": 3951,
      "Thomas": 3952,
      "wɔreyi": 3953,
      "Emman": 3954,
      "Nnansa": 3955,
      "Ɔpanin": 3956,
      "solar": 3957,
      "ying": 3958,
      "report": 3959,
      "ɛrebu": 3960,
      "Nkurɔfokuo": 3961,
      "ahenni": 3962,
      "Amoah": 3963,
      "mfomsoɔ": 3964,
      "Ɛdeɛn": 3965,
      "wotua": 3966,
      "loo": 3967,
      "mpanyinfoɔ": 3968,
      "Nka": 3969,
      "laa": 3970,
      "wɔba": 3971,
      "Frank": 3972,
      "Akwantu": 3973,
      "Ana": 3974,
      "Aso": 3975,
      "gri": 3976,
      "gate": 3977,
      "ɔpe": 3978,
      "ɔhyiaa": 3979,
      "yɛdɔ": 3980,
      "Mmayewa": 3981,
      "Communi": 3982,
      "committee": 3983,
      "atie": 3984,
      "mɔden": 3985,
      "ple": 3986,
      "colo": 3987,
      "coac": 3988,
      "meneda": 3989,
      "ntu": 3990,
      "yɛnkura": 3991,
      "woreyɛ": 3992,
      "ɛnɛ": 3993,
      "yiyedi": 3994,
      "fashion": 3995,
      "Dar": 3996,
      "ayie": 3997,
      "Ɛhia": 3998,
      "ɔs": 3999,
      "ahobrɛ": 4000,
      "Wotee": 4001,
      "Secre": 4002,
      "Nkorɔfoɔ": 4003,
      "Dor": 4004,
      "Nteaseɛ": 4005,
      "vent": 4006,
      "nancial": 4007,
      "sam": 4008,
      "Nkr": 4009,
      "adamfo": 4010,
      "dware": 4011,
      "troleum": 4012,
      "Federation": 4013,
      "amumuyɛ": 4014,
      "Ɛnna": 4015,
      "wɔbɛba": 4016,
      "ntar": 4017,
      "akokodurufoɔ": 4018,
      "apɔmuden": 4019,
      "ahye": 4020,
      "ɛsoro": 4021,
      "dit": 4022,
      "suaa": 4023,
      "abansoro": 4024,
      "Emmanuel": 4025,
      "anwo": 4026,
      "animfo": 4027,
      "ɔbɛtu": 4028,
      "mmusua": 4029,
      "eyinom": 4030,
      "performance": 4031,
      "Afenyo": 4032,
      "afadeɛ": 4033,
      "Markin": 4034,
      "abotɔyam": 4035,
      "ager": 4036,
      "amanyɔni": 4037,
      "adeyɛ": 4038,
      "Adj": 4039,
      "ris": 4040,
      "2021": 4041,
      "Akro": 4042,
      "wɔtu": 4043,
      "future": 4044,
      "constitu": 4045,
      "ahonyadeɛ": 4046,
      "sear": 4047,
      "kɔyɛɛ": 4048,
      "Woate": 4049,
      "adwempa": 4050,
      "Wɔreka": 4051,
      "ntom": 4052,
      "USA": 4053,
      "nseɛ": 4054,
      "ona": 4055,
      "yɛhunuu": 4056,
      "wɔtoo": 4057,
      "ɛnkɔ": 4058,
      "pata": 4059,
      "tifi": 4060,
      "nyim": 4061,
      "nkurofoɔ": 4062,
      "ehia": 4063,
      "Ɔpɔnkɔ": 4064,
      "year": 4065,
      "soronko": 4066,
      "gram": 4067,
      "enyiwa": 4068,
      "Koom": 4069,
      "asakra": 4070,
      "stadium": 4071,
      "yɛahwɛ": 4072,
      "City": 4073,
      "Aboagye": 4074,
      "back": 4075,
      "taku": 4076,
      "bel": 4077,
      "akokwaw": 4078,
      "entre": 4079,
      "dential": 4080,
      "Ali": 4081,
      "Es": 4082,
      "ps": 4083,
      "wɔtena": 4084,
      "ats": 4085,
      "competi": 4086,
      "cience": 4087,
      "staina": 4088,
      "Nipakuo": 4089,
      "Edward": 4090,
      "Nkrumah": 4091,
      "Sport": 4092,
      "yɛmpɛ": 4093,
      "kɔfa": 4094,
      "wɔrepɛ": 4095,
      "wɔahu": 4096,
      "22": 4097,
      "plan": 4098,
      "rebɛyɛ": 4099,
      "kakraa": 4100,
      "aniteɛ": 4101,
      "Bɔɔl": 4102,
      "Koomson": 4103,
      "Antwi": 4104,
      "She": 4105,
      "plo": 4106,
      "bɛhyɛɛ": 4107,
      "rokɔ": 4108,
      "ɔreba": 4109,
      "investment": 4110,
      "El": 4111,
      "Sam": 4112,
      "black": 4113,
      "edzi": 4114,
      "yɛdeɛ": 4115,
      "wɔkita": 4116,
      "ɔbɛhyɛ": 4117,
      "June": 4118,
      "strategic": 4119,
      "Volta": 4120,
      "wɔm": 4121,
      "wɔatwa": 4122,
      "hol": 4123,
      "worehwɛ": 4124,
      "miiɛ": 4125,
      "akɔhwehwɛ": 4126,
      "coach": 4127,
      "urism": 4128,
      "flagbeare": 4129,
      "Deɛ": 4130,
      "Janu": 4131,
      "ners": 4132,
      "yadeɛ": 4133,
      "amammu": 4134,
      "ahodwiriw": 4135,
      "ɔbɛgyina": 4136,
      "kyɛnse": 4137,
      "abotereɛ": 4138,
      "January": 4139,
      "game": 4140,
      "sc": 4141,
      "ys": 4142,
      "za": 4143,
      "secu": 4144,
      "ntentan": 4145,
      "wɔbɛgyina": 4146,
      "dɔkota": 4147,
      "sukuupɔn": 4148,
      "Aduane": 4149,
      "Lil": 4150,
      "OSP": 4151,
      "honam": 4152,
      "wabɔ": 4153,
      "akoto": 4154,
      "Legon": 4155,
      "Egy": 4156,
      "Fa": 4157,
      "ɔdwen": 4158,
      "dina": 4159,
      "asianeɛ": 4160,
      "strict": 4161,
      "Ayew": 4162,
      "Naa": 4163,
      "ɛduru": 4164,
      "regi": 4165,
      "record": 4166,
      "Richard": 4167,
      "education": 4168,
      "Ɛba": 4169,
      "bɔhyɛ": 4170,
      "wum": 4171,
      "art": 4172,
      "accountability": 4173,
      "percent": 4174,
      "kuruwa": 4175,
      "Gyan": 4176,
      "Ɔdii": 4177,
      "sil": 4178,
      "ania": 4179,
      "tit": 4180,
      "body": 4181,
      "tors": 4182,
      "ensa": 4183,
      "wuntumi": 4184,
      "wɔrekasa": 4185,
      "economic": 4186,
      "nsen": 4187,
      "ɛhyerɛn": 4188,
      "wɔama": 4189,
      "kube": 4190,
      "ahan": 4191,
      "py": 4192,
      "anwanwa": 4193,
      "news": 4194,
      "fore": 4195,
      "agoro": 4196,
      "ntra": 4197,
      "Basket": 4198,
      "Egypt": 4199,
      "woreka": 4200,
      "wɔyɛe": 4201,
      "apue": 4202,
      "cars": 4203,
      "spel": 4204,
      "Group": 4205,
      "ɛman": 4206,
      "ckson": 4207,
      "dro": 4208,
      "fence": 4209,
      "ant": 4210,
      "ɔregye": 4211,
      "dza": 4212,
      "global": 4213,
      "government": 4214,
      "Fou": 4215,
      "et": 4216,
      "tenti": 4217,
      "wokɔ": 4218,
      "denden": 4219,
      "Woaka": 4220,
      "Polisifoɔ": 4221,
      "Donko": 4222,
      "safety": 4223,
      "ɔben": 4224,
      "bɛyera": 4225,
      "Mekae": 4226,
      "roo": 4227,
      "yɛbɛyera": 4228,
      "sraani": 4229,
      "akwankyerɛfoɔ": 4230,
      "ahum": 4231,
      "Nkorɔfo": 4232,
      "athle": 4233,
      "search": 4234,
      "cur": 4235,
      "ɔtoo": 4236,
      "ɔtɔn": 4237,
      "Board": 4238,
      "fen": 4239,
      "nce": 4240,
      "nor": 4241,
      "bɛfiri": 4242,
      "dwadi": 4243,
      "torney": 4244,
      "Dankwa": 4245,
      "Akua": 4246,
      "amammere": 4247,
      "stre": 4248,
      "viron": 4249,
      "justice": 4250,
      "Ahyɛn": 4251,
      "cts": 4252,
      "tel": 4253,
      "suahu": 4254,
      "Yɛmfa": 4255,
      "Sammy": 4256,
      "spect": 4257,
      "surance": 4258,
      "ganda": 4259,
      "bɛkae": 4260,
      "minu": 4261,
      "nkongua": 4262,
      "round": 4263,
      "fuel": 4264,
      "Bea": 4265,
      "Baidoo": 4266,
      "ahobrɛaseɛ": 4267,
      "Hawa": 4268,
      "ative": 4269,
      "gbo": 4270,
      "sraa": 4271,
      "mahunu": 4272,
      "sis": 4273,
      "Memeneda": 4274,
      "nnuru": 4275,
      "ɔyɛe": 4276,
      "amanneɛbɔfoɔ": 4277,
      "Mmarahyɛbadw": 4278,
      "formation": 4279,
      "Obuasi": 4280,
      "Kanea": 4281,
      "Ɛpono": 4282,
      "difo": 4283,
      "sive": 4284,
      "nnadeɛ": 4285,
      "kit": 4286,
      "ruption": 4287,
      "Attorney": 4288,
      "Asomdwoeɛ": 4289,
      "Nno": 4290,
      "atiri": 4291,
      "hen": 4292,
      "twie": 4293,
      "Ɛsono": 4294,
      "kɔpta": 4295,
      "atene": 4296,
      "Eyinom": 4297,
      "Akosua": 4298,
      "27": 4299,
      "mpaa": 4300,
      "Ɔreka": 4301,
      "refrɛ": 4302,
      "four": 4303,
      "mid": 4304,
      "fufu": 4305,
      "asɛn": 4306,
      "em": 4307,
      "ɛkorɔn": 4308,
      "mako": 4309,
      "hɔhoɔ": 4310,
      "Wɔreyɛ": 4311,
      "amammui": 4312,
      "James": 4313,
      "ments": 4314,
      "candida": 4315,
      "Ɔpɛnimaa": 4316,
      "lon": 4317,
      "ɛto": 4318,
      "rew": 4319,
      "Sarpong": 4320,
      "ctive": 4321,
      "gene": 4322,
      "asene": 4323,
      "post": 4324,
      "aboro": 4325,
      "creative": 4326,
      "CAF": 4327,
      "nnebɔne": 4328,
      "nkokora": 4329,
      "wɔbɛte": 4330,
      "Boakye": 4331,
      "Rev": 4332,
      "Asamoah": 4333,
      "mpany": 4334,
      "awotwe": 4335,
      "Government": 4336,
      "legacy": 4337,
      "SS": 4338,
      "are": 4339,
      "afie": 4340,
      "she": 4341,
      "bagua": 4342,
      "nkorɔfoɔ": 4343,
      "accident": 4344,
      "awofoɔ": 4345,
      "Aho": 4346,
      "Lɔ": 4347,
      "meteeɛ": 4348,
      "bail": 4349,
      "yal": 4350,
      "Nketia": 4351,
      "Win": 4352,
      "pam": 4353,
      "rial": 4354,
      "kasae": 4355,
      "agor": 4356,
      "David": 4357,
      "Abatoɔ": 4358,
      "wheelchair": 4359,
      "akontaabu": 4360,
      "CC": 4361,
      "Tan": 4362,
      "cate": 4363,
      "nkoa": 4364,
      "wɔbɛsɛe": 4365,
      "vel": 4366,
      "Act": 4367,
      "Aha": 4368,
      "mema": 4369,
      "yɛrekyerɛw": 4370,
      "cations": 4371,
      "ahofadi": 4372,
      "rtey": 4373,
      "yɛsan": 4374,
      "senal": 4375,
      "mebɛka": 4376,
      "dinn": 4377,
      "bol": 4378,
      "high": 4379,
      "yɛbɛkyerɛ": 4380,
      "athe": 4381,
      "Nkanea": 4382,
      "Arsenal": 4383,
      "kamakama": 4384,
      "yɛmma": 4385,
      "wɔrebɛ": 4386,
      "TE": 4387,
      "ahi": 4388,
      "wɔtsena": 4389,
      "bɛtra": 4390,
      "bɛboro": 4391,
      "tural": 4392,
      "ɔyɛkyerɛ": 4393,
      "asɛyɛdeɛ": 4394,
      "challen": 4395,
      "Executive": 4396,
      "semb": 4397,
      "Panyin": 4398,
      "abɛboa": 4399,
      "ford": 4400,
      "office": 4401,
      "Pratt": 4402,
      "Founda": 4403,
      "Donkor": 4404,
      "Nna": 4405,
      "ntwene": 4406,
      "campa": 4407,
      "polisini": 4408,
      "Global": 4409,
      "nohoa": 4410,
      "Ani": 4411,
      "retwe": 4412,
      "nity": 4413,
      "kɔbɔ": 4414,
      "human": 4415,
      "Nokwarem": 4416,
      "retwam": 4417,
      "Akansie": 4418,
      "Bry": 4419,
      "Para": 4420,
      "ɔtena": 4421,
      "yɛni": 4422,
      "sub": 4423,
      "Ghan": 4424,
      "range": 4425,
      "fuor": 4426,
      "Ɔkɔtɔ": 4427,
      "afanan": 4428,
      "nkoguo": 4429,
      "blo": 4430,
      "ɔkyerɛkyerɛfoɔ": 4431,
      "yɛkyerɛkyerɛ": 4432,
      "wɔsi": 4433,
      "tac": 4434,
      "tae": 4435,
      "benya": 4436,
      "ahow": 4437,
      "cian": 4438,
      "Afro": 4439,
      "ahweneɛ": 4440,
      "kom": 4441,
      "hare": 4442,
      "wɔbɛhwehwɛ": 4443,
      "gold": 4444,
      "wobɛdi": 4445,
      "ECG": 4446,
      "mpontuo": 4447,
      "ɔkita": 4448,
      "focus": 4449,
      "boase": 4450,
      "nkotodwe": 4451,
      "project": 4452,
      "Zi": 4453,
      "ahene": 4454,
      "Ɛbinom": 4455,
      "Ɛfata": 4456,
      "hodie": 4457,
      "international": 4458,
      "Foundation": 4459,
      "Mpa": 4460,
      "Os": 4461,
      "mbra": 4462,
      "ship": 4463,
      "manpanin": 4464,
      "ɛnnyina": 4465,
      "wahu": 4466,
      "dollar": 4467,
      "Ghanafo": 4468,
      "akɔfa": 4469,
      "phet": 4470,
      "transparency": 4471,
      "campaign": 4472,
      "yɛkora": 4473,
      "city": 4474,
      "bilee": 4475,
      "nsan": 4476,
      "Sudan": 4477,
      "Abla": 4478,
      "democracy": 4479,
      "Kni": 4480,
      "Ɔbea": 4481,
      "ɛduruu": 4482,
      "antie": 4483,
      "abam": 4484,
      "legate": 4485,
      "nsie": 4486,
      "fir": 4487,
      "obiaa": 4488,
      "akra": 4489,
      "gue": 4490,
      "Jubilee": 4491,
      "cut": 4492,
      "Leade": 4493,
      "service": 4494,
      "mental": 4495,
      "yɛbom": 4496,
      "Nkuro": 4497,
      "process": 4498,
      "kyɛnsee": 4499,
      "case": 4500,
      "rations": 4501,
      "boo": 4502,
      "ency": 4503,
      "nyae": 4504,
      "bɔɔlobɔni": 4505,
      "sources": 4506,
      "gs": 4507,
      "ɛsa": 4508,
      "yɛsɛ": 4509,
      "nomi": 4510,
      "kwasɛm": 4511,
      "gyinapɛn": 4512,
      "polling": 4513,
      "budget": 4514,
      "framba": 4515,
      "susuu": 4516,
      "care": 4517,
      "wuraba": 4518,
      "akuafoɔ": 4519,
      "helmet": 4520,
      "Boxing": 4521,
      "Yɛkɔ": 4522,
      "disa": 4523,
      "nny": 4524,
      "wɔbɛsan": 4525,
      "nkyekyɛ": 4526,
      "conference": 4527,
      "redidi": 4528,
      "mmarahyɛbadwani": 4529,
      "atwitwa": 4530,
      "Mfonin": 4531,
      "platform": 4532,
      "Ayaresa": 4533,
      "boasetɔ": 4534,
      "Apolisifoɔ": 4535,
      "Fu": 4536,
      "mɛyɛ": 4537,
      "rɔba": 4538,
      "mmɔbɔ": 4539,
      "abɔfoɔ": 4540,
      "Solo": 4541,
      "spiri": 4542,
      "weight": 4543,
      "Amerika": 4544,
      "Abibifoɔ": 4545,
      "MO": 4546,
      "ɛbɔɔ": 4547,
      "defoɔ": 4548,
      "bɛtoo": 4549,
      "kɔma": 4550,
      "mowo": 4551,
      "ɔbɛkasa": 4552,
      "TV3": 4553,
      "kronkron": 4554,
      "Ofosu": 4555,
      "dawuru": 4556,
      "UK": 4557,
      "dru": 4558,
      "ndwom": 4559,
      "pli": 4560,
      "Wɔyɛɛ": 4561,
      "ntsen": 4562,
      "ntary": 4563,
      "jet": 4564,
      "German": 4565,
      "Mbo": 4566,
      "Spa": 4567,
      "anni": 4568,
      "tus": 4569,
      "kɛtɛ": 4570,
      "abɛsɛe": 4571,
      "out": 4572,
      "Solomon": 4573,
      "gence": 4574,
      "hard": 4575,
      "atemmuo": 4576,
      "rts": 4577,
      "ahyɛdeɛ": 4578,
      "very": 4579,
      "shop": 4580,
      "technology": 4581,
      "Frimpong": 4582,
      "EP": 4583,
      "Education": 4584,
      "una": 4585,
      "ɔkuta": 4586,
      "bɛduruu": 4587,
      "room": 4588,
      "ɔbɛgye": 4589,
      "Nokorɛ": 4590,
      "ɔsoafoɔ": 4591,
      "champions": 4592,
      "Ridge": 4593,
      "Bright": 4594,
      "Adjei": 4595,
      "osi": 4596,
      "rekyie": 4597,
      "bɛtie": 4598,
      "nnuro": 4599,
      "lance": 4600,
      "Cars": 4601,
      "kitsa": 4602,
      "blu": 4603,
      "resul": 4604,
      "bɔfo": 4605,
      "akotene": 4606,
      "gyata": 4607,
      "kurakura": 4608,
      "aware": 4609,
      "Fire": 4610,
      "anwummerɛ": 4611,
      "twam": 4612,
      "flagbearer": 4613,
      "60": 4614,
      "kopta": 4615,
      "akyinkyin": 4616,
      "ash": 4617,
      "abɛn": 4618,
      "wɔfata": 4619,
      "ilding": 4620,
      "value": 4621,
      "mergency": 4622,
      "Fund": 4623,
      "Nu": 4624,
      "ehu": 4625,
      "ɔtan": 4626,
      "yɛtena": 4627,
      "passion": 4628,
      "nsaano": 4629,
      "akyekye": 4630,
      "Homowo": 4631,
      "mmani": 4632,
      "sco": 4633,
      "ɔkyerɛkyerɛ": 4634,
      "nel": 4635,
      "Merehwɛ": 4636,
      "yɛbɛte": 4637,
      "butu": 4638,
      "fuom": 4639,
      "Davi": 4640,
      "ther": 4641,
      "mpion": 4642,
      "helikɔpta": 4643,
      "ɔtu": 4644,
      "wɔmm": 4645,
      "deen": 4646,
      "kɔpɛɛ": 4647,
      "anibereɛ": 4648,
      "ahonim": 4649,
      "ɔbɛhunu": 4650,
      "Journalists": 4651,
      "Demo": 4652,
      "chester": 4653,
      "stration": 4654,
      "refi": 4655,
      "bɛkura": 4656,
      "wɔresi": 4657,
      "penal": 4658,
      "vigi": 4659,
      "ataareɛ": 4660,
      "nnyigyeɛ": 4661,
      "qualifiers": 4662,
      "ccess": 4663,
      "ɔteɛ": 4664,
      "yɛnnhwɛ": 4665,
      "wosɛe": 4666,
      "world": 4667,
      "wugye": 4668,
      "wɔbɛhu": 4669,
      "cipa": 4670,
      "anisoadehu": 4671,
      "Japan": 4672,
      "efie": 4673,
      "oil": 4674,
      "trɔ": 4675,
      "sim": 4676,
      "kyerɛwee": 4677,
      "fair": 4678,
      "dadze": 4679,
      "abrɛ": 4680,
      "governance": 4681,
      "Europa": 4682,
      "Afia": 4683,
      "TikTok": 4684,
      "LA": 4685,
      "oman": 4686,
      "nem": 4687,
      "bɛtu": 4688,
      "tar": 4689,
      "ahotɔ": 4690,
      "mmuden": 4691,
      "verpool": 4692,
      "Liverpool": 4693,
      "Knights": 4694,
      "bru": 4695,
      "enim": 4696,
      "wɔtie": 4697,
      "woara": 4698,
      "financial": 4699,
      "less": 4700,
      "mpanimfo": 4701,
      "stake": 4702,
      "IMF": 4703,
      "nini": 4704,
      "roɔ": 4705,
      "his": 4706,
      "Yɛnnyɛ": 4707,
      "ordina": 4708,
      "thon": 4709,
      "Ameri": 4710,
      "Kan": 4711,
      "Ghanai": 4712,
      "Poku": 4713,
      "Cong": 4714,
      "Cap": 4715,
      "Nsa": 4716,
      "nkɛntɛn": 4717,
      "Wɔaka": 4718,
      "posi": 4719,
      "hyiren": 4720,
      "wɔafa": 4721,
      "Yɛhwɛ": 4722,
      "yɛanhwɛ": 4723,
      "Menim": 4724,
      "asɔfoɔ": 4725,
      "awerɛhyɛ": 4726,
      "Mmere": 4727,
      "quality": 4728,
      "apɔmmuden": 4729,
      "Ado": 4730,
      "Lu": 4731,
      "Ɔhuu": 4732,
      "ɔgyaa": 4733,
      "Coach": 4734,
      "States": 4735,
      "District": 4736,
      "chere": 4737,
      "abotere": 4738,
      "ahofadie": 4739,
      "LilWin": 4740,
      "legates": 4741,
      "pane": 4742,
      "anyɛ": 4743,
      "deal": 4744,
      "mudu": 4745,
      "wahyɛ": 4746,
      "Wɔkɔ": 4747,
      "ɔrebu": 4748,
      "akɔhwɛ": 4749,
      "wɔbɛhunu": 4750,
      "ɔbɔfoɔ": 4751,
      "Prophet": 4752,
      "Manchester": 4753,
      "Otchere": 4754,
      "wɔto": 4755,
      "nkokoraa": 4756,
      "yɛrehwehwɛ": 4757,
      "medical": 4758,
      "Alex": 4759,
      "Bag": 4760,
      "fro": 4761,
      "ɛbinom": 4762,
      "reboaboa": 4763,
      "bɛpue": 4764,
      "nnibea": 4765,
      "minim": 4766,
      "dwoɔ": 4767,
      "Wosusu": 4768,
      "action": 4769,
      "hwie": 4770,
      "akyerɛkyerɛfoɔ": 4771,
      "Lɔɔre": 4772,
      "Kwan": 4773,
      "Kuro": 4774,
      "Nyansa": 4775,
      "PS": 4776,
      "egua": 4777,
      "ɔtɔ": 4778,
      "war": 4779,
      "mmaayewa": 4780,
      "mmrahyɛ": 4781,
      "Christi": 4782,
      "Bonsu": 4783,
      "Fame": 4784,
      "awie": 4785,
      "ɔkyerɛkyerɛni": 4786,
      "ɛtena": 4787,
      "depen": 4788,
      "akɔhyɛ": 4789,
      "ademy": 4790,
      "term": 4791,
      "grass": 4792,
      "style": 4793,
      "ɔsi": 4794,
      "bɛtwa": 4795,
      "wɔnnyina": 4796,
      "well": 4797,
      "lif": 4798,
      "ahome": 4799,
      "bɔɔlɔfoɔ": 4800,
      "coat": 4801,
      "Danquah": 4802,
      "Bur": 4803,
      "DJ": 4804,
      "You": 4805,
      "gbe": 4806,
      "wɔpaw": 4807,
      "bɛgyinaa": 4808,
      "fon": 4809,
      "woadi": 4810,
      "wosua": 4811,
      "worekɔ": 4812,
      "saac": 4813,
      "kɔɔto": 4814,
      "agyi": 4815,
      "ɔregyina": 4816,
      "audit": 4817,
      "Ɔpataku": 4818,
      "Ɔtemmu": 4819,
      "Public": 4820,
      "perience": 4821,
      "Anto": 4822,
      "Ɔpɛɛ": 4823,
      "ner": 4824,
      "defen": 4825,
      "wonnim": 4826,
      "banyin": 4827,
      "wɔresa": 4828,
      "Bibi": 4829,
      "yɛahunu": 4830,
      "wɔredidi": 4831,
      "micro": 4832,
      "Year": 4833,
      "Issa": 4834,
      "uter": 4835,
      "ɛdɔɔ": 4836,
      "maeɛ": 4837,
      "dwam": 4838,
      "mond": 4839,
      "ntwerɛ": 4840,
      "Nkɔmmɔ": 4841,
      "GRA": 4842,
      "asuo": 4843,
      "event": 4844,
      "gas": 4845,
      "migye": 4846,
      "success": 4847,
      "buaeɛ": 4848,
      "ntabuo": 4849,
      "nsesae": 4850,
      "Mahamudu": 4851,
      "France": 4852,
      "aseresɛm": 4853,
      "wobehu": 4854,
      "ahantan": 4855,
      "sembly": 4856,
      "40": 4857,
      "Centre": 4858,
      "Wɔhyehyɛ": 4859,
      "ahosu": 4860,
      "lations": 4861,
      "pres": 4862,
      "quare": 4863,
      "leaders": 4864,
      "Olympics": 4865,
      "Congress": 4866,
      "ekuta": 4867,
      "fty": 4868,
      "osu": 4869,
      "wɔdɔ": 4870,
      "mayɛ": 4871,
      "ref": 4872,
      "yerɛ": 4873,
      "hat": 4874,
      "bank": 4875,
      "colla": 4876,
      "players": 4877,
      "white": 4878,
      "roots": 4879,
      "Oko": 4880,
      "nnyan": 4881,
      "liame": 4882,
      "nnyaeɛ": 4883,
      "aguadi": 4884,
      "bronin": 4885,
      "Basketball": 4886,
      "Eco": 4887,
      "woho": 4888,
      "anidie": 4889,
      "wakɔ": 4890,
      "akwansereɛ": 4891,
      "dies": 4892,
      "Park": 4893,
      "Captain": 4894,
      "Gyam": 4895,
      "amma": 4896,
      "ɛkyi": 4897,
      "ɛkyɛn": 4898,
      "bɛbɔɔ": 4899,
      "anife": 4900,
      "nnyansa": 4901,
      "kwasida": 4902,
      "amanfo": 4903,
      "ping": 4904,
      "hall": 4905,
      "mmisa": 4906,
      "jour": 4907,
      "danee": 4908,
      "count": 4909,
      "corruption": 4910,
      "Secretary": 4911,
      "edziban": 4912,
      "candidate": 4913,
      "En": 4914,
      "Ly": 4915,
      "credi": 4916,
      "mɔne": 4917,
      "Ɔdan": 4918,
      "rebɛ": 4919,
      "bɔnten": 4920,
      "riga": 4921,
      "hwɛfoɔ": 4922,
      "wɔregyina": 4923,
      "wɔresaw": 4924,
      "fraud": 4925,
      "aduonum": 4926,
      "helikopta": 4927,
      "Fameye": 4928,
      "Cy": 4929,
      "Isaac": 4930,
      "biz": 4931,
      "mes": 4932,
      "musi": 4933,
      "amal": 4934,
      "rɔsan": 4935,
      "beaɛ": 4936,
      "abusu": 4937,
      "zation": 4938,
      "mart": 4939,
      "kal": 4940,
      "money": 4941,
      "nkonwa": 4942,
      "animtiaa": 4943,
      "trol": 4944,
      "vaccination": 4945,
      "skills": 4946,
      "Ath": 4947,
      "Dwuma": 4948,
      "lson": 4949,
      "phi": 4950,
      "zer": 4951,
      "Ɔbɔ": 4952,
      "yɛakɔ": 4953,
      "wɔhwere": 4954,
      "remma": 4955,
      "home": 4956,
      "far": 4957,
      "mmuae": 4958,
      "stival": 4959,
      "kɔnmu": 4960,
      "Adwumakuo": 4961,
      "Feli": 4962,
      "Gyamfi": 4963,
      "Okra": 4964,
      "ɔmm": 4965,
      "task": 4966,
      "ɛbɛhyɛ": 4967,
      "ntade": 4968,
      "yɛrehyia": 4969,
      "Nkrɔfo": 4970,
      "gration": 4971,
      "Germany": 4972,
      "results": 4973,
      "Came": 4974,
      "Eas": 4975,
      "trenee": 4976,
      "yɛtwɛn": 4977,
      "wosiesie": 4978,
      "tory": 4979,
      "bɔɔkye": 4980,
      "wɔbɛkura": 4981,
      "gui": 4982,
      "inno": 4983,
      "Constitu": 4984,
      "Yɛte": 4985,
      "cket": 4986,
      "wɔkyere": 4987,
      "retie": 4988,
      "resesa": 4989,
      "muni": 4990,
      "fapem": 4991,
      "mekaeɛ": 4992,
      "srade": 4993,
      "story": 4994,
      "adɔeɛ": 4995,
      "asoɔden": 4996,
      "investigation": 4997,
      "mpaapae": 4998,
      "liamentary": 4999,
      "SD": 5000,
      "kya": 5001,
      "zy": 5002,
      "wɔmaa": 5003,
      "resua": 5004,
      "nkrɔfoɔ": 5005,
      "sustaina": 5006,
      "toco": 5007,
      "ntiatia": 5008,
      "wɔresua": 5009,
      "cele": 5010,
      "abufuw": 5011,
      "wɔasiesie": 5012,
      "stapha": 5013,
      "bɔɔlɔbɔ": 5014,
      "Mustapha": 5015,
      "Sukuufoɔ": 5016,
      "technical": 5017,
      "gloves": 5018,
      "Gifty": 5019,
      "vironment": 5020,
      "Ndua": 5021,
      "Ose": 5022,
      "Qua": 5023,
      "Youth": 5024,
      "Ɛnk": 5025,
      "not": 5026,
      "wonya": 5027,
      "kie": 5028,
      "Besia": 5029,
      "apae": 5030,
      "Chad": 5031,
      "licen": 5032,
      "Mc": 5033,
      "Square": 5034,
      "Wes": 5035,
      "Yɛyɛ": 5036,
      "mɛkɔ": 5037,
      "mou": 5038,
      "ɔbɛkyerɛkyerɛ": 5039,
      "agokan": 5040,
      "wobɛfa": 5041,
      "nyini": 5042,
      "chine": 5043,
      "didipono": 5044,
      "driver": 5045,
      "airport": 5046,
      "Athle": 5047,
      "Ɛpo": 5048,
      "woridzi": 5049,
      "wɔretwa": 5050,
      "stro": 5051,
      "akannifo": 5052,
      "press": 5053,
      "personal": 5054,
      "Ayariga": 5055,
      "besi": 5056,
      "mited": 5057,
      "akɔsi": 5058,
      "kyia": 5059,
      "abɛbuo": 5060,
      "Inve": 5061,
      "Ablakwa": 5062,
      "Cathe": 5063,
      "resakra": 5064,
      "tiaseɛ": 5065,
      "cision": 5066,
      "Amanneɛ": 5067,
      "Abrɔfo": 5068,
      "nkitahodiɛ": 5069,
      "PR": 5070,
      "apɛ": 5071,
      "enni": 5072,
      "impa": 5073,
      "yɛbɛkae": 5074,
      "live": 5075,
      "ahoroɔ": 5076,
      "nkamfoɔ": 5077,
      "wɔagye": 5078,
      "run": 5079,
      "Okraku": 5080,
      "kɔbɔɔ": 5081,
      "abotan": 5082,
      "lly": 5083,
      "nkonimdifoɔ": 5084,
      "March": 5085,
      "afotuo": 5086,
      "Peter": 5087,
      "Bryan": 5088,
      "orange": 5089,
      "wɔmmra": 5090,
      "yɛnnim": 5091,
      "papaa": 5092,
      "bey": 5093,
      "mili": 5094,
      "akraman": 5095,
      "bus": 5096,
      "ɛresɛe": 5097,
      "abɔntene": 5098,
      "leyball": 5099,
      "Office": 5100,
      "Nnwom": 5101,
      "UN": 5102,
      "Uganda": 5103,
      "trɛ": 5104,
      "ugh": 5105,
      "wɔgyee": 5106,
      "kɔla": 5107,
      "wɔntumi": 5108,
      "besia": 5109,
      "ɛbɛsakra": 5110,
      "ɔbɛsi": 5111,
      "feree": 5112,
      "local": 5113,
      "vement": 5114,
      "drama": 5115,
      "Tanz": 5116,
      "Leader": 5117,
      "Jane": 5118,
      "Ya": 5119,
      "emergency": 5120,
      "spa": 5121,
      "ret": 5122,
      "kɔduruu": 5123,
      "ditional": 5124,
      "dation": 5125,
      "bubu": 5126,
      "wɔretu": 5127,
      "atse": 5128,
      "nnawɔtwe": 5129,
      "srafoɔ": 5130,
      "ɔntumi": 5131,
      "afuom": 5132,
      "Ivory": 5133,
      "Ano": 5134,
      "afra": 5135,
      "regye": 5136,
      "bin": 5137,
      "daka": 5138,
      "poo": 5139,
      "Covid": 5140,
      "Berna": 5141,
      "Asɛ": 5142,
      "WAFCON": 5143,
      "ayam": 5144,
      "dral": 5145,
      "you": 5146,
      "real": 5147,
      "repere": 5148,
      "research": 5149,
      "tari": 5150,
      "Kona": 5151,
      "hes": 5152,
      "mpun": 5153,
      "albu": 5154,
      "vices": 5155,
      "Cor": 5156,
      "Music": 5157,
      "standard": 5158,
      "Davido": 5159,
      "Western": 5160,
      "Hen": 5161,
      "Nkwan": 5162,
      "Yɛbɛkɔ": 5163,
      "mehyɛɛ": 5164,
      "abasam": 5165,
      "agodifo": 5166,
      "ntɔn": 5167,
      "vin": 5168,
      "experience": 5169,
      "worennya": 5170,
      "atirimpɔ": 5171,
      "Cedi": 5172,
      "Ɔbɛyɛɛ": 5173,
      "bagu": 5174,
      "wagye": 5175,
      "min": 5176,
      "bor": 5177,
      "nntumi": 5178,
      "kua": 5179,
      "adzi": 5180,
      "ɔbɛpɛ": 5181,
      "Head": 5182,
      "Hockey": 5183,
      "kwaaba": 5184,
      "mpaapaemu": 5185,
      "Baba": 5186,
      "Obe": 5187,
      "ntoo": 5188,
      "resusu": 5189,
      "teng": 5190,
      "nsono": 5191,
      "yɛbɛsi": 5192,
      "amba": 5193,
      "protoco": 5194,
      "biakoyɛ": 5195,
      "Dodoɔ": 5196,
      "woannya": 5197,
      "God": 5198,
      "Jackson": 5199,
      "Williams": 5200,
      "ploma": 5201,
      "group": 5202,
      "rekyinkyin": 5203,
      "yebetumi": 5204,
      "merehwɛ": 5205,
      "kasaeɛ": 5206,
      "wɔbɛkyere": 5207,
      "dɔte": 5208,
      "nyan": 5209,
      "bɔɔlobɔfo": 5210,
      "Sikasɛm": 5211,
      "anwonwa": 5212,
      "pressure": 5213,
      "Dwumadie": 5214,
      "atuntum": 5215,
      "ɔha": 5216,
      "retɔ": 5217,
      "wone": 5218,
      "Senior": 5219,
      "Johnson": 5220,
      "points": 5221,
      "Kyerɛ": 5222,
      "Oh": 5223,
      "PO": 5224,
      "school": 5225,
      "wen": 5226,
      "Ɛha": 5227,
      "yɛsi": 5228,
      "pot": 5229,
      "teɛteɛ": 5230,
      "ɔbɛsɛe": 5231,
      "logi": 5232,
      "visa": 5233,
      "nkrasɛm": 5234,
      "Defence": 5235,
      "wɔhwɛɛ": 5236,
      "respon": 5237,
      "Nketiah": 5238,
      "Ampon": 5239,
      "Ny": 5240,
      "dɔfoɔ": 5241,
      "glass": 5242,
      "tting": 5243,
      "yɛnhyɛ": 5244,
      "ɛrehyɛ": 5245,
      "Kwasi": 5246,
      "Madam": 5247,
      "GHS": 5248,
      "papaapa": 5249,
      "Eu": 5250,
      "Inte": 5251,
      "wɔyii": 5252,
      "rem": 5253,
      "bert": 5254,
      "nkorɔfo": 5255,
      "dow": 5256,
      "ɔbɛsan": 5257,
      "brah": 5258,
      "dwenee": 5259,
      "nkraman": 5260,
      "Kufuor": 5261,
      "wunnim": 5262,
      "television": 5263,
      "EA": 5264,
      "over": 5265,
      "mebɛyɛ": 5266,
      "mempɛ": 5267,
      "fin": 5268,
      "mibisa": 5269,
      "yɛbɛsesa": 5270,
      "building": 5271,
      "wuhunu": 5272,
      "ahokyere": 5273,
      "ɛrekasa": 5274,
      "mmon": 5275,
      "Bio": 5276,
      "Development": 5277,
      "badwam": 5278,
      "krom": 5279,
      "Amoako": 5280,
      "Prince": 5281,
      "crime": 5282,
      "Tanzania": 5283,
      "Ham": 5284,
      "NHI": 5285,
      "ayɔnko": 5286,
      "kane": 5287,
      "nwom": 5288,
      "Ɔkyerɛɛ": 5289,
      "ɔbisaa": 5290,
      "pass": 5291,
      "ahoho": 5292,
      "adepa": 5293,
      "mpam": 5294,
      "ving": 5295,
      "abirekyie": 5296,
      "gramme": 5297,
      "Munta": 5298,
      "twerɛdua": 5299,
      "ahotoso": 5300,
      "Greater": 5301,
      "Felix": 5302,
      "Kar": 5303,
      "Oti": 5304,
      "gah": 5305,
      "gby": 5306,
      "yɛntena": 5307,
      "aniwa": 5308,
      "tin": 5309,
      "bone": 5310,
      "kusuu": 5311,
      "ntee": 5312,
      "Boy": 5313,
      "kutakuta": 5314,
      "akyɛdeɛ": 5315,
      "Abi": 5316,
      "And": 5317,
      "Dɔm": 5318,
      "yɛnhunu": 5319,
      "bɛhwɛɛ": 5320,
      "rities": 5321,
      "kaar": 5322,
      "came": 5323,
      "ɔsono": 5324,
      "biom": 5325,
      "Ayaresabea": 5326,
      "Cathedral": 5327,
      "Eugene": 5328,
      "aya": 5329,
      "Ɛnkyerɛ": 5330,
      "fit": 5331,
      "aguma": 5332,
      "akɔto": 5333,
      "ansah": 5334,
      "conte": 5335,
      "amin": 5336,
      "Paluta": 5337,
      "Patrick": 5338,
      "Christian": 5339,
      "Konadu": 5340,
      "mpuntuo": 5341,
      "Ohene": 5342,
      "neral": 5343,
      "sofi": 5344,
      "kee": 5345,
      "viol": 5346,
      "ɔkɔtɔ": 5347,
      "Asantehene": 5348,
      "ffic": 5349,
      "Agency": 5350,
      "ankyerɛ": 5351,
      "wɔnnya": 5352,
      "ɔresere": 5353,
      "wobɛnya": 5354,
      "Academy": 5355,
      "quar": 5356,
      "GTEC": 5357,
      "nsensan": 5358,
      "Bernard": 5359,
      "Abaa": 5360,
      "ET": 5361,
      "Fata": 5362,
      "GC": 5363,
      "gg": 5364,
      "hand": 5365,
      "onnim": 5366,
      "prima": 5367,
      "wɔsesa": 5368,
      "bɛsakra": 5369,
      "nantwie": 5370,
      "agy": 5371,
      "Kodoɔ": 5372,
      "abomu": 5373,
      "Kwakye": 5374,
      "cap": 5375,
      "stations": 5376,
      "ekita": 5377,
      "pɛsɛ": 5378,
      "institu": 5379,
      "conce": 5380,
      "champion": 5381,
      "trophy": 5382,
      "clubs": 5383,
      "Steph": 5384,
      "competition": 5385,
      "Ara": 5386,
      "Mad": 5387,
      "fri": 5388,
      "Ɔsan": 5389,
      "ɛdaa": 5390,
      "yifoɔ": 5391,
      "kɔto": 5392,
      "monya": 5393,
      "moder": 5394,
      "nnɔn": 5395,
      "ahoɔ": 5396,
      "gospel": 5397,
      "Mantse": 5398,
      "Org": 5399,
      "PI": 5400,
      "egya": 5401,
      "nic": 5402,
      "bee": 5403,
      "yiyedie": 5404,
      "nkyɛnsee": 5405,
      "dodoo": 5406,
      "GHA": 5407,
      "unity": 5408,
      "nkuraase": 5409,
      "community": 5410,
      "Abra": 5411,
      "traa": 5412,
      "ɛtwaa": 5413,
      "yɛpaw": 5414,
      "kɔhyiaa": 5415,
      "menni": 5416,
      "hope": 5417,
      "wotutu": 5418,
      "Mede": 5419,
      "Wɔhyɛɛ": 5420,
      "Ɛnora": 5421,
      "nufu": 5422,
      "nkamfo": 5423,
      "nkyɛnse": 5424,
      "abufu": 5425,
      "Wiem": 5426,
      "Officer": 5427,
      "nkyekyɛmu": 5428,
      "BC": 5429,
      "Tae": 5430,
      "clu": 5431,
      "sɛeɛ": 5432,
      "rebrɛ": 5433,
      "miɛnsa": 5434,
      "onya": 5435,
      "yɛbɛgye": 5436,
      "ɔretɔn": 5437,
      "trude": 5438,
      "Gertrude": 5439,
      "Camero": 5440,
      "Eastern": 5441,
      "ttey": 5442,
      "ɔtie": 5443,
      "nokwasɛm": 5444,
      "wɔwuiɛ": 5445,
      "wobisa": 5446,
      "teebol": 5447,
      "nsum": 5448,
      "Assembly": 5449,
      "sons": 5450,
      "hann": 5451,
      "Monday": 5452,
      "gress": 5453,
      "transfer": 5454,
      "adwemmɔne": 5455,
      "..": 5456,
      "wɔnkyerɛ": 5457,
      "bɛhwehwɛ": 5458,
      "bɛhwere": 5459,
      "nantwi": 5460,
      "Wɔrekyerɛ": 5461,
      "ɛretwa": 5462,
      "cehall": 5463,
      "nkyene": 5464,
      "asɔredan": 5465,
      "Limited": 5466,
      "internet": 5467,
      "ahenfo": 5468,
      "Bɔɔlobɔ": 5469,
      "album": 5470,
      "Amponsah": 5471,
      "Cameroon": 5472,
      "Basi": 5473,
      "rma": 5474,
      "’.": 5475,
      "wobu": 5476,
      "ɛbɛhwe": 5477,
      "lities": 5478,
      "fann": 5479,
      "ayeyi": 5480,
      "Akrofuom": 5481,
      "holders": 5482,
      "penalty": 5483,
      "Hwan": 5484,
      "PAC": 5485,
      "Twum": 5486,
      "ado": 5487,
      "manager": 5488,
      "faci": 5489,
      "Meda": 5490,
      "ɔreyi": 5491,
      "pepa": 5492,
      "asetenam": 5493,
      "Nelson": 5494,
      "Baabi": 5495,
      "woantumi": 5496,
      "Agumadi": 5497,
      "Trump": 5498,
      "atirimpɔw": 5499,
      "Mbaa": 5500,
      "Pho": 5501,
      "wɔgyaa": 5502,
      "sation": 5503,
      "rian": 5504,
      "sumiiɛ": 5505,
      "ɛbɛkyɛ": 5506,
      "ɛfam": 5507,
      "Real": 5508,
      "Nipadɔm": 5509,
      "nkyɛm": 5510,
      "wondo": 5511,
      "Ɛnkyɛree": 5512,
      "Haruna": 5513,
      "coaching": 5514,
      "500": 5515,
      "Brown": 5516,
      "Phi": 5517,
      "yɛdii": 5518,
      "bɛdane": 5519,
      "fil": 5520,
      "let": 5521,
      "wɔaboa": 5522,
      "lligence": 5523,
      "bowl": 5524,
      "Ghanaian": 5525,
      "impact": 5526,
      "CID": 5527,
      "Flo": 5528,
      "mfu": 5529,
      "retwi": 5530,
      "abrɔfo": 5531,
      "aberewa": 5532,
      "Forces": 5533,
      "WAS": 5534,
      "tteh": 5535,
      "tential": 5536,
      "Ak": 5537,
      "gree": 5538,
      "mbaa": 5539,
      "adwane": 5540,
      "Wɔdze": 5541,
      "poll": 5542,
      "potential": 5543,
      "enue": 5544,
      "atorɔ": 5545,
      "rowth": 5546,
      "Audi": 5547,
      "preme": 5548,
      "Special": 5549,
      "Ghanani": 5550,
      "mɔ": 5551,
      "okura": 5552,
      "ɔdaadaa": 5553,
      "yɛabɔ": 5554,
      "wɔhuu": 5555,
      "tere": 5556,
      "ram": 5557,
      "tage": 5558,
      "win": 5559,
      "fun": 5560,
      "yɛretwɛn": 5561,
      "Sing": 5562,
      "Amanyɔfoɔ": 5563,
      "Super": 5564,
      "Supreme": 5565,
      "quad": 5566,
      "Agodie": 5567,
      "Airport": 5568,
      "presidential": 5569,
      "Buroni": 5570,
      "DA": 5571,
      "Lap": 5572,
      "Ntoma": 5573,
      "Op": 5574,
      "Sun": 5575,
      "ɛɛma": 5576,
      "bicycle": 5577,
      "Nations": 5578,
      "resili": 5579,
      "anuanom": 5580,
      "interest": 5581,
      "Manhyia": 5582,
      "prepa": 5583,
      "aduruyɛ": 5584,
      "Agyei": 5585,
      "Conference": 5586,
      "III": 5587,
      "commit": 5588,
      "studio": 5589,
      "ɔmɔ": 5590,
      "Henry": 5591,
      "Ɛdɔm": 5592,
      "ɛhwe": 5593,
      "wɔmmɔ": 5594,
      "kɔpɛ": 5595,
      "wotwe": 5596,
      "hwen": 5597,
      "ward": 5598,
      "sus": 5599,
      "mobile": 5600,
      "toes": 5601,
      "mmrɛ": 5602,
      "alo": 5603,
      "asono": 5604,
      "Asɛnnibea": 5605,
      "Nkwanta": 5606,
      "NSA": 5607,
      "ahwere": 5608,
      "wɔgyinagyina": 5609,
      "nership": 5610,
      "siste": 5611,
      "ɛnhia": 5612,
      "ɛnsɔ": 5613,
      "asɛmpa": 5614,
      "aker": 5615,
      "yɛbɛto": 5616,
      "suapɔn": 5617,
      "nsuom": 5618,
      "insurance": 5619,
      "Kwasida": 5620,
      "siesiee": 5621,
      "ssing": 5622,
      "Tetteh": 5623,
      "Force": 5624,
      "Fatawu": 5625,
      "Oburoni": 5626,
      "rez": 5627,
      "bɛɛma": 5628,
      "serɛ": 5629,
      "fori": 5630,
      "pink": 5631,
      "Yɛnnyina": 5632,
      "dzen": 5633,
      "afadze": 5634,
      "Ɔbɛnem": 5635,
      "mpanyimfo": 5636,
      "elect": 5637,
      "Organi": 5638,
      "foridua": 5639,
      "ɔhia": 5640,
      "ɛnkyɛn": 5641,
      "dwonto": 5642,
      "base": 5643,
      "neaba": 5644,
      "mis": 5645,
      "yɛbɛkasa": 5646,
      "agua": 5647,
      "asane": 5648,
      "abɛfa": 5649,
      "atim": 5650,
      "plane": 5651,
      "woehyia": 5652,
      "apomuden": 5653,
      "dadesɛn": 5654,
      "Municipa": 5655,
      "ɔbenfoɔ": 5656,
      "Ang": 5657,
      "Cricket": 5658,
      "fred": 5659,
      "Ɔdɔ": 5660,
      "Ɔkyerɛkyerɛni": 5661,
      "ante": 5662,
      "foun": 5663,
      "pay": 5664,
      "tofoɔ": 5665,
      "yɛbɛduru": 5666,
      "yɛbɛtie": 5667,
      "ady": 5668,
      "Koforidua": 5669,
      "gyaeɛ": 5670,
      "cing": 5671,
      "Armed": 5672,
      "Paris": 5673,
      "Bafana": 5674,
      "Stephen": 5675,
      "Jor": 5676,
      "apegya": 5677,
      "okraman": 5678,
      "vato": 5679,
      "ɔbo": 5680,
      "kɔsraa": 5681,
      "mit": 5682,
      "yɛbɛsan": 5683,
      "Juli": 5684,
      "Forson": 5685,
      "nhomasua": 5686,
      "lawyer": 5687,
      "flowers": 5688,
      "Spain": 5689,
      "70": 5690,
      "Akyiri": 5691,
      "Cana": 5692,
      "Eric": 5693,
      "ɛnim": 5694,
      "decision": 5695,
      "megyina": 5696,
      "bata": 5697,
      "Mehyɛ": 5698,
      "toaa": 5699,
      "asomfoɔ": 5700,
      "nsɛnkyerɛ": 5701,
      "practi": 5702,
      "portu": 5703,
      "leader": 5704,
      "mbesiafo": 5705,
      "Medikal": 5706,
      "Badu": 5707,
      "tre": 5708,
      "yɛhyia": 5709,
      "bɛko": 5710,
      "ming": 5711,
      "nnipakuo": 5712,
      "krado": 5713,
      "ntwa": 5714,
      "pet": 5715,
      "ntamgyina": 5716,
      "Debrah": 5717,
      "maamefoɔ": 5718,
      "microphone": 5719,
      "Emu": 5720,
      "GAC": 5721,
      "ena": 5722,
      "jor": 5723,
      "kari": 5724,
      "urses": 5725,
      "nimdie": 5726,
      "Wɔkita": 5727,
      "yɛreeɛ": 5728,
      "Dada": 5729,
      "woatumi": 5730,
      "India": 5731,
      "Bukom": 5732,
      "GBA": 5733,
      "Kurt": 5734,
      "cles": 5735,
      "kwondo": 5736,
      "yɛteɛ": 5737,
      "komm": 5738,
      "rick": 5739,
      "ɛbɛtra": 5740,
      "dents": 5741,
      "kes": 5742,
      "yɛredi": 5743,
      "yɛreba": 5744,
      "cia": 5745,
      "aboɔ": 5746,
      "Coronavirus": 5747,
      "stagram": 5748,
      "Party": 5749,
      "Instagram": 5750,
      "Cape": 5751,
      "nkurasefoɔ": 5752,
      "Ɔsanaa": 5753,
      "ahennie": 5754,
      "Blay": 5755,
      "nwene": 5756,
      "wɔsua": 5757,
      "diploma": 5758,
      "nokwaredi": 5759,
      "adio": 5760,
      "pete": 5761,
      "adesuafoɔ": 5762,
      "Fore": 5763,
      "asrafoɔ": 5764,
      "anisoadehunu": 5765,
      "Ate": 5766,
      "Assi": 5767,
      "secon": 5768,
      "kyekyɛ": 5769,
      "online": 5770,
      "wɔretɔn": 5771,
      "ɔrehu": 5772,
      "mputa": 5773,
      "wɔahwɛ": 5774,
      "dɛɛdɛ": 5775,
      "shie": 5776,
      "Europe": 5777,
      "mmarahyɛbadwafoɔ": 5778,
      "Nkurofoɔ": 5779,
      "mouth": 5780,
      "violence": 5781,
      "Hami": 5782,
      "KA": 5783,
      "Sou": 5784,
      "ɔdaa": 5785,
      "ɔhwehwɛ": 5786,
      "master": 5787,
      "yiwa": 5788,
      "wɔnhwehwɛ": 5789,
      "rimma": 5790,
      "minal": 5791,
      "moma": 5792,
      "Wɔbɛtumi": 5793,
      "ler": 5794,
      "exper": 5795,
      "Social": 5796,
      "Afidie": 5797,
      "Fl": 5798,
      "Ras": 5799,
      "klo": 5800,
      "Ɛtete": 5801,
      "rekyerɛkyerɛ": 5802,
      "respect": 5803,
      "nantew": 5804,
      "bepɔ": 5805,
      "water": 5806,
      "Member": 5807,
      "nsɛmmɔne": 5808,
      "nokwarefoɔ": 5809,
      "peace": 5810,
      "vis": 5811,
      "medal": 5812,
      "Dormaa": 5813,
      "panel": 5814,
      "camera": 5815,
      "ECO": 5816,
      "Manu": 5817,
      "ssan": 5818,
      "nensa": 5819,
      "resources": 5820,
      "demic": 5821,
      "woyii": 5822,
      "engi": 5823,
      "ɔreboa": 5824,
      "sereeɛ": 5825,
      "cratic": 5826,
      "lines": 5827,
      "ttle": 5828,
      "Akye": 5829,
      "GNA": 5830,
      "MT": 5831,
      "cro": 5832,
      "yɛtu": 5833,
      "bɛduru": 5834,
      "tente": 5835,
      "ɛnya": 5836,
      "rical": 5837,
      "ntini": 5838,
      "wɔbɛgye": 5839,
      "coa": 5840,
      "pɔtee": 5841,
      "ticle": 5842,
      "Asanteman": 5843,
      "Auditor": 5844,
      "ire": 5845,
      "ob": 5846,
      "hour": 5847,
      "nkrante": 5848,
      "tiz": 5849,
      "bebi": 5850,
      "porate": 5851,
      "doho": 5852,
      "dwumakuo": 5853,
      "cis": 5854,
      "Comman": 5855,
      "tweɛ": 5856,
      "akyea": 5857,
      "atetesɛm": 5858,
      "Tutu": 5859,
      "BI": 5860,
      "Empre": 5861,
      "GES": 5862,
      "OC": 5863,
      "pur": 5864,
      "ɛbaeɛ": 5865,
      "dem": 5866,
      "nkranteɛ": 5867,
      "wosuro": 5868,
      "paper": 5869,
      "rights": 5870,
      "Doku": 5871,
      "nnɔbaeɛ": 5872,
      "stics": 5873,
      "Athletics": 5874,
      "Empress": 5875,
      "Anyi": 5876,
      "machine": 5877,
      "abayewa": 5878,
      "wing": 5879,
      "mmiensa": 5880,
      "asoɛ": 5881,
      "akwantufo": 5882,
      "petroleum": 5883,
      "Max": 5884,
      "polisi": 5885,
      "stability": 5886,
      "kumaa": 5887,
      "Nnomaa": 5888,
      "Ene": 5889,
      "Ita": 5890,
      "kyɛɛ": 5891,
      "two": 5892,
      "wɔdwen": 5893,
      "ded": 5894,
      "dee": 5895,
      "dire": 5896,
      "rid": 5897,
      "best": 5898,
      "end": 5899,
      "reer": 5900,
      "sram": 5901,
      "Agorɔ": 5902,
      "Alhassan": 5903,
      "ECOWAS": 5904,
      "Frankaa": 5905,
      "Id": 5906,
      "Is": 5907,
      "Kro": 5908,
      "Por": 5909,
      "apɔnkɔ": 5910,
      "ek": 5911,
      "identi": 5912,
      "nwu": 5913,
      "rko": 5914,
      "yɛyɛɛ": 5915,
      "yinaa": 5916,
      "Minta": 5917,
      "borɔdeɛ": 5918,
      "aduosia": 5919,
      "colour": 5920,
      "grassroots": 5921,
      "innovation": 5922,
      "GS": 5923,
      "Lɔre": 5924,
      "Ral": 5925,
      "San": 5926,
      "Yɛde": 5927,
      "ɔsa": 5928,
      "ɛayɛ": 5929,
      "kɔhwehwɛ": 5930,
      "nkran": 5931,
      "wɔreto": 5932,
      "vity": 5933,
      "vera": 5934,
      "atareɛ": 5935,
      "staff": 5936,
      "minister": 5937,
      "ctors": 5938,
      "nkatasoɔ": 5939,
      "Ɛnkyɛreeɛ": 5940,
      "Afa": 5941,
      "Class": 5942,
      "growth": 5943,
      "wɔso": 5944,
      "remo": 5945,
      "referee": 5946,
      "mee": 5947,
      "wood": 5948,
      "wɔnhyɛ": 5949,
      "nsonsono": 5950,
      "tafoɔ": 5951,
      "ɛrenya": 5952,
      "ɛrenkyɛ": 5953,
      "anigyedeɛ": 5954,
      "yɛrennya": 5955,
      "cine": 5956,
      "Power": 5957,
      "yɛahyehyɛ": 5958,
      "agugu": 5959,
      "char": 5960,
      "Akwasi": 5961,
      "sɔree": 5962,
      "Francis": 5963,
      "Tay": 5964,
      "nkuraaseɛ": 5965,
      "Asetena": 5966,
      "lifting": 5967,
      "reflec": 5968,
      "Nyankopɔn": 5969,
      "Taekwondo": 5970,
      "Cho": 5971,
      "Che": 5972,
      "cas": 5973,
      "hɛ": 5974,
      "rekyere": 5975,
      "yɛnsua": 5976,
      "sign": 5977,
      "para": 5978,
      "rif": 5979,
      "wase": 5980,
      "ɛbɛtwa": 5981,
      "rofoɔ": 5982,
      "anam": 5983,
      "ahosiesie": 5984,
      "ɛkɔm": 5985,
      "come": 5986,
      "coronavirus": 5987,
      "fɛm": 5988,
      "Company": 5989,
      "nhyiam": 5990,
      "opportu": 5991,
      "partment": 5992,
      "OD": 5993,
      "gyin": 5994,
      "ɔdwene": 5995,
      "anyina": 5996,
      "annyɛ": 5997,
      "sig": 5998,
      "Wokɔ": 5999,
      "label": 6000,
      "enum": 6001,
      "Nkansah": 6002,
      "traffic": 6003,
      "play": 6004,
      "Kay": 6005,
      "climate": 6006,
      "Ralph": 6007,
      "Arth": 6008,
      "bur": 6009,
      "mfie": 6010,
      "sse": 6011,
      "bɛwie": 6012,
      "manfo": 6013,
      "nana": 6014,
      "koɔ": 6015,
      "aseda": 6016,
      "monnya": 6017,
      "akɔka": 6018,
      "wannya": 6019,
      "tumtum": 6020,
      "nkrah": 6021,
      "mmereɛ": 6022,
      "mpeh": 6023,
      "mmarahyɛbadwafie": 6024,
      "England": 6025,
      "Arthur": 6026,
      "IC": 6027,
      "Kra": 6028,
      "Mal": 6029,
      "apolisifoɔ": 6030,
      "lder": 6031,
      "nhyiren": 6032,
      "ɛsɔ": 6033,
      "rim": 6034,
      "Mehuu": 6035,
      "nnyin": 6036,
      "wɔrehyia": 6037,
      "abarima": 6038,
      "mmɔborɔ": 6039,
      "COP": 6040,
      "cup": 6041,
      "Team": 6042,
      "urnalism": 6043,
      "Gui": 6044,
      "Mbesiafo": 6045,
      "Laptop": 6046,
      "Ev": 6047,
      "Nkra": 6048,
      "afɔ": 6049,
      "ety": 6050,
      "wɔfaa": 6051,
      "sene": 6052,
      "dabiara": 6053,
      "gyinaesi": 6054,
      "analy": 6055,
      "web": 6056,
      "hyiamu": 6057,
      "yɛrekasa": 6058,
      "sɛee": 6059,
      "nnor": 6060,
      "ahofama": 6061,
      "Grace": 6062,
      "Ankrah": 6063,
      "wɔhɔ": 6064,
      "wɔwui": 6065,
      "yɛnnyane": 6066,
      "mansin": 6067,
      "sal": 6068,
      "umadu": 6069,
      "tadeɛ": 6070,
      "yɛbɛhyɛ": 6071,
      "agumadiɛ": 6072,
      "Ɔsebɔn": 6073,
      "Tetekwa": 6074,
      "abira": 6075,
      "nnyigye": 6076,
      "agenda": 6077,
      "1992": 6078,
      "athletes": 6079,
      "America": 6080,
      "space": 6081,
      "Anyidoho": 6082,
      "Energy": 6083,
      "Taylor": 6084,
      "Mpre": 6085,
      "Science": 6086,
      "cla": 6087,
      "os": 6088,
      "ɔfaa": 6089,
      "ɛyera": 6090,
      "rekyerɛw": 6091,
      "kɔhyɛ": 6092,
      "hit": 6093,
      "wealth": 6094,
      "lina": 6095,
      "2018": 6096,
      "cavato": 6097,
      "ɛdeda": 6098,
      "confi": 6099,
      "Asumadu": 6100,
      "card": 6101,
      "Golden": 6102,
      "ɔnyɛɛ": 6103,
      "broni": 6104,
      "duukuu": 6105,
      "Communications": 6106,
      "Canada": 6107,
      "cricket": 6108,
      "ekura": 6109,
      "egyinagyina": 6110,
      "uti": 6111,
      "meboa": 6112,
      "mansini": 6113,
      "urne": 6114,
      "yɛbɛn": 6115,
      "docu": 6116,
      "listic": 6117,
      "wɔbɛkyerɛkyerɛ": 6118,
      "yɛregyina": 6119,
      "wɔahunu": 6120,
      "trade": 6121,
      "goo": 6122,
      "nnwomfoɔ": 6123,
      "Jota": 6124,
      "Article": 6125,
      "afoforoɔ": 6126,
      "plate": 6127,
      "dadepɔnkɔ": 6128,
      "title": 6129,
      "commitment": 6130,
      "bebiree": 6131,
      "Mintah": 6132,
      "AID": 6133,
      "bber": 6134,
      "sca": 6135,
      "sɔhwɛ": 6136,
      "ɔgyee": 6137,
      "ɔtenaa": 6138,
      "ɛdɔm": 6139,
      "anwene": 6140,
      "wɔgyinaa": 6141,
      "yea": 6142,
      "kɔdi": 6143,
      "nnen": 6144,
      "hub": 6145,
      "mmit": 6146,
      "inwii": 6147,
      "nkɔmmɔdi": 6148,
      "Nkyɛn": 6149,
      "career": 6150,
      "bisaeɛ": 6151,
      "Achi": 6152,
      "nyimfo": 6153,
      "Polisini": 6154,
      "pandemic": 6155,
      "stance": 6156,
      "awerɛhɔsɛm": 6157,
      ",”": 6158,
      "Mat": 6159,
      "ɔgyae": 6160,
      "sex": 6161,
      "kaw": 6162,
      "nnhwɛ": 6163,
      "gyeene": 6164,
      "Wɔkyeree": 6165,
      "mmer": 6166,
      "wɔbɛto": 6167,
      "yɛresɛe": 6168,
      "Prempeh": 6169,
      "Daakye": 6170,
      "Ayine": 6171,
      "Channel": 6172,
      "Madrid": 6173,
      "amo": 6174,
      "fĩ": 6175,
      "wɔwu": 6176,
      "mahwɛ": 6177,
      "yɛnfa": 6178,
      "dwumadzi": 6179,
      "wɔredzi": 6180,
      "ɔreko": 6181,
      "akɔnnɔ": 6182,
      "rant": 6183,
      "fuu": 6184,
      "bɔɔlɔboɔ": 6185,
      "nsekyerɛ": 6186,
      "akatakata": 6187,
      "nkeka": 6188,
      "Mmarahyɛbadwani": 6189,
      "musician": 6190,
      "Jordan": 6191,
      "80": 6192,
      "Anka": 6193,
      "Radio": 6194,
      "chw": 6195,
      "tz": 6196,
      "woakyerɛ": 6197,
      "baanan": 6198,
      "sunsum": 6199,
      "lim": 6200,
      "mmranteɛ": 6201,
      "wɔretwe": 6202,
      "wɔbɛpɛ": 6203,
      "mmufoɔ": 6204,
      "mfitiaseɛ": 6205,
      "ahyɛaseɛ": 6206,
      "asɛeɛ": 6207,
      "Alge": 6208,
      "Festival": 6209,
      "AIDS": 6210,
      "HS": 6211,
      "Qu": 6212,
      "ĩa": 6213,
      "yɛtwe": 6214,
      "mers": 6215,
      "suahunu": 6216,
      "petee": 6217,
      "nkukuo": 6218,
      "teams": 6219,
      "puee": 6220,
      "Kyei": 6221,
      "Adams": 6222,
      "ɔsɔfoɔ": 6223,
      "Cri": 6224,
      "HA": 6225,
      "Kete": 6226,
      "Or": 6227,
      "afuw": 6228,
      "bla": 6229,
      "hĩa": 6230,
      "lk": 6231,
      "nɔ": 6232,
      "Ɛfa": 6233,
      "Ɛbɛma": 6234,
      "wɔkora": 6235,
      "denam": 6236,
      "woso": 6237,
      "samma": 6238,
      "ntex": 6239,
      "wɔretwɛn": 6240,
      "ntasɛm": 6241,
      "abusuakuo": 6242,
      "politi": 6243,
      "Accountability": 6244,
      "interview": 6245,
      "obedi": 6246,
      "Lawyer": 6247,
      "freedom": 6248,
      "wɔkyerɛkyerɛ": 6249,
      "rapper": 6250,
      "tourism": 6251,
      "paake": 6252,
      "akɔbɔ": 6253,
      "wɔbɛtie": 6254,
      "asoa": 6255,
      "conne": 6256,
      "wɔakyerɛw": 6257,
      "nkyerɛaseɛ": 6258,
      "sukuufo": 6259,
      "mmeaɛ": 6260,
      "agudeɛ": 6261,
      "akokɔsrade": 6262,
      "Adwumayɛ": 6263,
      "apore": 6264,
      "nsusuiɛ": 6265,
      "Asiamah": 6266,
      "Spintex": 6267,
      "ahintasɛm": 6268,
      "dependence": 6269,
      "Wiemhyɛn": 6270,
      "Singapore": 6271,
      "Mprempren": 6272,
      "Amba": 6273,
      "Essi": 6274,
      "GI": 6275,
      "PA": 6276,
      "Pan": 6277,
      "apono": 6278,
      "ɛdane": 6279,
      "wɔkyerɛw": 6280,
      "ɛbɛnya": 6281,
      "Messi": 6282,
      "nnyim": 6283,
      "nsɛmkyerɛwfoɔ": 6284,
      "ahobanbɔ": 6285,
      "wɔreboaboa": 6286,
      "leman": 6287,
      "level": 6288,
      "amanyɔsem": 6289,
      "Nnipakuw": 6290,
      "lation": 6291,
      "yɛfata": 6292,
      "nkɔmɔ": 6293,
      "nsew": 6294,
      "Yɛbɛhwɛ": 6295,
      "agencies": 6296,
      "Nkabom": 6297,
      "mmaninyɛ": 6298,
      "Ele": 6299,
      "Octo": 6300,
      "ffe": 6301,
      "yane": 6302,
      "ɛsesa": 6303,
      "ɛkoto": 6304,
      "semi": 6305,
      "Mebisa": 6306,
      "pital": 6307,
      "mmɛn": 6308,
      "mmigration": 6309,
      "asotweɛ": 6310,
      "Comp": 6311,
      "Bokiti": 6312,
      "ayarefoɔ": 6313,
      "nnwumakuo": 6314,
      "Ahen": 6315,
      "Speaker": 6316,
      "Technical": 6317,
      "brand": 6318,
      "Antoine": 6319,
      "resilience": 6320,
      "October": 6321,
      "Pas": 6322,
      "Tran": 6323,
      "etuo": 6324,
      "turo": 6325,
      "monni": 6326,
      "hin": 6327,
      "akɔdi": 6328,
      "allo": 6329,
      "ahuru": 6330,
      "ahuri": 6331,
      "Yiadom": 6332,
      "Yɛrehwɛ": 6333,
      "opera": 6334,
      "fairs": 6335,
      "stakeholders": 6336,
      "PSG": 6337,
      "Arts": 6338,
      "GAF": 6339,
      "Tur": 6340,
      "edu": 6341,
      "yɛsiesie": 6342,
      "yɛnhu": 6343,
      "bɛtenaa": 6344,
      "mepene": 6345,
      "umaa": 6346,
      "ɛbɛkora": 6347,
      "Wɔnni": 6348,
      "ongo": 6349,
      "down": 6350,
      "ahodeɛ": 6351,
      "celo": 6352,
      "Women": 6353,
      "Serwaa": 6354,
      "Azonto": 6355,
      "ɔpepem": 6356,
      "modern": 6357,
      "TU": 6358,
      "ang": 6359,
      "bɛhyiaa": 6360,
      "woda": 6361,
      "ɛbɛsesa": 6362,
      "road": 6363,
      "cell": 6364,
      "cism": 6365,
      "wɔapaw": 6366,
      "ntokuro": 6367,
      "Bebree": 6368,
      "ssy": 6369,
      "gallon": 6370,
      "Dogbo": 6371,
      "Benyin": 6372,
      "Dogboe": 6373,
      "Obo": 6374,
      "Owuo": 6375,
      "UE": 6376,
      "ebu": 6377,
      "ɛbobɔ": 6378,
      "wɔhyiaa": 6379,
      "rable": 6380,
      "wofi": 6381,
      "ɛbɛda": 6382,
      "Nation": 6383,
      "abosome": 6384,
      "camp": 6385,
      "abusuafo": 6386,
      "apampam": 6387,
      "ɔnnim": 6388,
      "Wed": 6389,
      "Nyarko": 6390,
      "ssador": 6391,
      "truck": 6392,
      "Rugby": 6393,
      "Crea": 6394,
      "nhwi": 6395,
      "ɛtam": 6396,
      "yɛgyaa": 6397,
      "ankaa": 6398,
      "bɛsii": 6399,
      "dition": 6400,
      "fire": 6401,
      "ɛremma": 6402,
      "wɔrebɛyɛ": 6403,
      "Sikaman": 6404,
      "yɛamfa": 6405,
      "issu": 6406,
      "nesday": 6407,
      "MOG": 6408,
      "agyira": 6409,
      "nsonsonoeɛ": 6410,
      "Wednesday": 6411,
      "Creative": 6412,
      "Dwu": 6413,
      "Van": 6414,
      "Ɛnneɛma": 6415,
      "wɔbaa": 6416,
      "kɔmputa": 6417,
      "house": 6418,
      "wosi": 6419,
      "ɔretwa": 6420,
      "wɔpɛɛ": 6421,
      "Adaka": 6422,
      "benyinfo": 6423,
      "content": 6424,
      "32": 6425,
      "Kyere": 6426,
      "Wen": 6427,
      "War": 6428,
      "sani": 6429,
      "ɔhunu": 6430,
      "new": 6431,
      "forɔ": 6432,
      "nkaa": 6433,
      "woma": 6434,
      "bon": 6435,
      "asen": 6436,
      "kɔɔt": 6437,
      "hwea": 6438,
      "wɔbɛsesa": 6439,
      "dɔla": 6440,
      "faahodie": 6441,
      "Tourism": 6442,
      "Petroleum": 6443,
      "drisu": 6444,
      "Amoakohene": 6445,
      "Iddrisu": 6446,
      "Anko": 6447,
      "FBI": 6448,
      "Kyini": 6449,
      "Per": 6450,
      "nurse": 6451,
      "Ɔnam": 6452,
      "yɛhyɛɛ": 6453,
      "now": 6454,
      "wɔtua": 6455,
      "sel": 6456,
      "sekan": 6457,
      "tea": 6458,
      "rious": 6459,
      "mmayewa": 6460,
      "wel": 6461,
      "armwrestling": 6462,
      "than": 6463,
      "gol": 6464,
      "Bourne": 6465,
      "consiste": 6466,
      "Mmerɛ": 6467,
      "Prosecu": 6468,
      "srɛɛ": 6469,
      "akasamu": 6470,
      "Friday": 6471,
      "operation": 6472,
      "ntoosi": 6473,
      "identity": 6474,
      "Evans": 6475,
      "Bournemouth": 6476,
      "Cir": 6477,
      "Mfe": 6478,
      "cru": 6479,
      "eye": 6480,
      "resiesie": 6481,
      "metwa": 6482,
      "ɛresere": 6483,
      "atwɛn": 6484,
      "ɔbɛbu": 6485,
      "mpɛn": 6486,
      "reet": 6487,
      "uronin": 6488,
      "ntoto": 6489,
      "train": 6490,
      "Borɔ": 6491,
      "stine": 6492,
      "prote": 6493,
      "progress": 6494,
      "Safo": 6495,
      "Dome": 6496,
      "Fosu": 6497,
      "amannyɔ": 6498,
      "obegye": 6499,
      "akyekyer": 6500,
      "'?": 6501,
      "Abɛ": 6502,
      "Ewura": 6503,
      "gger": 6504,
      "jamin": 6505,
      "mbɔ": 6506,
      "science": 6507,
      "tsen": 6508,
      "ɛhye": 6509,
      "ɛhwee": 6510,
      "mebu": 6511,
      "menka": 6512,
      "metiee": 6513,
      "nning": 6514,
      "urch": 6515,
      "mmera": 6516,
      "wanw": 6517,
      "nɛɛse": 6518,
      "sting": 6519,
      "cyber": 6520,
      "COC": 6521,
      "Abansoro": 6522,
      "healthcare": 6523,
      "Benjamin": 6524,
      "flation": 6525,
      "foreign": 6526,
      "ntwerɛfoɔ": 6527,
      "Obeng": 6528,
      "responsi": 6529,
      "Ansa": 6530,
      "DP": 6531,
      "Hene": 6532,
      "KN": 6533,
      "ahɔhoɔ": 6534,
      "Ɔkan": 6535,
      "Ɛmu": 6536,
      "rewa": 6537,
      "bɛhunuu": 6538,
      "nyinaɛ": 6539,
      "nnie": 6540,
      "asefoɔ": 6541,
      "mofoɔ": 6542,
      "yɛbɛhwe": 6543,
      "but": 6544,
      "with": 6545,
      "nkwagyeɛ": 6546,
      "twen": 6547,
      "acti": 6548,
      "ahwɛsoɔ": 6549,
      "Mmorɔfo": 6550,
      "jia": 6551,
      "championship": 6552,
      "nkɛntɛnsoɔ": 6553,
      "GCB": 6554,
      "abufusɛm": 6555,
      "Mene": 6556,
      "scal": 6557,
      "Ɔsraani": 6558,
      "ɛdwo": 6559,
      "wɔaba": 6560,
      "bɛgyee": 6561,
      "nika": 6562,
      "yɛbɛbu": 6563,
      "abadi": 6564,
      "fielder": 6565,
      "agumadifo": 6566,
      "Manso": 6567,
      "Union": 6568,
      "Asawase": 6569,
      "UST": 6570,
      "asram": 6571,
      "Medical": 6572,
      "Akwantufoɔ": 6573,
      "collabo": 6574,
      "foundation": 6575,
      "Algeria": 6576,
      "Apri": 6577,
      "Eli": 6578,
      "Kpe": 6579,
      "Kraman": 6580,
      "repia": 6581,
      "nitia": 6582,
      "mani": 6583,
      "woo": 6584,
      "site": 6585,
      "right": 6586,
      "wah": 6587,
      "ɔrekyerɛkyerɛ": 6588,
      "Movement": 6589,
      "joe": 6590,
      "Diana": 6591,
      "santen": 6592,
      "ronze": 6593,
      "Institu": 6594,
      "cholar": 6595,
      "officials": 6596,
      "Bagbin": 6597,
      "concert": 6598,
      "April": 6599,
      "nitiative": 6600,
      "MCE": 6601,
      "PP": 6602,
      "ampe": 6603,
      "afunu": 6604,
      "egugu": 6605,
      "bɛdaa": 6606,
      "bɛtua": 6607,
      "wokita": 6608,
      "pati": 6609,
      "boy": 6610,
      "monkae": 6611,
      "siee": 6612,
      "akansifoɔ": 6613,
      "ambi": 6614,
      "inclu": 6615,
      "Mmaranimfoɔ": 6616,
      "sesaeɛ": 6617,
      "ɔnye": 6618,
      "Bill": 6619,
      "parliamentary": 6620,
      "nwuram": 6621,
      "abibifo": 6622,
      "ahenfie": 6623,
      "Awards": 6624,
      "Afrobe": 6625,
      "Democracy": 6626,
      "Kua": 6627,
      "wɔhwehwɛɛ": 6628,
      "wɔabue": 6629,
      "refiri": 6630,
      "wahyehyɛ": 6631,
      "ntetew": 6632,
      "nnipadɔm": 6633,
      "levy": 6634,
      "gum": 6635,
      "stle": 6636,
      "2016": 6637,
      "bɔɔlɔɔ": 6638,
      "wɔkɔeɛ": 6639,
      "ahata": 6640,
      "Royal": 6641,
      "NACOC": 6642,
      "officer": 6643,
      "striker": 6644,
      "mbers": 6645,
      "Darko": 6646,
      "Sherif": 6647,
      "Apo": 6648,
      "class": 6649,
      "rani": 6650,
      "shu": 6651,
      "tren": 6652,
      "ɔsii": 6653,
      "yɛto": 6654,
      "yɛama": 6655,
      "reserew": 6656,
      "simma": 6657,
      "abɔmu": 6658,
      "loan": 6659,
      "kɔkɔɔbɔ": 6660,
      "Mari": 6661,
      "nsutene": 6662,
      "gyaade": 6663,
      "yɔnkoɔ": 6664,
      "Business": 6665,
      "Tie": 6666,
      "internal": 6667,
      "Agbe": 6668,
      "anwanwadeɛ": 6669,
      "amammuisɛm": 6670,
      "37": 6671,
      "ɔnnyɛ": 6672,
      "ɛkyɛw": 6673,
      "rap": 6674,
      "akwansi": 6675,
      "wuhuu": 6676,
      "wiei": 6677,
      "akɔgyina": 6678,
      "Wogye": 6679,
      "viral": 6680,
      "wobɛbɔ": 6681,
      "Kube": 6682,
      "Sali": 6683,
      "Danso": 6684,
      "pueeɛ": 6685,
      "ayiri": 6686,
      "nwiinwii": 6687,
      "Technology": 6688,
      "Mboframba": 6689,
      "primaries": 6690,
      "Dormaahene": 6691,
      "KNUST": 6692,
      "Cud": 6693,
      "Kamal": 6694,
      "cen": 6695,
      "frɔ": 6696,
      "nia": 6697,
      "wotu": 6698,
      "ɛntumi": 6699,
      "adwumayɛni": 6700,
      "Mer": 6701,
      "Wɔrehwɛ": 6702,
      "atta": 6703,
      "assa": 6704,
      "aspo": 6705,
      "rubber": 6706,
      "abɛhwɛ": 6707,
      "Series": 6708,
      "nkyerɛkyerɛfoɔ": 6709,
      "twerɛpono": 6710,
      "Hajia": 6711,
      "computer": 6712,
      "Palace": 6713,
      "transparent": 6714,
      "production": 6715,
      "Amanneɛbɔ": 6716,
      "ahohora": 6717,
      "Cudjoe": 6718,
      "Asrafoɔ": 6719,
      "Enipa": 6720,
      "ebetumi": 6721,
      "spo": 6722,
      "ɔfã": 6723,
      "sɛnkyerɛ": 6724,
      "redzi": 6725,
      "rerun": 6726,
      "woteɛ": 6727,
      "waba": 6728,
      "Metro": 6729,
      "lin": 6730,
      "nkyɛnkyɛn": 6731,
      "sɔɔ": 6732,
      "Akonnor": 6733,
      "ople": 6734,
      "reality": 6735,
      "Ayensu": 6736,
      "anwonwadeɛ": 6737,
      "Muntaka": 6738,
      "confidence": 6739,
      "FDA": 6740,
      "ahia": 6741,
      "ema": 6742,
      "efuw": 6743,
      "oku": 6744,
      "ɛbu": 6745,
      "ɛkaa": 6746,
      "wɔnyaa": 6747,
      "gyedi": 6748,
      "ɛresa": 6749,
      "akɔneaba": 6750,
      "cocoa": 6751,
      "inj": 6752,
      "track": 6753,
      "good": 6754,
      "Acting": 6755,
      "proce": 6756,
      "lux": 6757,
      "Department": 6758,
      "woanhwɛ": 6759,
      "Banku": 6760,
      "dwetɛ": 6761,
      "nyamesom": 6762,
      "partnership": 6763,
      "nomination": 6764,
      "Kuami": 6765,
      "SM": 6766,
      "brity": 6767,
      "flu": 6768,
      "ig": 6769,
      "Ɔgyinaa": 6770,
      "ɔmmu": 6771,
      "resaw": 6772,
      "meba": 6773,
      "nkumaa": 6774,
      "wohunu": 6775,
      "animdefoɔ": 6776,
      "aga": 6777,
      "tirinwi": 6778,
      "Asantehemaa": 6779,
      "nkɔmhyɛfoɔ": 6780,
      "wɔrobɔ": 6781,
      "ntwitwa": 6782,
      "awerɛhyɛm": 6783,
      "atuntumfoɔ": 6784,
      "asoɛeɛ": 6785,
      "anyinam": 6786,
      "aspora": 6787,
      "Ce": 6788,
      "MM": 6789,
      "cke": 6790,
      "Ɔkyerɛkyerɛfoɔ": 6791,
      "ɔsesa": 6792,
      "anhwɛ": 6793,
      "wɔkeka": 6794,
      "ned": 6795,
      "fake": 6796,
      "nnwɔtwe": 6797,
      "yɛbɛkora": 6798,
      "akwansin": 6799,
      "akyiwa": 6800,
      "ɔbɛdii": 6801,
      "dɔmpem": 6802,
      "peti": 6803,
      "Didi": 6804,
      "atwedeɛ": 6805,
      "Barcelo": 6806,
      "midfielder": 6807,
      "Barcelona": 6808,
      "Cina": 6809,
      "HO": 6810,
      "Kri": 6811,
      "Water": 6812,
      "emo": 6813,
      "nnyinaa": 6814,
      "nsɛe": 6815,
      "yɛhwe": 6816,
      "yɛnom": 6817,
      "Mereka": 6818,
      "piti": 6819,
      "haban": 6820,
      "ahohia": 6821,
      "ahoteɛ": 6822,
      "ɔrehyia": 6823,
      "visi": 6824,
      "yeraw": 6825,
      "yeraeɛ": 6826,
      "woamfa": 6827,
      "tsentsen": 6828,
      "jority": 6829,
      "lings": 6830,
      "Ɔsono": 6831,
      "services": 6832,
      "apagyapagya": 6833,
      "Asogyafoɔ": 6834,
      "score": 6835,
      "Essien": 6836,
      "Kɔkɔɔ": 6837,
      "Urus": 6838,
      "amoa": 6839,
      "clo": 6840,
      "nsiesie": 6841,
      "ohia": 6842,
      "ɔfoforo": 6843,
      "ɛtaa": 6844,
      "balance": 6845,
      "nnisoɔ": 6846,
      "nnennen": 6847,
      "minya": 6848,
      "sukyerɛ": 6849,
      "dapɛn": 6850,
      "ɔreto": 6851,
      "abɛkyerɛ": 6852,
      "ahahan": 6853,
      "DCE": 6854,
      "intelligence": 6855,
      "ɔkasae": 6856,
      "Finance": 6857,
      "nesty": 6858,
      "challenges": 6859,
      "Abere": 6860,
      "Daman": 6861,
      "evi": 6862,
      "mɛma": 6863,
      "venue": 6864,
      "ɛkor": 6865,
      "mae": 6866,
      "bɛkyere": 6867,
      "kɔsra": 6868,
      "wotɔ": 6869,
      "Wɔgyina": 6870,
      "admini": 6871,
      "were": 6872,
      "ebiasa": 6873,
      "kina": 6874,
      "Abron": 6875,
      "ɔmampanyin": 6876,
      "awieiɛ": 6877,
      "awoɔ": 6878,
      "Kevin": 6879,
      "Adesua": 6880,
      "wobenya": 6881,
      "Twitter": 6882,
      "Nnuane": 6883,
      "volleyball": 6884,
      "onalism": 6885,
      "Kyiniiɛ": 6886,
      "Asono": 6887,
      "Awuraba": 6888,
      "Blue": 6889,
      "Cele": 6890,
      "Han": 6891,
      "edua": 6892,
      "fre": 6893,
      "las": 6894,
      "twee": 6895,
      "Bono": 6896,
      "cuit": 6897,
      "ɔbɔmmɔfoɔ": 6898,
      "thing": 6899,
      "spirit": 6900,
      "position": 6901,
      "suspen": 6902,
      "Enter": 6903,
      "Nkrataa": 6904,
      "Osono": 6905,
      "ground": 6906,
      "lti": 6907,
      "nfo": 6908,
      "nsɔ": 6909,
      "our": 6910,
      "xy": 6911,
      "ɔnka": 6912,
      "ɔrokɔ": 6913,
      "regyina": 6914,
      "redwene": 6915,
      "bɛkye": 6916,
      "nkora": 6917,
      "dwumayɛfoɔ": 6918,
      "ɔreserew": 6919,
      "abuse": 6920,
      "Bel": 6921,
      "Beat": 6922,
      "Abayewa": 6923,
      "quaye": 6924,
      "Hitz": 6925,
      "agyapadie": 6926,
      "keeper": 6927,
      "Ambassador": 6928,
      "Edu": 6929,
      "Jer": 6930,
      "Land": 6931,
      "atitiriw": 6932,
      "nsusuw": 6933,
      "ofi": 6934,
      "tur": 6935,
      "mara": 6936,
      "resu": 6937,
      "bɛbue": 6938,
      "wasɔ": 6939,
      "mira": 6940,
      "misa": 6941,
      "poi": 6942,
      "wɔrekyere": 6943,
      "akɔhyia": 6944,
      "Kodua": 6945,
      "loy": 6946,
      "Affairs": 6947,
      "uring": 6948,
      "Yɛbɔ": 6949,
      "ɛɛhwɛ": 6950,
      "Agyepong": 6951,
      "Church": 6952,
      "finals": 6953,
      "qualification": 6954,
      "Awuku": 6955,
      "coaches": 6956,
      "UEFA": 6957,
      "Damang": 6958,
      "Bre": 6959,
      "Eag": 6960,
      "Lin": 6961,
      "that": 6962,
      "ɛhĩa": 6963,
      "anhyɛ": 6964,
      "reset": 6965,
      "des": 6966,
      "tensi": 6967,
      "wɔnnim": 6968,
      "ɛbɛgye": 6969,
      "Naana": 6970,
      "will": 6971,
      "akɔgye": 6972,
      "aduaba": 6973,
      "aboto": 6974,
      "policies": 6975,
      "yɛhuu": 6976,
      "Big": 6977,
      "Hena": 6978,
      "kakraka": 6979,
      "aforo": 6980,
      "marke": 6981,
      "systems": 6982,
      "wɔahyiam": 6983,
      "artistes": 6984,
      "military": 6985,
      "protocols": 6986,
      "passport": 6987,
      "Soul": 6988,
      "Abronye": 6989,
      "GJ": 6990,
      "GMA": 6991,
      "STE": 6992,
      "rekeka": 6993,
      "mentumi": 6994,
      "wopa": 6995,
      "woyera": 6996,
      "bene": 6997,
      "dabi": 6998,
      "Wɔnam": 6999,
      "wanda": 7000,
      "renyini": 7001,
      "stars": 7002,
      "zed": 7003,
      "ɔkyerɛkyerɛɛ": 7004,
      "woresɛe": 7005,
      "nwomasua": 7006,
      "William": 7007,
      "bluu": 7008,
      "agumadie": 7009,
      "meeting": 7010,
      "cellence": 7011,
      "apira": 7012,
      "imp": 7013,
      "ori": 7014,
      "ply": 7015,
      "Ɛmfa": 7016,
      "ɔkyerɛw": 7017,
      "rebo": 7018,
      "nkwaa": 7019,
      "wori": 7020,
      "kyenku": 7021,
      "watwa": 7022,
      "mota": 7023,
      "ahoboa": 7024,
      "Wor": 7025,
      "under": 7026,
      "excavato": 7027,
      "Good": 7028,
      "bridge": 7029,
      "Mayor": 7030,
      "abusuasɛm": 7031,
      "Mas": 7032,
      "UTA": 7033,
      "bs": 7034,
      "equi": 7035,
      "wɔasɔ": 7036,
      "delegates": 7037,
      "degree": 7038,
      "kɔbisaa": 7039,
      "mankoma": 7040,
      "wopue": 7041,
      "bebre": 7042,
      "fici": 7043,
      "robɔ": 7044,
      "bucket": 7045,
      "wera": 7046,
      "banku": 7047,
      "wɔbɛtua": 7048,
      "guan": 7049,
      "col": 7050,
      "ɛhiahia": 7051,
      "Mmate": 7052,
      "korabea": 7053,
      "rekorɔ": 7054,
      "mbassy": 7055,
      "JoyNews": 7056,
      "Ewurabena": 7057,
      "STEM": 7058,
      "Free": 7059,
      "Ronal": 7060,
      "nnom": 7061,
      "ɛrima": 7062,
      "solu": 7063,
      "was": 7064,
      "mmaran": 7065,
      "Nartey": 7066,
      "wɔakyere": 7067,
      "Boahene": 7068,
      "Lions": 7069,
      "Peace": 7070,
      "asubɔnten": 7071,
      "wɔhyehyɛɛ": 7072,
      "Showbiz": 7073,
      "complex": 7074,
      "Asraafo": 7075,
      "president": 7076,
      "Burkina": 7077,
      "Bibiani": 7078,
      "baguani": 7079,
      "agyanom": 7080,
      "Circuit": 7081,
      "Cli": 7082,
      "Smart": 7083,
      "Ukra": 7084,
      "ndze": 7085,
      "ɛboɔ": 7086,
      "wapagya": 7087,
      "moh": 7088,
      "movie": 7089,
      "gyinae": 7090,
      "akwansra": 7091,
      "lip": 7092,
      "ɛreyera": 7093,
      "ɔbɛtie": 7094,
      "wɔbɛkasa": 7095,
      "pɔt": 7096,
      "Joshu": 7097,
      "place": 7098,
      "Prime": 7099,
      "suppor": 7100,
      "Center": 7101,
      "adɔɔso": 7102,
      "GAA": 7103,
      "asɛndibea": 7104,
      "disability": 7105,
      "captain": 7106,
      "Achimota": 7107,
      "amona": 7108,
      "Joshua": 7109,
      "DV": 7110,
      "Fir": 7111,
      "Kum": 7112,
      "Mara": 7113,
      "Sei": 7114,
      "Sac": 7115,
      "Ɔnim": 7116,
      "Ɛn": 7117,
      "ɔsane": 7118,
      "wɔnom": 7119,
      "yiyie": 7120,
      "retɔn": 7121,
      "race": 7122,
      "ballo": 7123,
      "Mehwɛɛ": 7124,
      "agri": 7125,
      "dou": 7126,
      "anafoɔ": 7127,
      "wiaa": 7128,
      "Nort": 7129,
      "ins": 7130,
      "kɔkɔɔkɔ": 7131,
      "agumadibea": 7132,
      "lus": 7133,
      "Mining": 7134,
      "Armah": 7135,
      "puei": 7136,
      "cher": 7137,
      "worenni": 7138,
      "judi": 7139,
      "Prisons": 7140,
      "nsunsuanso": 7141,
      "Lartey": 7142,
      "challenge": 7143,
      "sustainable": 7144,
      "Oppong": 7145,
      "Amu": 7146,
      "Adze": 7147,
      "PGA": 7148,
      "Up": 7149,
      "Zu": 7150,
      "xi": 7151,
      "ɛnan": 7152,
      "yɛsɔre": 7153,
      "reli": 7154,
      "rah": 7155,
      "super": 7156,
      "Yɛnnyae": 7157,
      "abatuo": 7158,
      "nton": 7159,
      "ntokwa": 7160,
      "Common": 7161,
      "Boye": 7162,
      "Auby": 7163,
      "Akwaboah": 7164,
      "check": 7165,
      "wɔrohwɛ": 7166,
      "tomatoes": 7167,
      "adwiriw": 7168,
      "Muniru": 7169,
      "Environment": 7170,
      "Aubynn": 7171,
      "Cle": 7172,
      "Lei": 7173,
      "WHO": 7174,
      "mfitaa": 7175,
      "ɔbu": 7176,
      "ɔsraani": 7177,
      "wɔtenaa": 7178,
      "soboɔ": 7179,
      "nani": 7180,
      "ɛbɛfa": 7181,
      "atre": 7182,
      "ɔbɛhwehwɛ": 7183,
      "mprɛ": 7184,
      "adii": 7185,
      "rules": 7186,
      "nhwɛso": 7187,
      "NPA": 7188,
      "ɔkɔm": 7189,
      "pɛɛse": 7190,
      "Suleman": 7191,
      "Mark": 7192,
      "Video": 7193,
      "Cardi": 7194,
      "ller": 7195,
      "Kyerɛw": 7196,
      "Tokyo": 7197,
      "atuateɛ": 7198,
      "Ty": 7199,
      "Tes": 7200,
      "bronze": 7201,
      "nhia": 7202,
      "ore": 7203,
      "ors": 7204,
      "youth": 7205,
      "anhwea": 7206,
      "yiyi": 7207,
      "rehyehyɛ": 7208,
      "bɛdaadaa": 7209,
      "mepa": 7210,
      "nkane": 7211,
      "ɛnfa": 7212,
      "domankoma": 7213,
      "akontabuo": 7214,
      "federation": 7215,
      "nteɛmu": 7216,
      "ɔkɔhyiaa": 7217,
      "illa": 7218,
      "yɛannya": 7219,
      "penyin": 7220,
      "years": 7221,
      "Marathon": 7222,
      "33": 7223,
      "Schw": 7224,
      "asusu": 7225,
      "apem": 7226,
      "nhunu": 7227,
      "prɛ": 7228,
      "ɔtua": 7229,
      "serious": 7230,
      "nition": 7231,
      "wotwitwa": 7232,
      "ɛnhyɛ": 7233,
      "way": 7234,
      "kutu": 7235,
      "Wɔkyerɛɛ": 7236,
      "wit": 7237,
      "ɔbɛte": 7238,
      "Koku": 7239,
      "cester": 7240,
      "mptey": 7241,
      "dunsia": 7242,
      "arz": 7243,
      "few": 7244,
      "pɔli": 7245,
      "naly": 7246,
      "ɛnenam": 7247,
      "Mid": 7248,
      "prophe": 7249,
      "ntaare": 7250,
      "miamia": 7251,
      "executive": 7252,
      "prese": 7253,
      "Life": 7254,
      "Victor": 7255,
      "chie": 7256,
      "vaccines": 7257,
      "hern": 7258,
      "Lamptey": 7259,
      "yɛnnyae": 7260,
      "Change": 7261,
      "standards": 7262,
      "values": 7263,
      "Aberewa": 7264,
      "Ami": 7265,
      "Ansah": 7266,
      "Kente": 7267,
      "Mpae": 7268,
      "RI": 7269,
      "Rwanda": 7270,
      "Yu": 7271,
      "long": 7272,
      "manu": 7273,
      "fame": 7274,
      "ahopere": 7275,
      "wɔbɛtwa": 7276,
      "fui": 7277,
      "Nove": 7278,
      "ambia": 7279,
      "Mommra": 7280,
      "Kwahu": 7281,
      "kyim": 7282,
      "kuropɔn": 7283,
      "gyigye": 7284,
      "Brob": 7285,
      "statement": 7286,
      "aborosan": 7287,
      "cholarship": 7288,
      "November": 7289,
      "Atwe": 7290,
      "Mba": 7291,
      "Oc": 7292,
      "Owura": 7293,
      "Raw": 7294,
      "SHS": 7295,
      "ky": 7296,
      "odii": 7297,
      "scan": 7298,
      "ɛban": 7299,
      "bɛgyae": 7300,
      "rary": 7301,
      "Wɔne": 7302,
      "wutumi": 7303,
      "mmɔfo": 7304,
      "ɔsen": 7305,
      "prio": 7306,
      "Rose": 7307,
      "Road": 7308,
      "mmanana": 7309,
      "Traditional": 7310,
      "shortcut": 7311,
      "Paralympic": 7312,
      "kɔnmuadeɛ": 7313,
      "Italy": 7314,
      "ballot": 7315,
      "Rawlings": 7316,
      "Der": 7317,
      "On": 7318,
      "Pl": 7319,
      "SO": 7320,
      "mɛhwɛ": 7321,
      "ɔayɛ": 7322,
      "ɔhwehwɛɛ": 7323,
      "ɛhyeɛ": 7324,
      "ɛbɛyera": 7325,
      "nkokɔ": 7326,
      "pipe": 7327,
      "weh": 7328,
      "sikakɔkɔɔ": 7329,
      "nkɔmmɔdii": 7330,
      "rum": 7331,
      "awene": 7332,
      "ɔnhu": 7333,
      "Adwumayɛfo": 7334,
      "stors": 7335,
      "chief": 7336,
      "this": 7337,
      "nkotokuo": 7338,
      "ɔyarefoɔ": 7339,
      "regula": 7340,
      "Laryea": 7341,
      "dɔkotafoɔ": 7342,
      "Lydia": 7343,
      "GACL": 7344,
      "Akyem": 7345,
      "tension": 7346,
      "Leicester": 7347,
      "Ball": 7348,
      "Faso": 7349,
      "GR": 7350,
      "MC": 7351,
      "UG": 7352,
      "fru": 7353,
      "lak": 7354,
      "ɛkoro": 7355,
      "wɔmma": 7356,
      "wɔtɔ": 7357,
      "revenue": 7358,
      "yɛnsakra": 7359,
      "bili": 7360,
      "worebɔ": 7361,
      "fare": 7362,
      "ɛbɛbu": 7363,
      "rosan": 7364,
      "mmfi": 7365,
      "nkyere": 7366,
      "Comme": 7367,
      "Colle": 7368,
      "Majority": 7369,
      "abɛgye": 7370,
      "Mus": 7371,
      "urnalistic": 7372,
      "ɛɛse": 7373,
      "Wuhu": 7374,
      "vention": 7375,
      "Andre": 7376,
      "Julius": 7377,
      "Institute": 7378,
      "luxury": 7379,
      "Adwadi": 7380,
      "Onipa": 7381,
      "Sene": 7382,
      "ay": 7383,
      "mbanyin": 7384,
      "nsuro": 7385,
      "yɛtra": 7386,
      "non": 7387,
      "nahu": 7388,
      "tei": 7389,
      "dwu": 7390,
      "paeɛ": 7391,
      "bepɔw": 7392,
      "borɔfo": 7393,
      "susuo": 7394,
      "ɛreto": 7395,
      "akɔma": 7396,
      "erci": 7397,
      "off": 7398,
      "mfonyin": 7399,
      "craft": 7400,
      "Ɔbaatan": 7401,
      "Papafoɔ": 7402,
      "Independence": 7403,
      "fɛɛfɛɛ": 7404,
      "ɔkasaeɛ": 7405,
      "goalkeeper": 7406,
      "Constitution": 7407,
      "Investiga": 7408,
      "ayamye": 7409,
      "Ronaldo": 7410,
      "Mpaebɔ": 7411,
      "Fada": 7412,
      "Nhwehwɛ": 7413,
      "bbe": 7414,
      "ctions": 7415,
      "wɔagyae": 7416,
      "reau": 7417,
      "mena": 7418,
      "monka": 7419,
      "toho": 7420,
      "Wɔtete": 7421,
      "kɔɔtɔ": 7422,
      "led": 7423,
      "teɛm": 7424,
      "rang": 7425,
      "mfatoho": 7426,
      "Ebien": 7427,
      "Junior": 7428,
      "org": 7429,
      "active": 7430,
      "yɛasiesie": 7431,
      "ahaha": 7432,
      "crete": 7433,
      "Ɔbɛhyɛɛ": 7434,
      "afanaa": 7435,
      "Korle": 7436,
      "Mpox": 7437,
      "Paint": 7438,
      "akyinnyeɛ": 7439,
      "Nnuan": 7440,
      "kokoɔ": 7441,
      "stream": 7442,
      "vigilan": 7443,
      "Nkɔmmɔdie": 7444,
      "journey": 7445,
      "collaboration": 7446,
      "Eagles": 7447,
      "Akyire": 7448,
      "Gambo": 7449,
      "Kasa": 7450,
      "Shi": 7451,
      "kpe": 7452,
      "udi": 7453,
      "ɛfi": 7454,
      "kɔgyinaa": 7455,
      "dwin": 7456,
      "rior": 7457,
      "behu": 7458,
      "dadaa": 7459,
      "pole": 7460,
      "ntete": 7461,
      "adɔko": 7462,
      "wɔbɛda": 7463,
      "mpram": 7464,
      "Coordina": 7465,
      "god": 7466,
      "uah": 7467,
      "adanmu": 7468,
      "ahemfo": 7469,
      "Prampram": 7470,
      "hyth": 7471,
      "minute": 7472,
      "Kamaldeen": 7473,
      "GJA": 7474,
      "Commey": 7475,
      "Can": 7476,
      "Rami": 7477,
      "Yor": 7478,
      "ibi": 7479,
      "ɔtsena": 7480,
      "wɔsom": 7481,
      "nese": 7482,
      "reforms": 7483,
      "bɛkyerɛkyerɛ": 7484,
      "wodeɛ": 7485,
      "watumi": 7486,
      "mix": 7487,
      "mission": 7488,
      "yɛbɛhwehwɛ": 7489,
      "lish": 7490,
      "hweree": 7491,
      "abura": 7492,
      "Benin": 7493,
      "atoa": 7494,
      "Bor": 7495,
      "nsɛnnennen": 7496,
      "Division": 7497,
      "Hotel": 7498,
      "Arms": 7499,
      "cream": 7500,
      "thorities": 7501,
      "corporate": 7502,
      "nsusuwii": 7503,
      "users": 7504,
      "Ivoire": 7505,
      "demokrasia": 7506,
      "cases": 7507,
      "Prosecutor": 7508,
      "Ramirez": 7509,
      "55": 7510,
      "Don": 7511,
      "Edem": 7512,
      "bt": 7513,
      "ise": 7514,
      "yɛtaa": 7515,
      "anta": 7516,
      "wɔate": 7517,
      "ninku": 7518,
      "kwase": 7519,
      "hɔho": 7520,
      "wɔresere": 7521,
      "rand": 7522,
      "fund": 7523,
      "adesamma": 7524,
      "influ": 7525,
      "mmuafoɔ": 7526,
      "afasuo": 7527,
      "protest": 7528,
      "old": 7529,
      "Staff": 7530,
      "person": 7531,
      "appro": 7532,
      "abre": 7533,
      "prices": 7534,
      "NAPO": 7535,
      "trust": 7536,
      "Bronin": 7537,
      "professionalism": 7538,
      "demokrase": 7539,
      "quarters": 7540,
      "Municipal": 7541,
      "engine": 7542,
      "ahurusi": 7543,
      "mmaransɛm": 7544,
      "DVLA": 7545,
      "47": 7546,
      "Gab": 7547,
      "cata": 7548,
      "sre": 7549,
      "wɔbisaa": 7550,
      "foo": 7551,
      "mika": 7552,
      "mination": 7553,
      "moro": 7554,
      "Wɔabɔ": 7555,
      "haku": 7556,
      "bunu": 7557,
      "ɛretu": 7558,
      "wɔrehyehyɛ": 7559,
      "dɔkɔ": 7560,
      "citiz": 7561,
      "vil": 7562,
      "contro": 7563,
      "Delegates": 7564,
      "kakraba": 7565,
      "nyipa": 7566,
      "store": 7567,
      "bibini": 7568,
      "akutu": 7569,
      "noloji": 7570,
      "communication": 7571,
      "tificate": 7572,
      "spiritual": 7573,
      "institutions": 7574,
      "tententen": 7575,
      "opportunity": 7576,
      "activi": 7577,
      "Northern": 7578,
      "Ahwehwɛ": 7579,
      "Cu": 7580,
      "Oku": 7581,
      "Tas": 7582,
      "ffo": 7583,
      "oo": 7584,
      "squad": 7585,
      "Ɛbaa": 7586,
      "ɔtaa": 7587,
      "ɔbɔne": 7588,
      "yɛakyerɛ": 7589,
      "yɛdwinnwen": 7590,
      "anwanw": 7591,
      "mal": 7592,
      "kɔso": 7593,
      "mang": 7594,
      "wobetumi": 7595,
      "diɛ": 7596,
      "kyee": 7597,
      "fiscal": 7598,
      "Mekyerɛ": 7599,
      "tos": 7600,
      "bankum": 7601,
      "ɛreboa": 7602,
      "akɔpɛ": 7603,
      "ɛkɔso": 7604,
      "los": 7605,
      "nyansapɛ": 7606,
      "gina": 7607,
      "Sini": 7608,
      "aching": 7609,
      "Dede": 7610,
      "effe": 7611,
      "Ɔkɔkaa": 7612,
      "IGA": 7613,
      "projects": 7614,
      "agokansie": 7615,
      "Quar": 7616,
      "Keteke": 7617,
      "First": 7618,
      "Schwarz": 7619,
      "York": 7620,
      "All": 7621,
      "Akwaaba": 7622,
      "Analy": 7623,
      "Dade": 7624,
      "Mfidie": 7625,
      "esia": 7626,
      "nr": 7627,
      "nurses": 7628,
      "Ɔben": 7629,
      "Ɛnni": 7630,
      "ɔmu": 7631,
      "ɔwui": 7632,
      "ɛdeɛ": 7633,
      "yɛkyerɛw": 7634,
      "rebɛba": 7635,
      "measu": 7636,
      "kon": 7637,
      "wam": 7638,
      "Wɔkyerɛ": 7639,
      "Woahu": 7640,
      "late": 7641,
      "aduadua": 7642,
      "nkyen": 7643,
      "cky": 7644,
      "kyerɛkyerɛfo": 7645,
      "Bible": 7646,
      "Roman": 7647,
      "wɔantumi": 7648,
      "Haj": 7649,
      "goals": 7650,
      "nnuannua": 7651,
      "wɔatwerɛtwerɛ": 7652,
      "Ukraine": 7653,
      "Senegal": 7654,
      "36": 7655,
      "It": 7656,
      "Mpanin": 7657,
      "NF": 7658,
      "Open": 7659,
      "abisa": 7660,
      "overa": 7661,
      "mas": 7662,
      "mente": 7663,
      "rɛɛ": 7664,
      "pɛe": 7665,
      "wafa": 7666,
      "Mewɔ": 7667,
      "nkonnua": 7668,
      "company": 7669,
      "yɛrenya": 7670,
      "inflation": 7671,
      "sesae": 7672,
      "atosodeɛ": 7673,
      "Reco": 7674,
      "Dope": 7675,
      "NHIS": 7676,
      "Beatz": 7677,
      "Sulemana": 7678,
      "Ayɛ": 7679,
      "Apaa": 7680,
      "Ahene": 7681,
      "Jnr": 7682,
      "Paa": 7683,
      "Pon": 7684,
      "akuo": 7685,
      "Ɔdwan": 7686,
      "yɛbrɛ": 7687,
      "yɛnhia": 7688,
      "yɛnyaa": 7689,
      "enegger": 7690,
      "adwumawura": 7691,
      "wɔrentumi": 7692,
      "ɔremma": 7693,
      "ɔbɛkaa": 7694,
      "hyiaeɛ": 7695,
      "ntale": 7696,
      "pɔtɔ": 7697,
      "mmɔdenmmɔ": 7698,
      "Mona": 7699,
      "Cou": 7700,
      "Mampong": 7701,
      "stin": 7702,
      "Republic": 7703,
      "Austra": 7704,
      "Hots": 7705,
      "TVET": 7706,
      "carpet": 7707,
      "Gyampo": 7708,
      "mpontu": 7709,
      "ndadze": 7710,
      "Akwanhyia": 7711,
      "branding": 7712,
      "Anala": 7713,
      "Community": 7714,
      "Basintale": 7715,
      "Schwarzenegger": 7716,
      "Sate": 7717,
      "Waka": 7718,
      "asusuw": 7719,
      "afura": 7720,
      "ɔpon": 7721,
      "yɛmmra": 7722,
      "yɛkenkan": 7723,
      "retwitwa": 7724,
      "bɔeɛ": 7725,
      "mind": 7726,
      "ɛbɛgyina": 7727,
      "ntian": 7728,
      "nyaeɛ": 7729,
      "yɛhwɛɛ": 7730,
      "rance": 7731,
      "mfata": 7732,
      "kyɛfa": 7733,
      "wɔapagya": 7734,
      "Mmaranteɛ": 7735,
      "stina": 7736,
      "exerci": 7737,
      "trousers": 7738,
      "Nigeri": 7739,
      "kotoku": 7740,
      "Town": 7741,
      "atwere": 7742,
      "mboframba": 7743,
      "ɔsɔfo": 7744,
      "Bɔɔlbɔ": 7745,
      "Issahaku": 7746,
      "Aka": 7747,
      "Ampo": 7748,
      "Anaa": 7749,
      "Eei": 7750,
      "Hy": 7751,
      "MMA": 7752,
      "OS": 7753,
      "Pha": 7754,
      "len": 7755,
      "ɔkyerɛwfoɔ": 7756,
      "ɛpon": 7757,
      "ɛhyew": 7758,
      "yɛahyɛ": 7759,
      "yɛbue": 7760,
      "reni": 7761,
      "bɛbaa": 7762,
      "mefiri": 7763,
      "melo": 7764,
      "diako": 7765,
      "bah": 7766,
      "tine": 7767,
      "ɛbɛhwɛ": 7768,
      "motion": 7769,
      "yɛbɛsiesie": 7770,
      "heart": 7771,
      "guar": 7772,
      "ntal": 7773,
      "aborɔ": 7774,
      "Bediako": 7775,
      "kyerɛwfo": 7776,
      "gyani": 7777,
      "cure": 7778,
      "trotro": 7779,
      "Adut": 7780,
      "Gyakie": 7781,
      "truth": 7782,
      "akeka": 7783,
      "strong": 7784,
      "dwontofoɔ": 7785,
      "evidence": 7786,
      "marathon": 7787,
      "Ati": 7788,
      "Eno": 7789,
      "Hap": 7790,
      "Lor": 7791,
      "Villa": 7792,
      "Zongo": 7793,
      "ncy": 7794,
      "ɔware": 7795,
      "wɔgyaee": 7796,
      "yɛnyane": 7797,
      "bill": 7798,
      "mennim": 7799,
      "mum": 7800,
      "dist": 7801,
      "sary": 7802,
      "kosua": 7803,
      "tism": 7804,
      "aki": 7805,
      "yɛbɛpɛ": 7806,
      "poma": 7807,
      "atwene": 7808,
      "ɔrentumi": 7809,
      "daase": 7810,
      "Sumiiɛ": 7811,
      "cturing": 7812,
      "Chinese": 7813,
      "print": 7814,
      "tenenee": 7815,
      "abɔnefoɔ": 7816,
      "ɔtwee": 7817,
      "ɔbenfo": 7818,
      "patience": 7819,
      "Kristo": 7820,
      "College": 7821,
      "overall": 7822,
      "Aweh": 7823,
      "Mfi": 7824,
      "Ob": 7825,
      "Oka": 7826,
      "Stu": 7827,
      "dre": 7828,
      "ɔwuo": 7829,
      "rehia": 7830,
      "dede": 7831,
      "self": 7832,
      "mehyia": 7833,
      "hospital": 7834,
      "mirika": 7835,
      "Wɔdii": 7836,
      "ɛrebɛba": 7837,
      "Yɛnka": 7838,
      "ɔbɛsesa": 7839,
      "mpene": 7840,
      "asse": 7841,
      "inho": 7842,
      "goro": 7843,
      "abɛsi": 7844,
      "Ashie": 7845,
      "Winne": 7846,
      "Shai": 7847,
      "mpempem": 7848,
      "ananmusifo": 7849,
      "Bull": 7850,
      "ahofasuo": 7851,
      "dɔnhwere": 7852,
      "draw": 7853,
      "constitutional": 7854,
      "first": 7855,
      "vigil": 7856,
      "license": 7857,
      "remony": 7858,
      "akwansideɛ": 7859,
      "Commonwealth": 7860,
      "AM": 7861,
      "Drew": 7862,
      "Hand": 7863,
      "Kane": 7864,
      "OT": 7865,
      "ahyehye": 7866,
      "ogu": 7867,
      "Ɛbɛduruu": 7868,
      "ɛgye": 7869,
      "yɛagyae": 7870,
      "wɔtaa": 7871,
      "mall": 7872,
      "renni": 7873,
      "bɛwu": 7874,
      "kɔkyerɛɛ": 7875,
      "food": 7876,
      "muhyɛn": 7877,
      "boss": 7878,
      "mmar": 7879,
      "kukuo": 7880,
      "Wɔhunuu": 7881,
      "akono": 7882,
      "akadeɛ": 7883,
      "dzin": 7884,
      "abusuafie": 7885,
      "NPPfoɔ": 7886,
      "ntaaboo": 7887,
      "dwirii": 7888,
      "Lib": 7889,
      "Akokɔ": 7890,
      "Ahmed": 7891,
      "cultural": 7892,
      "Ɔsɔfo": 7893,
      "anifest": 7894,
      "logistics": 7895,
      "Borɔdeɛ": 7896,
      "Abɛɛfo": 7897,
      "akyiwadeɛ": 7898,
      "Gye": 7899,
      "Ope": 7900,
      "Tal": 7901,
      "Ɛkɔ": 7902,
      "nou": 7903,
      "tufoɔ": 7904,
      "Metee": 7905,
      "mor": 7906,
      "monhwehwɛ": 7907,
      "nkonya": 7908,
      "wudi": 7909,
      "labo": 7910,
      "sisisisi": 7911,
      "Mour": 7912,
      "account": 7913,
      "chacha": 7914,
      "Delay": 7915,
      "seisei": 7916,
      "Budget": 7917,
      "Ɔkɔhyiaa": 7918,
      "apɔw": 7919,
      "ctory": 7920,
      "ɔkannifo": 7921,
      "mmɛrima": 7922,
      "MTN": 7923,
      "DopeNation": 7924,
      "Libya": 7925,
      "90": 7926,
      "Akɔ": 7927,
      "Okyere": 7928,
      "PC": 7929,
      "Plan": 7930,
      "impo": 7931,
      "vor": 7932,
      "review": 7933,
      "sesaa": 7934,
      "tour": 7935,
      "wuhyɛ": 7936,
      "akonta": 7937,
      "kaal": 7938,
      "yɛreko": 7939,
      "laun": 7940,
      "adum": 7941,
      "get": 7942,
      "wobɛma": 7943,
      "Net": 7944,
      "See": 7945,
      "ahɛn": 7946,
      "ahwɛso": 7947,
      "Domini": 7948,
      "tribu": 7949,
      "crisis": 7950,
      "ult": 7951,
      "Abusuakuo": 7952,
      "drug": 7953,
      "awerɛhyɛmu": 7954,
      "Economic": 7955,
      "Maxwell": 7956,
      "Task": 7957,
      "Australia": 7958,
      "Annan": 7959,
      "Kel": 7960,
      "cs": 7961,
      "ntua": 7962,
      "Ɔda": 7963,
      "yɛtɔ": 7964,
      "wall": 7965,
      "Meteeɛ": 7966,
      "torofoɔ": 7967,
      "robbe": 7968,
      "amanne": 7969,
      "bulance": 7970,
      "rɔn": 7971,
      "Wotumi": 7972,
      "Wokeka": 7973,
      "victi": 7974,
      "abobo": 7975,
      "Boat": 7976,
      "ging": 7977,
      "abɛbɔ": 7978,
      "Acquah": 7979,
      "ɔsebo": 7980,
      "proper": 7981,
      "ɛbae": 7982,
      "Poloo": 7983,
      "Saudi": 7984,
      "Digital": 7985,
      "twitwi": 7986,
      "Amanyɔkuo": 7987,
      "Chiefs": 7988,
      "shirt": 7989,
      "mark": 7990,
      "vents": 7991,
      "ntunu": 7992,
      "Isla": 7993,
      "Happy": 7994,
      "Mourinho": 7995,
      "Buah": 7996,
      "CD": 7997,
      "Clo": 7998,
      "ED": 7999
    },
    "merges": [
      [
        "y",
        "ɛ"
      ],
      [
        "a",
        "n"
      ],
      [
        "s",
        "ɛ"
      ],
      [
        "n",
        "o"
      ],
      [
        "w",
        "ɔ"
      ],
      [
        "n",
        "e"
      ],
      [
        "n",
        "a"
      ],
      [
        "s",
        "o"
      ],
      [
        "m",
        "a"
      ],
      [
        "y",
        "i"
      ],
      [
        "r",
        "e"
      ],
      [
        "yɛ",
        "n"
      ],
      [
        "a",
        "a"
      ],
      [
        "d",
        "e"
      ],
      [
        "b",
        "i"
      ],
      [
        "b",
        "ɛ"
      ],
      [
        "y",
        "e"
      ],
      [
        "s",
        "e"
      ],
      [
        "n",
        "i"
      ],
      [
        "k",
        "ɔ"
      ],
      [
        "t",
        "e"
      ],
      [
        "k",
        "a"
      ],
      [
        "m",
        "e"
      ],
      [
        "r",
        "a"
      ],
      [
        "h",
        "o"
      ],
      [
        "f",
        "o"
      ],
      [
        "d",
        "w"
      ],
      [
        "sɛ",
        "m"
      ],
      [
        "m",
        "u"
      ],
      [
        "r",
        "ɛ"
      ],
      [
        "n",
        "k"
      ],
      [
        "m",
        "an"
      ],
      [
        "w",
        "o"
      ],
      [
        "yi",
        "na"
      ],
      [
        "d",
        "i"
      ],
      [
        "k",
        "w"
      ],
      [
        "s",
        "i"
      ],
      [
        "wɔ",
        "n"
      ],
      [
        "k",
        "ye"
      ],
      [
        "n",
        "an"
      ],
      [
        "s",
        "a"
      ],
      [
        "ɛ",
        "n"
      ],
      [
        "p",
        "a"
      ],
      [
        "h",
        "w"
      ],
      [
        "a",
        "dw"
      ],
      [
        "b",
        "ɔ"
      ],
      [
        "kye",
        "rɛ"
      ],
      [
        "h",
        "ɔ"
      ],
      [
        "fo",
        "ɔ"
      ],
      [
        "b",
        "a"
      ],
      [
        "n",
        "yina"
      ],
      [
        "k",
        "o"
      ],
      [
        "ne",
        "a"
      ],
      [
        "ɛ",
        "yɛ"
      ],
      [
        "an",
        "i"
      ],
      [
        "t",
        "i"
      ],
      [
        "u",
        "ma"
      ],
      [
        "n",
        "ni"
      ],
      [
        "n",
        "so"
      ],
      [
        "a",
        "sɛm"
      ],
      [
        "u",
        "r"
      ],
      [
        "ɛ",
        "ma"
      ],
      [
        "nyina",
        "a"
      ],
      [
        "r",
        "i"
      ],
      [
        "y",
        "a"
      ],
      [
        "kw",
        "an"
      ],
      [
        "f",
        "a"
      ],
      [
        "S",
        "ɛ"
      ],
      [
        "n",
        "ne"
      ],
      [
        "t",
        "u"
      ],
      [
        "t",
        "a"
      ],
      [
        "hw",
        "ɛ"
      ],
      [
        "b",
        "e"
      ],
      [
        "f",
        "i"
      ],
      [
        "p",
        "ɛ"
      ],
      [
        "w",
        "a"
      ],
      [
        "de",
        "ɛ"
      ],
      [
        "nan",
        "so"
      ],
      [
        "a",
        "ra"
      ],
      [
        "h",
        "yɛ"
      ],
      [
        "m",
        "i"
      ],
      [
        "nne",
        "ɛma"
      ],
      [
        "e",
        "ne"
      ],
      [
        "b",
        "o"
      ],
      [
        "e",
        "ɛ"
      ],
      [
        "a",
        "se"
      ],
      [
        "s",
        "u"
      ],
      [
        "adw",
        "uma"
      ],
      [
        "ɛ",
        "sɛ"
      ],
      [
        "ɛ",
        "bɛ"
      ],
      [
        "ɔ",
        "man"
      ],
      [
        "M",
        "e"
      ],
      [
        "m",
        "o"
      ],
      [
        "t",
        "o"
      ],
      [
        "b",
        "aa"
      ],
      [
        "m",
        "ma"
      ],
      [
        "h",
        "u"
      ],
      [
        "d",
        "a"
      ],
      [
        "n",
        "n"
      ],
      [
        "nk",
        "o"
      ],
      [
        "s",
        "aa"
      ],
      [
        "o",
        "bi"
      ],
      [
        "kw",
        "a"
      ],
      [
        "nk",
        "ur"
      ],
      [
        "r",
        "o"
      ],
      [
        "a",
        "man"
      ],
      [
        "Ɛ",
        "yɛ"
      ],
      [
        "adw",
        "ene"
      ],
      [
        "ni",
        "m"
      ],
      [
        "ɛ",
        "wɔ"
      ],
      [
        "ani",
        "m"
      ],
      [
        "ɔ",
        "foɔ"
      ],
      [
        "g",
        "ye"
      ],
      [
        "k",
        "u"
      ],
      [
        "h",
        "i"
      ],
      [
        "W",
        "ɔ"
      ],
      [
        "o",
        "n"
      ],
      [
        "e",
        "n"
      ],
      [
        "n",
        "yɛ"
      ],
      [
        "tu",
        "mi"
      ],
      [
        "de",
        "n"
      ],
      [
        "A",
        "nan"
      ],
      [
        "Anan",
        "se"
      ],
      [
        "N",
        "an"
      ],
      [
        "g",
        "yina"
      ],
      [
        "a",
        "k"
      ],
      [
        "Nan",
        "so"
      ],
      [
        "n",
        "sa"
      ],
      [
        "yɛ",
        "bɛ"
      ],
      [
        "p",
        "i"
      ],
      [
        "kɔ",
        "ɔ"
      ],
      [
        "h",
        "a"
      ],
      [
        "p",
        "o"
      ],
      [
        "ɛn",
        "yɛ"
      ],
      [
        "a",
        "g"
      ],
      [
        "kwa",
        "re"
      ],
      [
        "yi",
        "e"
      ],
      [
        "b",
        "u"
      ],
      [
        "d",
        "o"
      ],
      [
        "an",
        "a"
      ],
      [
        "nkur",
        "ɔfoɔ"
      ],
      [
        "ɛ",
        "fa"
      ],
      [
        "n",
        "te"
      ],
      [
        "a",
        "yɛ"
      ],
      [
        "nni",
        "pa"
      ],
      [
        "a",
        "d"
      ],
      [
        "w",
        "e"
      ],
      [
        "a",
        "ma"
      ],
      [
        "hi",
        "a"
      ],
      [
        "k",
        "ɛ"
      ],
      [
        "n",
        "sɛm"
      ],
      [
        "G",
        "h"
      ],
      [
        "Ɛ",
        "no"
      ],
      [
        "a",
        "kwan"
      ],
      [
        "Gh",
        "ana"
      ],
      [
        "b",
        "an"
      ],
      [
        "l",
        "i"
      ],
      [
        "w",
        "u"
      ],
      [
        "ni",
        "pa"
      ],
      [
        "m",
        "m"
      ],
      [
        "dw",
        "uma"
      ],
      [
        "bɔ",
        "ɔ"
      ],
      [
        "n",
        "kɔ"
      ],
      [
        "a",
        "ho"
      ],
      [
        "ɛ",
        "re"
      ],
      [
        "Ɛ",
        "nyɛ"
      ],
      [
        "bɛ",
        "yɛ"
      ],
      [
        "n",
        "u"
      ],
      [
        "bo",
        "a"
      ],
      [
        "ase",
        "ɛ"
      ],
      [
        "no",
        "kware"
      ],
      [
        "si",
        "ka"
      ],
      [
        "n",
        "ti"
      ],
      [
        "a",
        "ko"
      ],
      [
        "r",
        "ɔ"
      ],
      [
        "so",
        "ɔ"
      ],
      [
        "m",
        "me"
      ],
      [
        "Y",
        "ɛn"
      ],
      [
        "m",
        "mo"
      ],
      [
        "ka",
        "sa"
      ],
      [
        "wɔ",
        "re"
      ],
      [
        "hw",
        "e"
      ],
      [
        "di",
        "e"
      ],
      [
        "fi",
        "ri"
      ],
      [
        "pi",
        "i"
      ],
      [
        "N",
        "a"
      ],
      [
        "a",
        "ba"
      ],
      [
        "w",
        "i"
      ],
      [
        "kɛ",
        "se"
      ],
      [
        "a",
        "t"
      ],
      [
        "l",
        "e"
      ],
      [
        "mm",
        "ɔ"
      ],
      [
        "an",
        "e"
      ],
      [
        "a",
        "deɛ"
      ],
      [
        "ɛbɛ",
        "ma"
      ],
      [
        "p",
        "aa"
      ],
      [
        "ɔ",
        "re"
      ],
      [
        "bi",
        "ara"
      ],
      [
        "te",
        "ɛ"
      ],
      [
        "be",
        "re"
      ],
      [
        "y",
        "ɔ"
      ],
      [
        "ak",
        "yi"
      ],
      [
        "h",
        "yi"
      ],
      [
        "ɔ",
        "yɛ"
      ],
      [
        "obi",
        "ara"
      ],
      [
        "sɛ",
        "nea"
      ],
      [
        "ɛ",
        "kyerɛ"
      ],
      [
        "ɔ",
        "bɛ"
      ],
      [
        "a",
        "kɔ"
      ],
      [
        "h",
        "ye"
      ],
      [
        "an",
        "aa"
      ],
      [
        "n",
        "ya"
      ],
      [
        "wɔ",
        "bɛ"
      ],
      [
        "K",
        "o"
      ],
      [
        "k",
        "ra"
      ],
      [
        "ag",
        "o"
      ],
      [
        "wɔ",
        "wɔ"
      ],
      [
        "baa",
        "ko"
      ],
      [
        "h",
        "e"
      ],
      [
        "yɛ",
        "hwɛ"
      ],
      [
        "c",
        "e"
      ],
      [
        "ka",
        "e"
      ],
      [
        "g",
        "u"
      ],
      [
        "aman",
        "yɔ"
      ],
      [
        "kyerɛ",
        "ɛ"
      ],
      [
        "Ɛ",
        "sɛ"
      ],
      [
        "r",
        "an"
      ],
      [
        "nko",
        "nim"
      ],
      [
        "d",
        "ɔ"
      ],
      [
        "n",
        "t"
      ],
      [
        "ɛfa",
        "ta"
      ],
      [
        "we",
        "rɛ"
      ],
      [
        "m",
        "p"
      ],
      [
        "ɔ",
        "wɔ"
      ],
      [
        "a",
        "l"
      ],
      [
        "dw",
        "o"
      ],
      [
        "re",
        "e"
      ],
      [
        "n",
        "ka"
      ],
      [
        "be",
        "a"
      ],
      [
        "k",
        "aa"
      ],
      [
        "an",
        "an"
      ],
      [
        "m",
        "mi"
      ],
      [
        "N",
        "nipa"
      ],
      [
        "bɔɔ",
        "l"
      ],
      [
        "yɛ",
        "ɛ"
      ],
      [
        "hyi",
        "a"
      ],
      [
        "f",
        "u"
      ],
      [
        "d",
        "u"
      ],
      [
        "ur",
        "u"
      ],
      [
        "mmo",
        "m"
      ],
      [
        "amanyɔ",
        "sɛm"
      ],
      [
        "nk",
        "wa"
      ],
      [
        "s",
        "t"
      ],
      [
        "si",
        "e"
      ],
      [
        "fo",
        "fo"
      ],
      [
        "an",
        "o"
      ],
      [
        "ri",
        "ma"
      ],
      [
        "n",
        "g"
      ],
      [
        "wɔ",
        "de"
      ],
      [
        "a",
        "r"
      ],
      [
        "kɛse",
        "ɛ"
      ],
      [
        "Ko",
        "fi"
      ],
      [
        "a",
        "ka"
      ],
      [
        "a",
        "di"
      ],
      [
        "ɛ",
        "no"
      ],
      [
        "n",
        "na"
      ],
      [
        "d",
        "aa"
      ],
      [
        "ɛre",
        "kɔ"
      ],
      [
        "ani",
        "gye"
      ],
      [
        "a",
        "so"
      ],
      [
        "te",
        "na"
      ],
      [
        "d",
        "ɛn"
      ],
      [
        "baa",
        "bi"
      ],
      [
        "ɛ",
        "kɔ"
      ],
      [
        "k",
        "e"
      ],
      [
        "Wɔ",
        "n"
      ],
      [
        "hye",
        "hyɛ"
      ],
      [
        "w",
        "an"
      ],
      [
        "ti",
        "on"
      ],
      [
        "hu",
        "nu"
      ],
      [
        "su",
        "o"
      ],
      [
        "n",
        "ta"
      ],
      [
        "f",
        "e"
      ],
      [
        "t",
        "ɔ"
      ],
      [
        "r",
        "aa"
      ],
      [
        "hwe",
        "hwɛ"
      ],
      [
        "ma",
        "a"
      ],
      [
        "S",
        "aa"
      ],
      [
        "b",
        "ree"
      ],
      [
        "g",
        "ya"
      ],
      [
        "su",
        "a"
      ],
      [
        "d",
        "uru"
      ],
      [
        "n",
        "y"
      ],
      [
        "yi",
        "ye"
      ],
      [
        "anan",
        "se"
      ],
      [
        "be",
        "bree"
      ],
      [
        "m",
        "fa"
      ],
      [
        "no",
        "m"
      ],
      [
        "d",
        "an"
      ],
      [
        "s",
        "an"
      ],
      [
        "yɛ",
        "yɛ"
      ],
      [
        "c",
        "o"
      ],
      [
        "f",
        "ra"
      ],
      [
        "t",
        "aa"
      ],
      [
        "e",
        "r"
      ],
      [
        "yɛ",
        "re"
      ],
      [
        "W",
        "o"
      ],
      [
        "2",
        "0"
      ],
      [
        "a",
        "de"
      ],
      [
        "l",
        "a"
      ],
      [
        "wo",
        "de"
      ],
      [
        "ku",
        "ra"
      ],
      [
        "ɔ",
        "de"
      ],
      [
        "yi",
        "n"
      ],
      [
        "an",
        "ya"
      ],
      [
        "en",
        "u"
      ],
      [
        "a",
        "ban"
      ],
      [
        "nn",
        "ɛ"
      ],
      [
        "ɔ",
        "pɛ"
      ],
      [
        "a",
        "bɔ"
      ],
      [
        "wo",
        "yɛ"
      ],
      [
        "m",
        "pa"
      ],
      [
        "ran",
        "teɛ"
      ],
      [
        "yɛ",
        "de"
      ],
      [
        "ɛ",
        "te"
      ],
      [
        "a",
        "te"
      ],
      [
        "ur",
        "o"
      ],
      [
        "a",
        "sa"
      ],
      [
        "wan",
        "wa"
      ],
      [
        "nte",
        "aseɛ"
      ],
      [
        "sɛ",
        "e"
      ],
      [
        "ago",
        "rɔ"
      ],
      [
        "t",
        "y"
      ],
      [
        "kɔ",
        "sɛm"
      ],
      [
        "ad",
        "u"
      ],
      [
        "ɛ",
        "hia"
      ],
      [
        "akwan",
        "tu"
      ],
      [
        "n",
        "wanwa"
      ],
      [
        "mma",
        "ra"
      ],
      [
        "f",
        "ɛ"
      ],
      [
        "a",
        "s"
      ],
      [
        "nk",
        "yɛn"
      ],
      [
        "e",
        "bi"
      ],
      [
        "wɔ",
        "yɛ"
      ],
      [
        "h",
        "ene"
      ],
      [
        "ɔ",
        "den"
      ],
      [
        "aso",
        "m"
      ],
      [
        "c",
        "i"
      ],
      [
        "mmi",
        "enu"
      ],
      [
        "ɛbɛ",
        "yɛ"
      ],
      [
        "a",
        "bu"
      ],
      [
        "wo",
        "m"
      ],
      [
        "yɛ",
        "wɔ"
      ],
      [
        "bo",
        "m"
      ],
      [
        "m",
        "po"
      ],
      [
        "aho",
        "ɔden"
      ],
      [
        "asom",
        "dwo"
      ],
      [
        "ku",
        "o"
      ],
      [
        "ɔ",
        "fo"
      ],
      [
        "p",
        "e"
      ],
      [
        "wo",
        "pɛ"
      ],
      [
        "N",
        "o"
      ],
      [
        "an",
        "sa"
      ],
      [
        "r",
        "t"
      ],
      [
        "hyɛ",
        "ɛ"
      ],
      [
        "anigye",
        "ɛ"
      ],
      [
        "n",
        "nyina"
      ],
      [
        "ananse",
        "sɛm"
      ],
      [
        "ɛn",
        "sɛ"
      ],
      [
        "20",
        "2"
      ],
      [
        "wi",
        "ase"
      ],
      [
        "p",
        "ɔ"
      ],
      [
        "bɔ",
        "ne"
      ],
      [
        "nk",
        "u"
      ],
      [
        "mme",
        "rɛ"
      ],
      [
        "l",
        "o"
      ],
      [
        "v",
        "i"
      ],
      [
        "di",
        "i"
      ],
      [
        "si",
        "si"
      ],
      [
        "an",
        "kasa"
      ],
      [
        "ko",
        "raa"
      ],
      [
        "yɛ",
        "kɔ"
      ],
      [
        "te",
        "e"
      ],
      [
        "yɛn",
        "ni"
      ],
      [
        "k",
        "i"
      ],
      [
        "n",
        "suo"
      ],
      [
        "ɔman",
        "foɔ"
      ],
      [
        "nta",
        "m"
      ],
      [
        "ne",
        "ɛ"
      ],
      [
        "do",
        "do"
      ],
      [
        "na",
        "m"
      ],
      [
        "dwuma",
        "die"
      ],
      [
        "kra",
        "man"
      ],
      [
        "ak",
        "an"
      ],
      [
        "be",
        "rɛ"
      ],
      [
        "nk",
        "ye"
      ],
      [
        "ya",
        "re"
      ],
      [
        "ti",
        "ri"
      ],
      [
        "k",
        "yɛ"
      ],
      [
        "asomdwo",
        "eɛ"
      ],
      [
        "a",
        "bo"
      ],
      [
        "me",
        "pɛ"
      ],
      [
        "di",
        "n"
      ],
      [
        "a",
        "m"
      ],
      [
        "aba",
        "kɔsɛm"
      ],
      [
        "an",
        "yin"
      ],
      [
        "fofo",
        "ro"
      ],
      [
        "d",
        "z"
      ],
      [
        "bɛ",
        "kɔ"
      ],
      [
        "asa",
        "se"
      ],
      [
        "ti",
        "e"
      ],
      [
        "i",
        "n"
      ],
      [
        "wɔ",
        "a"
      ],
      [
        "fi",
        "e"
      ],
      [
        "b",
        "ra"
      ],
      [
        "d",
        "ɛ"
      ],
      [
        "nkur",
        "ɔfo"
      ],
      [
        "ko",
        "ma"
      ],
      [
        "fa",
        "m"
      ],
      [
        "to",
        "o"
      ],
      [
        "kɔ",
        "kɔɔ"
      ],
      [
        "te",
        "r"
      ],
      [
        "nkɔ",
        "mmɔ"
      ],
      [
        "t",
        "wa"
      ],
      [
        "bi",
        "ri"
      ],
      [
        "so",
        "ro"
      ],
      [
        "ɛ",
        "firi"
      ],
      [
        "Ɛ",
        "nnɛ"
      ],
      [
        "k",
        "an"
      ],
      [
        "ha",
        "w"
      ],
      [
        "l",
        "l"
      ],
      [
        "nkɔ",
        "soɔ"
      ],
      [
        "n",
        "to"
      ],
      [
        "tu",
        "m"
      ],
      [
        "mmɔ",
        "den"
      ],
      [
        "fofo",
        "rɔ"
      ],
      [
        "M",
        "o"
      ],
      [
        "N",
        "k"
      ],
      [
        "t",
        "ra"
      ],
      [
        "bɔɔl",
        "o"
      ],
      [
        "nkye",
        "rɛ"
      ],
      [
        "Ɔ",
        "se"
      ],
      [
        "ako",
        "ma"
      ],
      [
        "No",
        "kware"
      ],
      [
        "re",
        "ka"
      ],
      [
        "ba",
        "rima"
      ],
      [
        "e",
        "i"
      ],
      [
        "bɛ",
        "ka"
      ],
      [
        "K",
        "wa"
      ],
      [
        "Me",
        "pɛ"
      ],
      [
        "at",
        "wa"
      ],
      [
        "v",
        "e"
      ],
      [
        "re",
        "kɔ"
      ],
      [
        "ɛ",
        "ho"
      ],
      [
        "g",
        "e"
      ],
      [
        "M",
        "ma"
      ],
      [
        "r",
        "u"
      ],
      [
        "yɛ",
        "pɛ"
      ],
      [
        "a",
        "si"
      ],
      [
        "te",
        "te"
      ],
      [
        "r",
        "s"
      ],
      [
        "a",
        "w"
      ],
      [
        "dw",
        "ene"
      ],
      [
        "hwe",
        "e"
      ],
      [
        "wɔ",
        "pɛ"
      ],
      [
        "p",
        "anyin"
      ],
      [
        "ɛ",
        "da"
      ],
      [
        "wo",
        "te"
      ],
      [
        "ba",
        "sa"
      ],
      [
        "tu",
        "n"
      ],
      [
        "B",
        "e"
      ],
      [
        "ɛ",
        "kɔɔ"
      ],
      [
        "nim",
        "deɛ"
      ],
      [
        "si",
        "i"
      ],
      [
        "se",
        "sa"
      ],
      [
        "tun",
        "tum"
      ],
      [
        "ɔ",
        "ne"
      ],
      [
        "C",
        "o"
      ],
      [
        "adwuma",
        "yɛ"
      ],
      [
        "ya",
        "m"
      ],
      [
        "Ɛ",
        "wɔ"
      ],
      [
        "n",
        "hyehyɛ"
      ],
      [
        "ako",
        "ko"
      ],
      [
        "nsa",
        "m"
      ],
      [
        "na",
        "l"
      ],
      [
        "u",
        "m"
      ],
      [
        "me",
        "nt"
      ],
      [
        "k",
        "yi"
      ],
      [
        "o",
        "f"
      ],
      [
        "m",
        "mu"
      ],
      [
        "\"",
        "."
      ],
      [
        "fi",
        "taa"
      ],
      [
        "u",
        "e"
      ],
      [
        "a",
        "ta"
      ],
      [
        "yɛ",
        "ka"
      ],
      [
        "ny",
        "ansa"
      ],
      [
        "su",
        "su"
      ],
      [
        "m",
        "fo"
      ],
      [
        "ɔ",
        "haw"
      ],
      [
        "a",
        "werɛ"
      ],
      [
        "mme",
        "ranteɛ"
      ],
      [
        "e",
        "te"
      ],
      [
        "c",
        "a"
      ],
      [
        "M",
        "a"
      ],
      [
        "bɛ",
        "ba"
      ],
      [
        "a",
        "to"
      ],
      [
        "fu",
        "o"
      ],
      [
        "A",
        "ma"
      ],
      [
        "yɛn",
        "hwɛ"
      ],
      [
        "f",
        "eɛ"
      ],
      [
        "nkur",
        "an"
      ],
      [
        "po",
        "rt"
      ],
      [
        "t",
        "h"
      ],
      [
        "biri",
        "bi"
      ],
      [
        "n",
        "ɛ"
      ],
      [
        "E",
        "bi"
      ],
      [
        "c",
        "k"
      ],
      [
        "me",
        "ka"
      ],
      [
        "ano",
        "m"
      ],
      [
        "202",
        "5"
      ],
      [
        "ho",
        "w"
      ],
      [
        "yɛn",
        "yɛ"
      ],
      [
        "g",
        "o"
      ],
      [
        "gya",
        "e"
      ],
      [
        "yɛ",
        "bɔ"
      ],
      [
        "ɔ",
        "kwan"
      ],
      [
        "akan",
        "sie"
      ],
      [
        "r",
        "y"
      ],
      [
        "du",
        "a"
      ],
      [
        "ku",
        "u"
      ],
      [
        "D",
        "r"
      ],
      [
        "u",
        "a"
      ],
      [
        "nn",
        "wom"
      ],
      [
        "tiri",
        "m"
      ],
      [
        "Nk",
        "ur"
      ],
      [
        "mmo",
        "a"
      ],
      [
        "nka",
        "bom"
      ],
      [
        "ani",
        "n"
      ],
      [
        "t",
        "we"
      ],
      [
        "nk",
        "ra"
      ],
      [
        "Y",
        "aw"
      ],
      [
        "mma",
        "a"
      ],
      [
        "akoko",
        "duru"
      ],
      [
        "E",
        "yi"
      ],
      [
        "ki",
        "ta"
      ],
      [
        "ɔ",
        "te"
      ],
      [
        "ɛ",
        "ne"
      ],
      [
        "bi",
        "sa"
      ],
      [
        "a",
        "hyia"
      ],
      [
        "at",
        "aa"
      ],
      [
        "re",
        "n"
      ],
      [
        "ɔ",
        "hene"
      ],
      [
        "ɛn",
        "ni"
      ],
      [
        "B",
        "o"
      ],
      [
        "me",
        "hwɛ"
      ],
      [
        "a",
        "kyerɛ"
      ],
      [
        "M",
        "i"
      ],
      [
        "yɛ",
        "di"
      ],
      [
        "bɔɔlo",
        "bɔ"
      ],
      [
        "m",
        "fi"
      ],
      [
        "f",
        "rɛ"
      ],
      [
        "ani",
        "da"
      ],
      [
        "ti",
        "a"
      ],
      [
        "s",
        "s"
      ],
      [
        "adu",
        "ane"
      ],
      [
        "n",
        "sɛ"
      ],
      [
        "a",
        "bra"
      ],
      [
        "c",
        "h"
      ],
      [
        "Ɔ",
        "man"
      ],
      [
        "nne",
        "yɛɛ"
      ],
      [
        "e",
        "fi"
      ],
      [
        "nn",
        "yɛ"
      ],
      [
        "h",
        "yɛn"
      ],
      [
        "ɔ",
        "so"
      ],
      [
        "me",
        "hu"
      ],
      [
        "A",
        "ane"
      ],
      [
        "abra",
        "bɔ"
      ],
      [
        "nte",
        "n"
      ],
      [
        "a",
        "fe"
      ],
      [
        "mma",
        "rima"
      ],
      [
        "ɛ",
        "de"
      ],
      [
        "dz",
        "e"
      ],
      [
        "a",
        "hyɛ"
      ],
      [
        "A",
        "f"
      ],
      [
        "W",
        "ei"
      ],
      [
        "se",
        "ɛ"
      ],
      [
        "m",
        "feɛ"
      ],
      [
        "pɔ",
        "n"
      ],
      [
        "D",
        "a"
      ],
      [
        "ɛ",
        "na"
      ],
      [
        "ad",
        "an"
      ],
      [
        "J",
        "u"
      ],
      [
        "abu",
        "sua"
      ],
      [
        "g",
        "i"
      ],
      [
        "ad",
        "aa"
      ],
      [
        "yɛbɛ",
        "ka"
      ],
      [
        "Sɛ",
        "nea"
      ],
      [
        "l",
        "y"
      ],
      [
        "wi",
        "e"
      ],
      [
        "S",
        "i"
      ],
      [
        "po",
        "no"
      ],
      [
        "bɛyɛ",
        "ɛ"
      ],
      [
        "s",
        "ti"
      ],
      [
        "nte",
        "ɛ"
      ],
      [
        "ba",
        "eɛ"
      ],
      [
        "ase",
        "tena"
      ],
      [
        "pa",
        "pa"
      ],
      [
        "ɔ",
        "barima"
      ],
      [
        "o",
        "nal"
      ],
      [
        "yɛbɛ",
        "tumi"
      ],
      [
        "wo",
        "bɛ"
      ],
      [
        "a",
        "yare"
      ],
      [
        "o",
        "r"
      ],
      [
        "hɔ",
        "n"
      ],
      [
        "dw",
        "en"
      ],
      [
        "nna",
        "adaa"
      ],
      [
        "po",
        "li"
      ],
      [
        "t",
        "w"
      ],
      [
        "n",
        "hwɛ"
      ],
      [
        "mfa",
        "soɔ"
      ],
      [
        "yɛbɛ",
        "yɛ"
      ],
      [
        "s",
        "ta"
      ],
      [
        "k",
        "uro"
      ],
      [
        "a",
        "pa"
      ],
      [
        "bi",
        "o"
      ],
      [
        "nn",
        "ya"
      ],
      [
        "kyerɛ",
        "kyerɛ"
      ],
      [
        "akwan",
        "ya"
      ],
      [
        "ɛbɛ",
        "boa"
      ],
      [
        "Kwa",
        "me"
      ],
      [
        "be",
        "tumi"
      ],
      [
        "akyi",
        "ri"
      ],
      [
        "anim",
        "foɔ"
      ],
      [
        "ko",
        "ro"
      ],
      [
        "a",
        "bɛ"
      ],
      [
        "ɛbɛ",
        "ba"
      ],
      [
        "su",
        "kuu"
      ],
      [
        "p",
        "anin"
      ],
      [
        "to",
        "ɔ"
      ],
      [
        "ɔ",
        "dɔ"
      ],
      [
        "N",
        "e"
      ],
      [
        "a",
        "sɛ"
      ],
      [
        "ago",
        "die"
      ],
      [
        "ɛn",
        "nɛ"
      ],
      [
        "kye",
        "re"
      ],
      [
        "kwa",
        "eɛ"
      ],
      [
        "Nkur",
        "ɔfoɔ"
      ],
      [
        "A",
        "c"
      ],
      [
        "A",
        "ba"
      ],
      [
        "dwo",
        "m"
      ],
      [
        "nn",
        "wa"
      ],
      [
        "t",
        "s"
      ],
      [
        "ɔ",
        "no"
      ],
      [
        "ɔ",
        "hyɛ"
      ],
      [
        "an",
        "ka"
      ],
      [
        "mo",
        "mma"
      ],
      [
        "ayare",
        "sa"
      ],
      [
        "N",
        "i"
      ],
      [
        "ɛn",
        "sa"
      ],
      [
        "wɔre",
        "yɛ"
      ],
      [
        "wo",
        "se"
      ],
      [
        "ama",
        "mmerɛ"
      ],
      [
        "anida",
        "soɔ"
      ],
      [
        "daa",
        "kye"
      ],
      [
        "ta",
        "m"
      ],
      [
        "s",
        "ra"
      ],
      [
        "ɔ",
        "se"
      ],
      [
        "c",
        "y"
      ],
      [
        "tu",
        "o"
      ],
      [
        "Ɔ",
        "kraman"
      ],
      [
        "g",
        "h"
      ],
      [
        "nu",
        "anom"
      ],
      [
        "a",
        "fa"
      ],
      [
        "ɔ",
        "kraman"
      ],
      [
        "hunu",
        "u"
      ],
      [
        "re",
        "ba"
      ],
      [
        "p",
        "ro"
      ],
      [
        "o",
        "l"
      ],
      [
        "Af",
        "ri"
      ],
      [
        "b",
        "le"
      ],
      [
        "bɛ",
        "tumi"
      ],
      [
        "ɛma",
        "a"
      ],
      [
        "nhyehyɛ",
        "eɛ"
      ],
      [
        "f",
        "aa"
      ],
      [
        "si",
        "a"
      ],
      [
        "ye",
        "ra"
      ],
      [
        "an",
        "ko"
      ],
      [
        "o",
        "u"
      ],
      [
        "sɛ",
        "ɛ"
      ],
      [
        "se",
        "re"
      ],
      [
        "ɛ",
        "m"
      ],
      [
        "ɔ",
        "baa"
      ],
      [
        "wo",
        "ate"
      ],
      [
        "w",
        "ɛ"
      ],
      [
        "yɛ",
        "ma"
      ],
      [
        "ɛ",
        "ba"
      ],
      [
        "sie",
        "sie"
      ],
      [
        "ɔ",
        "n"
      ],
      [
        "C",
        "O"
      ],
      [
        "sɛ",
        "deɛ"
      ],
      [
        "wɔ",
        "te"
      ],
      [
        "aman",
        "eɛ"
      ],
      [
        "c",
        "ra"
      ],
      [
        "Ɛ",
        "nsɛ"
      ],
      [
        "ɛ",
        "hyɛ"
      ],
      [
        "P",
        "o"
      ],
      [
        "ka",
        "eɛ"
      ],
      [
        "c",
        "on"
      ],
      [
        "v",
        "er"
      ],
      [
        "kyerɛ",
        "w"
      ],
      [
        "re",
        "yɛ"
      ],
      [
        "ke",
        "te"
      ],
      [
        "hyi",
        "aa"
      ],
      [
        "to",
        "r"
      ],
      [
        "a",
        "c"
      ],
      [
        "asi",
        "ane"
      ],
      [
        "akwan",
        "kyerɛ"
      ],
      [
        "se",
        "n"
      ],
      [
        "efi",
        "sɛ"
      ],
      [
        "Si",
        "ka"
      ],
      [
        "S",
        "ta"
      ],
      [
        "J",
        "o"
      ],
      [
        "n",
        "su"
      ],
      [
        "yɛ",
        "hu"
      ],
      [
        "re",
        "hwɛ"
      ],
      [
        "N",
        "P"
      ],
      [
        "ɛ",
        "tɔ"
      ],
      [
        "mp",
        "animfoɔ"
      ],
      [
        "nn",
        "ye"
      ],
      [
        "g",
        "y"
      ],
      [
        "a",
        "boa"
      ],
      [
        "ro",
        "w"
      ],
      [
        "wo",
        "a"
      ],
      [
        "R",
[...]
