{
  "version": "1.0",
  "truncation": null,
  "padding": null,
  "added_tokens": [
    {
      "id": 0,
      "content": "[PAD]",
      "single_word": false,
      "lstrip": false,
      "rstrip": false,
      "normalized": false,
      "special": true
    },
    {
      "id": 1,
      "content": "[UNK]",
      "single_word": false,
      "lstrip": false,
      "rstrip": false,
      "normalized": false,
      "special": true
    },
    {
      "id": 2,
      "content": "[CLS]",
      "single_word": false,
      "lstrip": false,
      "rstrip": false,
      "normalized": false,
      "special": true
    },
    {
      "id": 3,
      "content": "[SEP]",
      "single_word": false,
      "lstrip": false,
      "rstrip": false,
      "normalized": false,
      "special": true
    },
    {
      "id": 4,
      "content": "[MASK]",
      "single_word": false,
      "lstrip": false,
      "rstrip": false,
      "normalized": false,
      "special": true
    },
    {
      "id": 5,
      "content": "<s>",
      "single_word": false,
      "lstrip": false,
      "rstrip": false,
      "normalized": false,
      "special": true
    },
    {
      "id": 6,
      "content": "</s>",
      "single_word": false,
      "lstrip": false,
      "rstrip": false,
      "normalized": false,
      "special": true
    },
    {
      "id": 7,
      "content": "<pad>",
      "single_word": false,
      "lstrip": false,
      "rstrip": false,
      "normalized": false,
      "special": true
    }
  ],
  "normalizer": null,
  "pre_tokenizer": {
    "type": "Whitespace"
  },
  "post_processor": null,
  "decoder": null,
  "model": {
    "type": "BPE",
    "dropout": null,
    "unk_token": "[UNK]",
    "continuing_subword_prefix": null,
    "end_of_word_suffix": null,
    "fuse_unk": false,
    "byte_fallback": false,
    "ignore_merges": false,
    "vocab": {
      "[PAD]": 0,
      "[UNK]": 1,
      "[CLS]": 2,
      "[SEP]": 3,
      "[MASK]": 4,
      "<s>": 5,
      "</s>": 6,
      "<pad>": 7,
      "!": 8,
      "\"": 9,
      "#": 10,
      "$": 11,
      "%": 12,
      "&": 13,
      "'": 14,
      "(": 15,
      ")": 16,
      "*": 17,
      "+": 18,
      ",": 19,
      "-": 20,
      ".": 21,
      "/": 22,
      "0": 23,
      "1": 24,
      "2": 25,
      "3": 26,
      "4": 27,
      "5": 28,
      "6": 29,
      "7": 30,
      "8": 31,
      "9": 32,
      ":": 33,
      ";": 34,
      "=": 35,
      "?": 36,
      "@": 37,
      "A": 38,
      "B": 39,
      "C": 40,
      "D": 41,
      "E": 42,
      "F": 43,
      "G": 44,
      "H": 45,
      "I": 46,
      "J": 47,
      "K": 48,
      "L": 49,
      "M": 50,
      "N": 51,
      "O": 52,
      "P": 53,
      "Q": 54,
      "R": 55,
      "S": 56,
      "T": 57,
      "U": 58,
      "V": 59,
      "W": 60,
      "X": 61,
      "Y": 62,
      "Z": 63,
      "[": 64,
      "]": 65,
      "_": 66,
      "`": 67,
      "a": 68,
      "b": 69,
      "c": 70,
      "d": 71,
      "e": 72,
      "f": 73,
      "g": 74,
      "h": 75,
      "i": 76,
      "j": 77,
      "k": 78,
      "l": 79,
      "m": 80,
      "n": 81,
      "o": 82,
      "p": 83,
      "q": 84,
      "r": 85,
      "s": 86,
      "t": 87,
      "u": 88,
      "v": 89,
      "w": 90,
      "x": 91,
      "y": 92,
      "z": 93,
      "¢": 94,
      "£": 95,
      "°": 96,
      "±": 97,
      "Å": 98,
      "Ø": 99,
      "ß": 100,
      "à": 101,
      "á": 102,
      "â": 103,
      "ã": 104,
      "ä": 105,
      "æ": 106,
      "ç": 107,
      "è": 108,
      "é": 109,
      "ê": 110,
      "í": 111,
      "î": 112,
      "ï": 113,
      "ñ": 114,
      "ò": 115,
      "ó": 116,
      "ô": 117,
      "õ": 118,
      "ö": 119,
      "ø": 120,
      "ú": 121,
      "ü": 122,
      "ā": 123,
      "ą": 124,
      "ć": 125,
      "č": 126,
      "ĩ": 127,
      "ī": 128,
      "ı": 129,
      "ń": 130,
      "ŋ": 131,
      "ō": 132,
      "Ś": 133,
      "š": 134,
      "ũ": 135,
      "ū": 136,
      "Ɔ": 137,
      "Ɛ": 138,
      "ǝ": 139,
      "ɑ": 140,
      "ɓ": 141,
      "ɔ": 142,
      "ɛ": 143,
      "ɲ": 144,
      "́": 145,
      "ε": 146,
      "е": 147,
      "р": 148,
      "इ": 149,
      "ई": 150,
      "फ": 151,
      "ल": 152,
      "ह": 153,
      "ा": 154,
      "ẹ": 155,
      "ẽ": 156,
      "ụ": 157,
      "–": 158,
      "—": 159,
      "‘": 160,
      "’": 161,
      "“": 162,
      "”": 163,
      "…": 164,
      "€": 165,
      "₵": 166,
      "ジ": 167,
      "ョ": 168,
      "网": 169,
      "，": 170,
      "🦅": 171,
      "yɛ": 172,
      "sɛ": 173,
      "an": 174,
      "no": 175,
      "ne": 176,
      "wɔ": 177,
      "na": 178,
      "ma": 179,
      "so": 180,
      "yi": 181,
      "yɛn": 182,
      "re": 183,
      "bɛ": 184,
      "de": 185,
      "ye": 186,
      "aa": 187,
      "se": 188,
      "ni": 189,
      "kɔ": 190,
      "ka": 191,
      "me": 192,
      "te": 193,
      "bi": 194,
      "sɛm": 195,
      "ra": 196,
      "dw": 197,
      "ho": 198,
      "rɛ": 199,
      "fo": 200,
      "man": 201,
      "kw": 202,
      "wo": 203,
      "mu": 204,
      "di": 205,
      "nk": 206,
      "nan": 207,
      "kye": 208,
      "yina": 209,
      "ɛn": 210,
      "adw": 211,
      "kyerɛ": 212,
      "hw": 213,
      "sa": 214,
      "nea": 215,
      "wɔn": 216,
      "nyina": 217,
      "bɔ": 218,
      "pa": 219,
      "ɛyɛ": 220,
      "foɔ": 221,
      "asɛm": 222,
      "ba": 223,
      "uma": 224,
      "nni": 225,
      "ti": 226,
      "si": 227,
      "ani": 228,
      "ɛma": 229,
      "Sɛ": 230,
      "ur": 231,
      "nyinaa": 232,
      "kwan": 233,
      "nne": 234,
      "ya": 235,
      "fa": 236,
      "hwɛ": 237,
      "ri": 238,
      "hɔ": 239,
      "pɛ": 240,
      "nanso": 241,
      "ko": 242,
      "ara": 243,
      "tu": 244,
      "nneɛma": 245,
      "fi": 246,
      "ene": 247,
      "nso": 248,
      "deɛ": 249,
      "ta": 250,
      "be": 251,
      "eɛ": 252,
      "mi": 253,
      "ase": 254,
      "kwa": 255,
      "ɛsɛ": 256,
      "ɛbɛ": 257,
      "bo": 258,
      "adwuma": 259,
      "ɔman": 260,
      "Me": 261,
      "hu": 262,
      "on": 263,
      "mm": 264,
      "su": 265,
      "mma": 266,
      "saa": 267,
      "obi": 268,
      "nkur": 269,
      "aman": 270,
      "Ɛyɛ": 271,
      "hyɛ": 272,
      "adwene": 273,
      "da": 274,
      "to": 275,
      "nim": 276,
      "nyɛ": 277,
      "nko": 278,
      "wa": 279,
      "hi": 280,
      "gye": 281,
      "ɛwɔ": 282,
      "tumi": 283,
      "nkurɔ": 284,
      "Anan": 285,
      "Ananse": 286,
      "den": 287,
      "Nan": 288,
      "nn": 289,
      "om": 290,
      "anim": 291,
      "ro": 292,
      "Nanso": 293,
      "yɛbɛ": 294,
      "baa": 295,
      "ɛnyɛ": 296,
      "kware": 297,
      "yie": 298,
      "ana": 299,
      "pi": 300,
      "nkurɔfoɔ": 301,
      "ɛfa": 302,
      "ag": 303,
      "ama": 304,
      "Wɔ": 305,
      "hia": 306,
      "bu": 307,
      "or": 308,
      "nte": 309,
      "nsɛm": 310,
      "ku": 311,
      "Gh": 312,
      "Ɛno": 313,
      "ayɛ": 314,
      "nnipa": 315,
      "kɛ": 316,
      "Ghana": 317,
      "akwan": 318,
      "kɔɔ": 319,
      "nu": 320,
      "ad": 321,
      "nti": 322,
      "nsa": 323,
      "li": 324,
      "Ɛnyɛ": 325,
      "bɔɔ": 326,
      "we": 327,
      "dwuma": 328,
      "wu": 329,
      "bɛyɛ": 330,
      "nokware": 331,
      "sika": 332,
      "aseɛ": 333,
      "nkɔ": 334,
      "Yɛn": 335,
      "soɔ": 336,
      "ha": 337,
      "ban": 338,
      "yɔ": 339,
      "boa": 340,
      "mp": 341,
      "ak": 342,
      "firi": 343,
      "ɛre": 344,
      "kasa": 345,
      "pii": 346,
      "ɛbɛma": 347,
      "hwe": 348,
      "die": 349,
      "mme": 350,
      "kɛse": 351,
      "le": 352,
      "paa": 353,
      "biara": 354,
      "mmɔ": 355,
      "aba": 356,
      "amanyɔ": 357,
      "bere": 358,
      "nipa": 359,
      "obiara": 360,
      "ako": 361,
      "sɛnea": 362,
      "wi": 363,
      "ɛkyerɛ": 364,
      "ɔbɛ": 365,
      "do": 366,
      "nya": 367,
      "ce": 368,
      "anaa": 369,
      "wɔbɛ": 370,
      "ɔyɛ": 371,
      "ane": 372,
      "aho": 373,
      "mo": 374,
      "yɛhwɛ": 375,
      "adeɛ": 376,
      "he": 377,
      "kae": 378,
      "akɔ": 379,
      "nt": 380,
      "Ko": 381,
      "kyerɛɛ": 382,
      "Ɛsɛ": 383,
      "wɔwɔ": 384,
      "nkonim": 385,
      "kra": 386,
      "ɛfata": 387,
      "wɔre": 388,
      "ɔwɔ": 389,
      "ɔre": 390,
      "yɛɛ": 391,
      "nka": 392,
      "al": 393,
      "bɔɔl": 394,
      "anan": 395,
      "amanyɔsɛm": 396,
      "mmom": 397,
      "teɛ": 398,
      "dɔ": 399,
      "st": 400,
      "werɛ": 401,
      "uru": 402,
      "ng": 403,
      "Na": 404,
      "Kofi": 405,
      "fofo": 406,
      "ɛno": 407,
      "nkwa": 408,
      "gyina": 409,
      "anigye": 410,
      "hyi": 411,
      "dɛn": 412,
      "kɛseɛ": 413,
      "kaa": 414,
      "ɛrekɔ": 415,
      "hye": 416,
      "adi": 417,
      "nna": 418,
      "ɛkɔ": 419,
      "som": 420,
      "fe": 421,
      "hunu": 422,
      "sie": 423,
      "tion": 424,
      "wan": 425,
      "ar": 426,
      "tena": 427,
      "Saa": 428,
      "ananse": 429,
      "duru": 430,
      "ny": 431,
      "dwo": 432,
      "yiye": 433,
      "er": 434,
      "at": 435,
      "baabi": 436,
      "bea": 437,
      "yɛyɛ": 438,
      "mfa": 439,
      "aka": 440,
      "raa": 441,
      "yɛre": 442,
      "en": 443,
      "akyi": 444,
      "20": 445,
      "daa": 446,
      "hwehwɛ": 447,
      "agor": 448,
      "wode": 449,
      "nta": 450,
      "sua": 451,
      "wɔde": 452,
      "anya": 453,
      "ɔpɛ": 454,
      "du": 455,
      "woyɛ": 456,
      "nnɛ": 457,
      "aban": 458,
      "hyɛɛ": 459,
      "ran": 460,
      "wanwa": 461,
      "nteaseɛ": 462,
      "gu": 463,
      "po": 464,
      "kɔsɛm": 465,
      "ty": 466,
      "ɛhia": 467,
      "Wo": 468,
      "nwanwa": 469,
      "sɛe": 470,
      "yɛde": 471,
      "akwantu": 472,
      "san": 473,
      "Nnipa": 474,
      "mmara": 475,
      "tɔ": 476,
      "ke": 477,
      "ade": 478,
      "agorɔ": 479,
      "ate": 480,
      "gya": 481,
      "asom": 482,
      "ɔden": 483,
      "ci": 484,
      "hyia": 485,
      "ɛbɛyɛ": 486,
      "hene": 487,
      "la": 488,
      "yɛwɔ": 489,
      "bom": 490,
      "rɔ": 491,
      "wɔyɛ": 492,
      "ɔde": 493,
      "asomdwo": 494,
      "ahoɔden": 495,
      "ree": 496,
      "Wɔn": 497,
      "yin": 498,
      "bɔne": 499,
      "ɛte": 500,
      "wopɛ": 501,
      "asa": 502,
      "ansa": 503,
      "maa": 504,
      "adu": 505,
      "anansesɛm": 506,
      "abu": 507,
      "ɛnsɛ": 508,
      "202": 509,
      "mpo": 510,
      "wiase": 511,
      "anigyeɛ": 512,
      "nnyina": 513,
      "wom": 514,
      "nsu": 515,
      "dii": 516,
      "yɛkɔ": 517,
      "wote": 518,
      "yɛnni": 519,
      "kura": 520,
      "ankasa": 521,
      "vi": 522,
      "koraa": 523,
      "ɔmanfoɔ": 524,
      "mmerɛ": 525,
      "am": 526,
      "rima": 527,
      "co": 528,
      "uro": 529,
      "as": 530,
      "dwumadie": 531,
      "pe": 532,
      "berɛ": 533,
      "kraman": 534,
      "akan": 535,
      "asomdwoeɛ": 536,
      "mepɛ": 537,
      "ntam": 538,
      "neɛ": 539,
      "din": 540,
      "abakɔsɛm": 541,
      "No": 542,
      "nkye": 543,
      "nku": 544,
      "fu": 545,
      "bɛkɔ": 546,
      "foforo": 547,
      "in": 548,
      "koma": 549,
      "of": 550,
      "tie": 551,
      "asase": 552,
      "nkurɔfo": 553,
      "mmi": 554,
      "ɔn": 555,
      "bra": 556,
      "fɛ": 557,
      "ɛfiri": 558,
      "Ɛnnɛ": 559,
      "haw": 560,
      "yare": 561,
      "nkɔsoɔ": 562,
      "ve": 563,
      "mmɔden": 564,
      "anyin": 565,
      "tiri": 566,
      "dodo": 567,
      "nkɔmmɔ": 568,
      "Ɔse": 569,
      "akoma": 570,
      "Nokware": 571,
      "nkyerɛ": 572,
      "bɛka": 573,
      "Mepɛ": 574,
      "fie": 575,
      "reka": 576,
      "foforɔ": 577,
      "Kwa": 578,
      "biri": 579,
      "kuo": 580,
      "ei": 581,
      "bɔɔlo": 582,
      "too": 583,
      "ort": 584,
      "ano": 585,
      "ll": 586,
      "kan": 587,
      "hyehyɛ": 588,
      "yɛpɛ": 589,
      "abɔ": 590,
      "ter": 591,
      "ɛho": 592,
      "mpa": 593,
      "ago": 594,
      "dwene": 595,
      "wɔpɛ": 596,
      "Mo": 597,
      "hwee": 598,
      "oa": 599,
      "ɛkɔɔ": 600,
      "nimdeɛ": 601,
      "rekɔ": 602,
      "aw": 603,
      "mmeran": 604,
      "basa": 605,
      "dɛ": 606,
      "sii": 607,
      "bree": 608,
      "bebree": 609,
      "yam": 610,
      "tra": 611,
      "Ɛwɔ": 612,
      "baako": 613,
      "nal": 614,
      "tee": 615,
      "panyin": 616,
      "akoko": 617,
      "sesa": 618,
      "lo": 619,
      "adwumayɛ": 620,
      "ɔne": 621,
      "ment": 622,
      "\".": 623,
      "yɛka": 624,
      "ge": 625,
      "nsuo": 626,
      "nyansa": 627,
      "ɔhaw": 628,
      "ɛda": 629,
      "awerɛ": 630,
      "bɛba": 631,
      "th": 632,
      "abo": 633,
      "rs": 634,
      "ah": 635,
      "yɛnhwɛ": 636,
      "nkuran": 637,
      "feɛ": 638,
      "Ama": 639,
      "asi": 640,
      "port": 641,
      "ck": 642,
      "2025": 643,
      "meka": 644,
      "barima": 645,
      "yɛnyɛ": 646,
      "how": 647,
      "gyae": 648,
      "yɛbɔ": 649,
      "Dr": 650,
      "um": 651,
      "ɔkwan": 652,
      "susu": 653,
      "ca": 654,
      "anom": 655,
      "nɛ": 656,
      "Be": 657,
      "akansie": 658,
      "nkabom": 659,
      "tirim": 660,
      "mmeranteɛ": 661,
      "Yaw": 662,
      "ol": 663,
      "akokoduru": 664,
      "Eyi": 665,
      "fra": 666,
      "nnwom": 667,
      "twa": 668,
      "mmoa": 669,
      "biribi": 670,
      "taa": 671,
      "mmu": 672,
      "ete": 673,
      "bisa": 674,
      "ɛnni": 675,
      "mehwɛ": 676,
      "ɔhene": 677,
      "bɔɔlobɔ": 678,
      "nhyehyɛ": 679,
      "ry": 680,
      "yɛdi": 681,
      "Mi": 682,
      "anida": 683,
      "brabɔ": 684,
      "nneyɛɛ": 685,
      "enu": 686,
      "Ɔman": 687,
      "Aane": 688,
      "abrabɔ": 689,
      "nkra": 690,
      "ue": 691,
      "mehu": 692,
      "mmienu": 693,
      "ch": 694,
      "nsam": 695,
      "Da": 696,
      "Wei": 697,
      "mfeɛ": 698,
      "Ju": 699,
      "pɔn": 700,
      "wɔa": 701,
      "nom": 702,
      "ss": 703,
      "nkyɛn": 704,
      "adaa": 705,
      "Sɛnea": 706,
      "yɛbɛka": 707,
      "nnyɛ": 708,
      "frɛ": 709,
      "bɛyɛɛ": 710,
      "abusua": 711,
      "efi": 712,
      "afe": 713,
      "tia": 714,
      "nteɛ": 715,
      "anin": 716,
      "sti": 717,
      "asetena": 718,
      "ly": 719,
      "akyerɛ": 720,
      "twe": 721,
      "yɛbɛtumi": 722,
      "wobɛ": 723,
      "onal": 724,
      "Si": 725,
      "nnaadaa": 726,
      "ou": 727,
      "kur": 728,
      "dwen": 729,
      "mfasoɔ": 730,
      "ru": 731,
      "yɛbɛyɛ": 732,
      "baeɛ": 733,
      "Mma": 734,
      "Af": 735,
      "akwanya": 736,
      "gi": 737,
      "ɛbɛboa": 738,
      "betumi": 739,
      "Kwame": 740,
      "ɛbɛba": 741,
      "kuu": 742,
      "nsɛ": 743,
      "ɔdɔ": 744,
      "ɛnnɛ": 745,
      "agodie": 746,
      "Ac": 747,
      "bio": 748,
      "ɔbarima": 749,
      "toɔ": 750,
      "kwaeɛ": 751,
      "atwa": 752,
      "aduane": 753,
      "tete": 754,
      "ɔte": 755,
      "ts": 756,
      "momma": 757,
      "sta": 758,
      "nnya": 759,
      "anka": 760,
      "ayare": 761,
      "akyiri": 762,
      "dɔɔ": 763,
      "wose": 764,
      "mon": 765,
      "anidasoɔ": 766,
      "daakye": 767,
      "adan": 768,
      "ato": 769,
      "dwom": 770,
      "mfo": 771,
      "ɔse": 772,
      "Ɔkraman": 773,
      "amammerɛ": 774,
      "ɛde": 775,
      "hunuu": 776,
      "ɔkraman": 777,
      "sɛdeɛ": 778,
      "nuanom": 779,
      "nam": 780,
      "ren": 781,
      "kyerɛkyerɛ": 782,
      "ayaresa": 783,
      "ac": 784,
      "bɛtumi": 785,
      "anko": 786,
      "nhyehyɛeɛ": 787,
      "yera": 788,
      "Afri": 789,
      "pro": 790,
      "koro": 791,
      "animfoɔ": 792,
      "gh": 793,
      "abɛ": 794,
      "woate": 795,
      "ɛmaa": 796,
      "ɔfoɔ": 797,
      "poli": 798,
      "CO": 799,
      "ɔno": 800,
      "yɛma": 801,
      "sukuu": 802,
      "Bo": 803,
      "Ɛnsɛ": 804,
      "amaneɛ": 805,
      "panin": 806,
      "cra": 807,
      "sɛɛ": 808,
      "ɛba": 809,
      "soro": 810,
      "kaeɛ": 811,
      "hyiaa": 812,
      "fam": 813,
      "awi": 814,
      "asiane": 815,
      "reba": 816,
      "kuro": 817,
      "kyere": 818,
      "akwankyerɛ": 819,
      "asɛ": 820,
      "efisɛ": 821,
      "ver": 822,
      "wɛ": 823,
      "Ne": 824,
      "nkon": 825,
      "con": 826,
      "ɛne": 827,
      "Sta": 828,
      "Sika": 829,
      "yɛhu": 830,
      "NP": 831,
      "Jo": 832,
      "woa": 833,
      "faa": 834,
      "nnye": 835,
      "ɛtɔ": 836,
      "Nkur": 837,
      "Re": 838,
      "kyerɛw": 839,
      "go": 840,
      "Hwɛ": 841,
      "tional": 842,
      ",\"": 843,
      "Ma": 844,
      "ahyɛ": 845,
      "for": 846,
      "Aba": 847,
      "tw": 848,
      "tam": 849,
      "tuo": 850,
      "Ɛte": 851,
      "Bere": 852,
      "Se": 853,
      "basabasa": 854,
      "cy": 855,
      "umadi": 856,
      "NPP": 857,
      "Asɛm": 858,
      "fuo": 859,
      "awerɛho": 860,
      "ssi": 861,
      "bɛdi": 862,
      "bisaa": 863,
      "papa": 864,
      "wɔnni": 865,
      "yɛnnyɛ": 866,
      "kɛkɛ": 867,
      "amanaman": 868,
      "ral": 869,
      "dia": 870,
      "tor": 871,
      "abatoɔ": 872,
      "nneyɛ": 873,
      "bɔɔlbɔ": 874,
      "ɛm": 875,
      "mmea": 876,
      "ɔkɔ": 877,
      "mekae": 878,
      "nkutoo": 879,
      "and": 880,
      "aboa": 881,
      "nkrataa": 882,
      "Au": 883,
      "Ni": 884,
      "mpanimfoɔ": 885,
      "nsi": 886,
      "cial": 887,
      "agumadi": 888,
      "onipa": 889,
      "aso": 890,
      "nkunim": 891,
      "mmarahyɛ": 892,
      "ebi": 893,
      "gy": 894,
      "ball": 895,
      "adwumayɛfoɔ": 896,
      "reɛ": 897,
      "wɔreyɛ": 898,
      "19": 899,
      "lli": 900,
      "ɛka": 901,
      "wuo": 902,
      "00": 903,
      "gyinaa": 904,
      "ankopɔn": 905,
      "Ad": 906,
      "nkɔanim": 907,
      "kyɛ": 908,
      "seɛ": 909,
      "dy": 910,
      "nyaa": 911,
      "wɔte": 912,
      "pɛɛ": 913,
      "Ɔkaa": 914,
      "nten": 915,
      "nhwɛ": 916,
      "neɛma": 917,
      "siesie": 918,
      "wodi": 919,
      "ua": 920,
      "ɛdi": 921,
      "eyi": 922,
      "cu": 923,
      "bɔɔlɔ": 924,
      "dɔɔso": 925,
      "De": 926,
      "per": 927,
      "reyɛ": 928,
      "nyankopɔn": 929,
      "adwo": 930,
      "Onyankopɔn": 931,
      "Nkurɔfoɔ": 932,
      "yɛnya": 933,
      "yɛa": 934,
      "ong": 935,
      "woka": 936,
      "Ɔsebɔ": 937,
      "ntɛm": 938,
      "Po": 939,
      "amanneɛ": 940,
      "susuw": 941,
      "bota": 942,
      "yareɛ": 943,
      "pɔ": 944,
      "ɛnneɛ": 945,
      "ports": 946,
      "ing": 947,
      "yɛbɛkɔ": 948,
      "es": 949,
      "mmaa": 950,
      "amanfoɔ": 951,
      "wɔkɔ": 952,
      "dua": 953,
      "cal": 954,
      "nnyinasoɔ": 955,
      "Bla": 956,
      "Abakɔsɛm": 957,
      "Nti": 958,
      "teeɛ": 959,
      "afiri": 960,
      "yɛfa": 961,
      "suban": 962,
      "bae": 963,
      "wɔka": 964,
      "Nana": 965,
      "mmere": 966,
      "afa": 967,
      "asɛnni": 968,
      "nsesa": 969,
      "atwam": 970,
      "lu": 971,
      "ɔka": 972,
      "wuma": 973,
      "asetra": 974,
      "nkonimdie": 975,
      "akwa": 976,
      "tompo": 977,
      "nteɛsoɔ": 978,
      "nkyerɛkyerɛ": 979,
      "kete": 980,
      "Ba": 981,
      "As": 982,
      "sen": 983,
      "Te": 984,
      "tua": 985,
      "amanyɔfoɔ": 986,
      "mmabaa": 987,
      "ble": 988,
      "kyi": 989,
      "ot": 990,
      "ayaresabea": 991,
      "ɛteɛ": 992,
      "Tete": 993,
      "nkete": 994,
      "huu": 995,
      "Momma": 996,
      "He": 997,
      "the": 998,
      "asraa": 999,
      "nkontompo": 1000,
      "yɛte": 1001,
      "com": 1002,
      "amansan": 1003,
      "uri": 1004,
      "ster": 1005,
      "Accra": 1006,
      "el": 1007,
      "gal": 1008,
      "wɔhwɛ": 1009,
      "Mini": 1010,
      "mfoɔ": 1011,
      "bɛma": 1012,
      "Black": 1013,
      "wɔfa": 1014,
      "ntumi": 1015,
      "Com": 1016,
      "DC": 1017,
      "media": 1018,
      "ketewa": 1019,
      "gyee": 1020,
      "tions": 1021,
      "keka": 1022,
      "tta": 1023,
      "ɛnde": 1024,
      "cha": 1025,
      "Wose": 1026,
      "anaasɛ": 1027,
      "ir": 1028,
      "sei": 1029,
      "ɔbaa": 1030,
      "mmabu": 1031,
      "wɔdi": 1032,
      "yɛanya": 1033,
      "up": 1034,
      "ɛreba": 1035,
      "row": 1036,
      "ɔnni": 1037,
      "mpaeɛ": 1038,
      "Mah": 1039,
      "ɔhwɛ": 1040,
      "il": 1041,
      "basaa": 1042,
      "mmarima": 1043,
      "un": 1044,
      "nter": 1045,
      "ɔkaa": 1046,
      "dwi": 1047,
      "resi": 1048,
      "umba": 1049,
      "Nneɛma": 1050,
      "Mahama": 1051,
      "Ɛfiri": 1052,
      "mete": 1053,
      "bɛn": 1054,
      "wɔbɛyɛ": 1055,
      "Aman": 1056,
      "rehwɛ": 1057,
      "sikasɛm": 1058,
      "asɛnnibea": 1059,
      "'.": 1060,
      "onyam": 1061,
      "July": 1062,
      "Lumba": 1063,
      "jo": 1064,
      "anu": 1065,
      "mfi": 1066,
      "Ghanafoɔ": 1067,
      "bɛboa": 1068,
      "nnwuma": 1069,
      "agya": 1070,
      "Yi": 1071,
      "son": 1072,
      "Ɔhene": 1073,
      "kɔkɔɔ": 1074,
      "ɔbɛyɛ": 1075,
      "Sa": 1076,
      "wotee": 1077,
      "bɛnya": 1078,
      "Yɛ": 1079,
      "ntinn": 1080,
      "pintinn": 1081,
      "rd": 1082,
      "Ɛwom": 1083,
      "yɛbɛfa": 1084,
      "Anansesɛm": 1085,
      "ɔfa": 1086,
      "Sha": 1087,
      "ɔbɛkɔ": 1088,
      "afi": 1089,
      "musi": 1090,
      "Ku": 1091,
      "ame": 1092,
      "Ɛda": 1093,
      "Co": 1094,
      "ste": 1095,
      "nteteeɛ": 1096,
      "abufuo": 1097,
      "ct": 1098,
      "rebɔ": 1099,
      "amanɔne": 1100,
      "redi": 1101,
      "nsakra": 1102,
      "Ar": 1103,
      "ber": 1104,
      "adesua": 1105,
      "biako": 1106,
      "Augu": 1107,
      "yɛkasa": 1108,
      "ɛhyɛ": 1109,
      "wunya": 1110,
      "nkonimdi": 1111,
      "Le": 1112,
      "Pro": 1113,
      "lity": 1114,
      "kora": 1115,
      "ahwɛ": 1116,
      "sey": 1117,
      "ɔnim": 1118,
      "renya": 1119,
      "ɔbɛtumi": 1120,
      "ld": 1121,
      "Enti": 1122,
      "sec": 1123,
      "ɛbɛtumi": 1124,
      "botaeɛ": 1125,
      "amane": 1126,
      "asɛe": 1127,
      "tive": 1128,
      "Wi": 1129,
      "wie": 1130,
      "manfoɔ": 1131,
      "wɔfrɛ": 1132,
      "wɔbɛdi": 1133,
      "dan": 1134,
      "ɔkɔɔ": 1135,
      "hena": 1136,
      "ID": 1137,
      "ale": 1138,
      "August": 1139,
      "ada": 1140,
      "Yɛnhwɛ": 1141,
      "NDC": 1142,
      "Akwa": 1143,
      "Cha": 1144,
      "yaw": 1145,
      "twɛn": 1146,
      "pae": 1147,
      "ɔdi": 1148,
      "wɔreka": 1149,
      "nto": 1150,
      "ning": 1151,
      "agye": 1152,
      "ɛbɛkyerɛ": 1153,
      "int": 1154,
      "ɔkae": 1155,
      "badw": 1156,
      "Ɛhɔ": 1157,
      "ɔbɔ": 1158,
      "Ag": 1159,
      "Di": 1160,
      "sakra": 1161,
      "dodoɔ": 1162,
      "asɔre": 1163,
      "afoɔ": 1164,
      "Chi": 1165,
      "ɔreyɛ": 1166,
      "hwere": 1167,
      "nokwareɛ": 1168,
      "ahu": 1169,
      "tal": 1170,
      "nkuro": 1171,
      "amsey": 1172,
      "ɔpanyin": 1173,
      "wɔbɛtumi": 1174,
      "Yiw": 1175,
      "hip": 1176,
      "adanseɛ": 1177,
      "nneyɛe": 1178,
      "Mmara": 1179,
      "yɛkura": 1180,
      "aduon": 1181,
      "Su": 1182,
      "wɔbɔ": 1183,
      "mmabun": 1184,
      "ation": 1185,
      "dɔm": 1186,
      "nsesaeɛ": 1187,
      "ɛkwan": 1188,
      "amanyɔkuo": 1189,
      "biribiara": 1190,
      "yɛhia": 1191,
      "nua": 1192,
      "asraafoɔ": 1193,
      "pu": 1194,
      "rity": 1195,
      "mpi": 1196,
      "gyi": 1197,
      "yan": 1198,
      "ɔpa": 1199,
      "FA": 1200,
      "hyehyɛɛ": 1201,
      "yɛnka": 1202,
      "ɛhɔ": 1203,
      "ɔsebɔ": 1204,
      "yɛboa": 1205,
      "wunni": 1206,
      "Ampa": 1207,
      "hosan": 1208,
      "We": 1209,
      "atɛn": 1210,
      "GH": 1211,
      "nifoɔ": 1212,
      "bammɔ": 1213,
      "ɔreka": 1214,
      "efiri": 1215,
      "ɛbɛsɛe": 1216,
      "Shatta": 1217,
      "ns": 1218,
      "nneɛ": 1219,
      "adwumakuo": 1220,
      "ɔda": 1221,
      "ita": 1222,
      "ture": 1223,
      "otball": 1224,
      "wotumi": 1225,
      "ron": 1226,
      "enti": 1227,
      "ɛboa": 1228,
      "tey": 1229,
      "some": 1230,
      "Par": 1231,
      "mmof": 1232,
      "abɛyɛ": 1233,
      "akwahosan": 1234,
      "ket": 1235,
      "Poli": 1236,
      "stry": 1237,
      "Ɔde": 1238,
      "mmofra": 1239,
      "Ɔkae": 1240,
      "awerɛhow": 1241,
      "rekyerɛ": 1242,
      "bɛbɔ": 1243,
      "ap": 1244,
      "ex": 1245,
      "ɔbɛdi": 1246,
      "tic": 1247,
      "urity": 1248,
      "ria": 1249,
      "par": 1250,
      "nse": 1251,
      "Africa": 1252,
      "hwan": 1253,
      "nkɔm": 1254,
      "hwehwɛɛ": 1255,
      "nee": 1256,
      "Wale": 1257,
      "dibea": 1258,
      "mpɛ": 1259,
      "urt": 1260,
      "ɛbɛkɔ": 1261,
      "nsakraeɛ": 1262,
      "afoforo": 1263,
      "yɛnnyina": 1264,
      "dent": 1265,
      "ɛt": 1266,
      "yɛbɛnya": 1267,
      "Mu": 1268,
      "social": 1269,
      "aduonu": 1270,
      "Ɛbɛyɛ": 1271,
      "dwiri": 1272,
      "wɔbɛbɔ": 1273,
      "mpɔ": 1274,
      "Uni": 1275,
      "bena": 1276,
      "olf": 1277,
      "alth": 1278,
      "Ɔka": 1279,
      "Aban": 1280,
      "Ɛkyerɛ": 1281,
      "buaa": 1282,
      "kuma": 1283,
      "ahobammɔ": 1284,
      "im": 1285,
      "llion": 1286,
      "ɔko": 1287,
      "Adwuma": 1288,
      "pre": 1289,
      "Akwatia": 1290,
      "srɛ": 1291,
      "nidi": 1292,
      "tre": 1293,
      "mmra": 1294,
      "Ɛnneɛ": 1295,
      "ef": 1296,
      "difoɔ": 1297,
      "bosome": 1298,
      "itaho": 1299,
      "Ho": 1300,
      "lec": 1301,
      "Ke": 1302,
      "ɔyɛɛ": 1303,
      "nhyia": 1304,
      "wɔbɛfa": 1305,
      "COV": 1306,
      "COVID": 1307,
      "nkitaho": 1308,
      "agoru": 1309,
      "TV": 1310,
      "agyina": 1311,
      "yɛbɛma": 1312,
      "Agya": 1313,
      "eeɛ": 1314,
      "igh": 1315,
      "animgu": 1316,
      "tiriw": 1317,
      "rebu": 1318,
      "aduru": 1319,
      "wui": 1320,
      "atena": 1321,
      "titiriw": 1322,
      "Yɛwɔ": 1323,
      "yɛmfa": 1324,
      "kakra": 1325,
      "yɛreka": 1326,
      "nnamfo": 1327,
      "galamsey": 1328,
      "asesa": 1329,
      "sion": 1330,
      "pri": 1331,
      "mmua": 1332,
      "heli": 1333,
      "Joh": 1334,
      "In": 1335,
      "nkoaa": 1336,
      "rekasa": 1337,
      "ampa": 1338,
      "Dɛn": 1339,
      "yɛgye": 1340,
      "kɔn": 1341,
      "yii": 1342,
      "Nige": 1343,
      "Man": 1344,
      "boɔ": 1345,
      "ahorow": 1346,
      "der": 1347,
      "Li": 1348,
      "ting": 1349,
      "ces": 1350,
      "Afe": 1351,
      "pter": 1352,
      "ki": 1353,
      "duruu": 1354,
      "abusuabɔ": 1355,
      "National": 1356,
      "mia": 1357,
      "wunim": 1358,
      "ɛnsa": 1359,
      "akwanhyia": 1360,
      "Dad": 1361,
      "che": 1362,
      "fɔ": 1363,
      "wɔanya": 1364,
      "nwa": 1365,
      "bɛsɛe": 1366,
      "ɔkyerɛ": 1367,
      "Stars": 1368,
      "sɔre": 1369,
      "les": 1370,
      "line": 1371,
      "polisi": 1372,
      "mpae": 1373,
      "akwantuo": 1374,
      "nnan": 1375,
      "Asa": 1376,
      "tan": 1377,
      "asomdwoe": 1378,
      "football": 1379,
      "Do": 1380,
      "ssion": 1381,
      "pene": 1382,
      "outh": 1383,
      "Minister": 1384,
      "Bawu": 1385,
      "wura": 1386,
      "Daddy": 1387,
      "team": 1388,
      "ɛhe": 1389,
      "bue": 1390,
      "ebia": 1391,
      "dea": 1392,
      "Al": 1393,
      "Bawumia": 1394,
      "can": 1395,
      "wore": 1396,
      "is": 1397,
      "ration": 1398,
      "Amanyɔ": 1399,
      "ted": 1400,
      "copter": 1401,
      "dwa": 1402,
      "awerɛhoɔ": 1403,
      "mpe": 1404,
      "sports": 1405,
      "ɔnyɛ": 1406,
      "hwɛɛ": 1407,
      "nnu": 1408,
      "awa": 1409,
      "brɛ": 1410,
      "sɔ": 1411,
      "Mar": 1412,
      "mpɔtam": 1413,
      "Kw": 1414,
      "nnis": 1415,
      "lub": 1416,
      "ɛmfa": 1417,
      "kar": 1418,
      "gyidi": 1419,
      "reko": 1420,
      "yɛkae": 1421,
      "akasa": 1422,
      "mmerɛw": 1423,
      "ɔdii": 1424,
      "nkaeɛ": 1425,
      "2024": 1426,
      "yɛbɛdi": 1427,
      "Nea": 1428,
      "tare": 1429,
      "han": 1430,
      "tro": 1431,
      "nwo": 1432,
      "au": 1433,
      "awerɛhosɛm": 1434,
      "stice": 1435,
      "nno": 1436,
      "EC": 1437,
      "akannifoɔ": 1438,
      "awieeɛ": 1439,
      "nhyehyɛɛ": 1440,
      "pɛɛpɛ": 1441,
      "abom": 1442,
      "ɛnnyɛ": 1443,
      "abɔnten": 1444,
      "yɛgyina": 1445,
      "mber": 1446,
      "To": 1447,
      "AF": 1448,
      "Ɔpɛ": 1449,
      "Commi": 1450,
      "tenaa": 1451,
      "Obiara": 1452,
      "Nigeria": 1453,
      "nnim": 1454,
      "woan": 1455,
      "Ro": 1456,
      "Wiase": 1457,
      "Ce": 1458,
      "basabasayɛ": 1459,
      "deo": 1460,
      "security": 1461,
      "Kwadwo": 1462,
      "sport": 1463,
      "mmiɛnsa": 1464,
      "Ɔkɔɔ": 1465,
      "qu": 1466,
      "wɔtwe": 1467,
      "ɔbɔɔ": 1468,
      "nhwɛsoɔ": 1469,
      "sere": 1470,
      "ga": 1471,
      "nkɔso": 1472,
      "Vi": 1473,
      "ɛsɛe": 1474,
      "ɔkasa": 1475,
      "afoforɔ": 1476,
      "Ɛyɛɛ": 1477,
      "rate": 1478,
      "Dabi": 1479,
      "pɛpɛɛpɛ": 1480,
      "yɛreyɛ": 1481,
      "urna": 1482,
      "atoro": 1483,
      "Ebi": 1484,
      "korɛ": 1485,
      "monhwɛ": 1486,
      "Police": 1487,
      "yɛbɛhu": 1488,
      "wɔbɛma": 1489,
      "pong": 1490,
      "ɔbɛka": 1491,
      "pue": 1492,
      "national": 1493,
      "trenee": 1494,
      "Esi": 1495,
      "John": 1496,
      "nhyehyɛe": 1497,
      "rika": 1498,
      "twi": 1499,
      "yɛnkɔ": 1500,
      "Bu": 1501,
      "amanneɛbɔ": 1502,
      "Go": 1503,
      "nneyɛeɛ": 1504,
      "sy": 1505,
      "gyaa": 1506,
      "agu": 1507,
      "wɔbɔɔ": 1508,
      "Wɔde": 1509,
      "Asan": 1510,
      "\",": 1511,
      "ons": 1512,
      "adɛn": 1513,
      "awiei": 1514,
      "ness": 1515,
      "Wor": 1516,
      "yɛhyɛ": 1517,
      "mmɔfra": 1518,
      "abofra": 1519,
      "woyi": 1520,
      "mmeaeɛ": 1521,
      "dane": 1522,
      "Presi": 1523,
      "dio": 1524,
      "by": 1525,
      "animu": 1526,
      "ɛwom": 1527,
      "sh": 1528,
      "rec": 1529,
      "menim": 1530,
      "Nsɛm": 1531,
      "kyɛw": 1532,
      "yɔnko": 1533,
      "mantam": 1534,
      "mmerante": 1535,
      "suro": 1536,
      "ɔbɛma": 1537,
      "animuonyam": 1538,
      "yere": 1539,
      "nketenkete": 1540,
      "wɔayɛ": 1541,
      "mmɔdenbɔ": 1542,
      "ds": 1543,
      "video": 1544,
      "ɛsom": 1545,
      "Ɔkɔ": 1546,
      "Addo": 1547,
      "Asante": 1548,
      "lan": 1549,
      "kyeree": 1550,
      "ague": 1551,
      "Sports": 1552,
      "mani": 1553,
      "tom": 1554,
      "ɛyɛɛ": 1555,
      "ɔmanpanin": 1556,
      "dis": 1557,
      "wɔne": 1558,
      "animguaseɛ": 1559,
      "abi": 1560,
      "Nort": 1561,
      "Wɔka": 1562,
      "wube": 1563,
      "MP": 1564,
      "ɛbaa": 1565,
      "kosi": 1566,
      "kyerɛe": 1567,
      "tenten": 1568,
      "Cup": 1569,
      "hwehwɛmu": 1570,
      "lle": 1571,
      "yɛhwehwɛ": 1572,
      "abere": 1573,
      "akɛseɛ": 1574,
      "Adɛn": 1575,
      "wɔyɛɛ": 1576,
      "gyeɛ": 1577,
      "Regi": 1578,
      "Ei": 1579,
      "tutu": 1580,
      "bua": 1581,
      "ans": 1582,
      "life": 1583,
      "Amanyɔsɛm": 1584,
      "ananmusi": 1585,
      "Bi": 1586,
      "Chief": 1587,
      "South": 1588,
      "ɛneɛ": 1589,
      "ght": 1590,
      "Mr": 1591,
      "ence": 1592,
      "Ab": 1593,
      "Ser": 1594,
      "agodifoɔ": 1595,
      "nkyɛ": 1596,
      "million": 1597,
      "Kojo": 1598,
      "rɛw": 1599,
      "qua": 1600,
      "cation": 1601,
      "nnyi": 1602,
      "nsah": 1603,
      "kɔsi": 1604,
      "bility": 1605,
      "pla": 1606,
      "dwoo": 1607,
      "Ɔmanpanyin": 1608,
      "cho": 1609,
      "yɛbu": 1610,
      "Mon": 1611,
      "anɛt": 1612,
      "Fe": 1613,
      "Ɛneɛ": 1614,
      "badwa": 1615,
      "ms": 1616,
      "amah": 1617,
      "World": 1618,
      "boro": 1619,
      "kanyan": 1620,
      "obu": 1621,
      "wor": 1622,
      "pɔnkɔ": 1623,
      "inte": 1624,
      "nkura": 1625,
      "sto": 1626,
      "fii": 1627,
      "Justice": 1628,
      "High": 1629,
      "vice": 1630,
      "suo": 1631,
      "ann": 1632,
      "sm": 1633,
      "tho": 1634,
      "hamme": 1635,
      "Ti": 1636,
      "bli": 1637,
      "ayera": 1638,
      "ɛkura": 1639,
      "mar": 1640,
      "Mfeɛ": 1641,
      "pra": 1642,
      "hammed": 1643,
      "ɔbɛfa": 1644,
      "kɔeɛ": 1645,
      "Ban": 1646,
      "wɔhwehwɛ": 1647,
      "bɛhyɛ": 1648,
      "yɛrehwɛ": 1649,
      "Dan": 1650,
      "anuonyam": 1651,
      "adane": 1652,
      "ɔbɛnya": 1653,
      "gua": 1654,
      "intanɛt": 1655,
      "EO": 1656,
      "ab": 1657,
      "North": 1658,
      "President": 1659,
      "spe": 1660,
      "twaa": 1661,
      "nnamfoɔ": 1662,
      "dus": 1663,
      "gra": 1664,
      "nce": 1665,
      "ɛdɔɔso": 1666,
      "dium": 1667,
      "lls": 1668,
      "Kudus": 1669,
      "Mme": 1670,
      "owuo": 1671,
      "eneral": 1672,
      "Afrika": 1673,
      "ɔmanpanyin": 1674,
      "Ri": 1675,
      "ahe": 1676,
      "yɛnim": 1677,
      "beaeɛ": 1678,
      "dwiriw": 1679,
      "ɔbɛkyerɛ": 1680,
      "acci": 1681,
      "Fi": 1682,
      "ɔɔ": 1683,
      "ɔhyɛɛ": 1684,
      "Yɛnni": 1685,
      "abote": 1686,
      "ding": 1687,
      "spi": 1688,
      "Koto": 1689,
      "Fo": 1690,
      "lent": 1691,
      "helicopter": 1692,
      "day": 1693,
      "ling": 1694,
      "nipadua": 1695,
      "paw": 1696,
      "pho": 1697,
      "Pe": 1698,
      "nnam": 1699,
      "wɔnyɛ": 1700,
      "ph": 1701,
      "baabiara": 1702,
      "old": 1703,
      "bɛkyerɛ": 1704,
      "nnyinaso": 1705,
      "Yɛhia": 1706,
      "nhwehwɛmu": 1707,
      "atɛntrenee": 1708,
      "US": 1709,
      "afiase": 1710,
      "anadwo": 1711,
      "leg": 1712,
      "nokorɛ": 1713,
      "Ɛka": 1714,
      "ɔmanfo": 1715,
      "golf": 1716,
      "muo": 1717,
      "korɔ": 1718,
      "ɔrekyerɛ": 1719,
      "Mepa": 1720,
      "So": 1721,
      "Fa": 1722,
      "wɔbɛkɔ": 1723,
      "inter": 1724,
      "Mohammed": 1725,
      "sra": 1726,
      "General": 1727,
      "mpaebɔ": 1728,
      "daw": 1729,
      "bɛkaa": 1730,
      "mehyɛ": 1731,
      "Ɛne": 1732,
      "hyeɛ": 1733,
      "Mensah": 1734,
      "cer": 1735,
      "je": 1736,
      "rea": 1737,
      "anidaso": 1738,
      "Ɔyɛ": 1739,
      "yɛnkyerɛ": 1740,
      "daadaa": 1741,
      "muni": 1742,
      "yɛnyina": 1743,
      "nwonwa": 1744,
      "nhyiamu": 1745,
      "wɔmfa": 1746,
      "Agye": 1747,
      "wuhu": 1748,
      "mmirika": 1749,
      "nkɔmhyɛ": 1750,
      "atia": 1751,
      "nini": 1752,
      "age": 1753,
      "tiee": 1754,
      "kyerɛkyerɛɛ": 1755,
      "yɛbisa": 1756,
      "vision": 1757,
      "Nya": 1758,
      "yɛhunu": 1759,
      "dge": 1760,
      "tire": 1761,
      "sereɛ": 1762,
      "amanmuo": 1763,
      "ju": 1764,
      "Ɔpa": 1765,
      "ɔbɛboa": 1766,
      "bɔɔlobɔfoɔ": 1767,
      "ebinom": 1768,
      "tran": 1769,
      "Ɔno": 1770,
      "krataa": 1771,
      "Mese": 1772,
      "abotare": 1773,
      "bɛfa": 1774,
      "nsia": 1775,
      "polisifoɔ": 1776,
      "Ako": 1777,
      "tch": 1778,
      "Ɔsebo": 1779,
      "Con": 1780,
      "kuw": 1781,
      "Wu": 1782,
      "bɛgyina": 1783,
      "tew": 1784,
      "lia": 1785,
      "cou": 1786,
      "000": 1787,
      "fee": 1788,
      "aduro": 1789,
      "bɛto": 1790,
      "Mmarahyɛ": 1791,
      "talent": 1792,
      "Ɛkame": 1793,
      "rema": 1794,
      "ers": 1795,
      "tes": 1796,
      "rehu": 1797,
      "xing": 1798,
      "sono": 1799,
      "stru": 1800,
      "mpre": 1801,
      "yaa": 1802,
      "ɔhunuu": 1803,
      "nkyin": 1804,
      "boaboa": 1805,
      "atumi": 1806,
      "onim": 1807,
      "por": 1808,
      "ji": 1809,
      "Kwabena": 1810,
      "wogye": 1811,
      "asua": 1812,
      "ɛreyɛ": 1813,
      "wɔhu": 1814,
      "mic": 1815,
      "wɔdii": 1816,
      "tuu": 1817,
      "afei": 1818,
      "mpions": 1819,
      "GFA": 1820,
      "ws": 1821,
      "ɔma": 1822,
      "ard": 1823,
      "Kuma": 1824,
      "bɛtena": 1825,
      "yɛan": 1826,
      "bɔfoɔ": 1827,
      "ɔfo": 1828,
      "aniwu": 1829,
      "wotwa": 1830,
      "oun": 1831,
      "men": 1832,
      "mman": 1833,
      "mfiri": 1834,
      "mmuaeɛ": 1835,
      "tics": 1836,
      "Kotoko": 1837,
      "mpong": 1838,
      "monyɛ": 1839,
      "tain": 1840,
      "stitu": 1841,
      "Adwene": 1842,
      "ɔrekɔ": 1843,
      "gital": 1844,
      "Ɔbɛ": 1845,
      "Ministry": 1846,
      "ayi": 1847,
      "yer": 1848,
      "soafoɔ": 1849,
      "ties": 1850,
      "wɔsɛe": 1851,
      "rest": 1852,
      "akansi": 1853,
      "vo": 1854,
      "Wɔpɛ": 1855,
      "For": 1856,
      "Boamah": 1857,
      "aniwuo": 1858,
      "yɛfrɛ": 1859,
      "Oman": 1860,
      "dɛɛ": 1861,
      "yɛrekɔ": 1862,
      "atra": 1863,
      "nson": 1864,
      "Mmo": 1865,
      "mmuo": 1866,
      "syste": 1867,
      "Aku": 1868,
      "atɔ": 1869,
      "duro": 1870,
      "kɔkɔ": 1871,
      "Wɔse": 1872,
      "bɛpɛ": 1873,
      "dwadie": 1874,
      "Bank": 1875,
      "uraa": 1876,
      "hyew": 1877,
      "yɛkyerɛ": 1878,
      "hyehye": 1879,
      "wanya": 1880,
      "akye": 1881,
      "Ɔbɔɔ": 1882,
      "dom": 1883,
      "nkunimdie": 1884,
      "anɔpa": 1885,
      "tennis": 1886,
      "hokwan": 1887,
      "yɛbɛgyina": 1888,
      "mpɔn": 1889,
      "hyerɛ": 1890,
      "Ɔbarima": 1891,
      "kum": 1892,
      "soci": 1893,
      "cri": 1894,
      "mfaso": 1895,
      "ɛkanyan": 1896,
      "wadi": 1897,
      "Ch": 1898,
      "ati": 1899,
      "elec": 1900,
      "kyiri": 1901,
      "nananom": 1902,
      "list": 1903,
      "mpanin": 1904,
      "ser": 1905,
      "hyira": 1906,
      "tow": 1907,
      "yɛbɛhwɛ": 1908,
      "Ebia": 1909,
      "emu": 1910,
      "woahunu": 1911,
      "ɔfiri": 1912,
      "Kwe": 1913,
      "awu": 1914,
      "inve": 1915,
      "ogya": 1916,
      "Nk": 1917,
      "radio": 1918,
      "blic": 1919,
      "wɔbɛboa": 1920,
      "court": 1921,
      "League": 1922,
      "abɛka": 1923,
      "nkae": 1924,
      "wɔrebɔ": 1925,
      "Woka": 1926,
      "mpem": 1927,
      "Web": 1928,
      "nho": 1929,
      "ɔnya": 1930,
      "nnua": 1931,
      "adaka": 1932,
      "ɔkaeɛ": 1933,
      "reyi": 1934,
      "GhanaWeb": 1935,
      "zi": 1936,
      "woanya": 1937,
      "club": 1938,
      "NA": 1939,
      "ney": 1940,
      "Sec": 1941,
      "bɛhu": 1942,
      "cip": 1943,
      "Pre": 1944,
      "num": 1945,
      "hyerɛn": 1946,
      "key": 1947,
      "gyaee": 1948,
      "ɛkame": 1949,
      "wɔbɛka": 1950,
      "ɔsom": 1951,
      "Able": 1952,
      "ntie": 1953,
      "ɛhwehwɛ": 1954,
      "firii": 1955,
      "Commission": 1956,
      "tical": 1957,
      "ɛbɛtena": 1958,
      "sho": 1959,
      "mpanyin": 1960,
      "ens": 1961,
      "music": 1962,
      "Service": 1963,
      "Ablekuma": 1964,
      "party": 1965,
      "nnamfonom": 1966,
      "abɔdeɛ": 1967,
      "nkitahodie": 1968,
      "shi": 1969,
      "II": 1970,
      "Amo": 1971,
      "mpren": 1972,
      "dwumadi": 1973,
      "apa": 1974,
      "eco": 1975,
      "wɔfiri": 1976,
      "The": 1977,
      "mmo": 1978,
      "kuraa": 1979,
      "ɛnkyerɛ": 1980,
      "agyapa": 1981,
      "rg": 1982,
      "abue": 1983,
      "kyerɛkyerɛfoɔ": 1984,
      "Health": 1985,
      "ɔpatuo": 1986,
      "mate": 1987,
      "pere": 1988,
      "wubetumi": 1989,
      "ɛdɛn": 1990,
      "wɔkɔɔ": 1991,
      "trans": 1992,
      "sini": 1993,
      "Dra": 1994,
      "ttee": 1995,
      "ency": 1996,
      "versi": 1997,
      "serew": 1998,
      "digital": 1999,
      "agyae": 2000,
      "Ɛnɛ": 2001,
      "bɛsi": 2002,
      "nnyae": 2003,
      "mfonini": 2004,
      "bɔɔlbɔfoɔ": 2005,
      "ami": 2006,
      "yɛeɛ": 2007,
      "nkogu": 2008,
      "rship": 2009,
      "woahwɛ": 2010,
      "yɛfoɔ": 2011,
      "wɔboa": 2012,
      "nnen": 2013,
      "wɔrekɔ": 2014,
      "bɛhwɛ": 2015,
      "tɔn": 2016,
      "24": 2017,
      "esi": 2018,
      "metumi": 2019,
      "akokoɔ": 2020,
      "Omane": 2021,
      "ɛsii": 2022,
      "awo": 2023,
      "ffi": 2024,
      "ɔboa": 2025,
      "gyei": 2026,
      "Ye": 2027,
      "ɛhaw": 2028,
      "indu": 2029,
      "Mete": 2030,
      "wer": 2031,
      "adwumayɛbea": 2032,
      "wuiɛ": 2033,
      "asu": 2034,
      "15": 2035,
      "akuraa": 2036,
      "leade": 2037,
      "afahyɛ": 2038,
      "Ntikuma": 2039,
      "nsunsu": 2040,
      "wubehu": 2041,
      "10": 2042,
      "Yɛre": 2043,
      "ɛbɔ": 2044,
      "wɔrekyerɛ": 2045,
      "sɛn": 2046,
      "bas": 2047,
      "stan": 2048,
      "maame": 2049,
      "rehyɛ": 2050,
      "ay": 2051,
      "stri": 2052,
      "Cent": 2053,
      "health": 2054,
      "nkrabea": 2055,
      "wofa": 2056,
      "nyo": 2057,
      "Fran": 2058,
      "nsunsuan": 2059,
      "nkw": 2060,
      "struc": 2061,
      "Dramani": 2062,
      "Stadium": 2063,
      "work": 2064,
      "strate": 2065,
      "United": 2066,
      "Sar": 2067,
      "repɛ": 2068,
      "wɔnya": 2069,
      "2023": 2070,
      "annye": 2071,
      "Kumasi": 2072,
      "val": 2073,
      "offi": 2074,
      "demo": 2075,
      "wɔbɛnya": 2076,
      "sociation": 2077,
      "ina": 2078,
      "arti": 2079,
      "chi": 2080,
      "phe": 2081,
      "anyi": 2082,
      "refa": 2083,
      "tri": 2084,
      "Ɛdɛn": 2085,
      "wɔma": 2086,
      "Ofo": 2087,
      "antumi": 2088,
      "yɛbɛbɔ": 2089,
      "nkuranhyɛ": 2090,
      "Ɔpatuo": 2091,
      "Pri": 2092,
      "anwu": 2093,
      "nyame": 2094,
      "ɛbɛyɛɛ": 2095,
      "af": 2096,
      "arts": 2097,
      "CON": 2098,
      "Court": 2099,
      "King": 2100,
      "tebea": 2101,
      "pefee": 2102,
      "binom": 2103,
      "Adu": 2104,
      "vacci": 2105,
      "nteɛteɛ": 2106,
      "apɔ": 2107,
      "Bɔɔ": 2108,
      "ls": 2109,
      "wia": 2110,
      "ok": 2111,
      "akasakasa": 2112,
      "Que": 2113,
      "Sto": 2114,
      "nation": 2115,
      "ɔbɛba": 2116,
      "sector": 2117,
      "mpoano": 2118,
      "mede": 2119,
      "Yo": 2120,
      "Partey": 2121,
      "Gya": 2122,
      "od": 2123,
      "res": 2124,
      "guu": 2125,
      "system": 2126,
      "pɛn": 2127,
      "ze": 2128,
      "dada": 2129,
      "AFCON": 2130,
      "discip": 2131,
      "meteɛ": 2132,
      "nd": 2133,
      "yɛgyae": 2134,
      "FM": 2135,
      "pem": 2136,
      "Golf": 2137,
      "Agra": 2138,
      "ction": 2139,
      "ɛmfata": 2140,
      "AC": 2141,
      "it": 2142,
      "ames": 2143,
      "awareɛ": 2144,
      "Owu": 2145,
      "ig": 2146,
      "yɛsesa": 2147,
      "meyɛ": 2148,
      "metee": 2149,
      "wɔrehyɛ": 2150,
      "ananmusini": 2151,
      "Yɛnyɛ": 2152,
      "nes": 2153,
      "nkɔmmɔdie": 2154,
      "yɛwerɛ": 2155,
      "siness": 2156,
      "wee": 2157,
      "mpon": 2158,
      "nwɔtwe": 2159,
      "wɔnnyɛ": 2160,
      "Nyame": 2161,
      "wɔnim": 2162,
      "Coa": 2163,
      "yɛnam": 2164,
      "sup": 2165,
      "Agradaa": 2166,
      "Ap": 2167,
      "Akan": 2168,
      "wene": 2169,
      "kɔe": 2170,
      "buo": 2171,
      "industry": 2172,
      "kro": 2173,
      "tene": 2174,
      "ɔbea": 2175,
      "lympi": 2176,
      "Ex": 2177,
      "akwantufoɔ": 2178,
      "ten": 2179,
      "uni": 2180,
      "ary": 2181,
      "mfe": 2182,
      "yo": 2183,
      "mini": 2184,
      "Association": 2185,
      "yɛtie": 2186,
      "ɛmu": 2187,
      "anigyesɛm": 2188,
      "nhyɛ": 2189,
      "yɛsakra": 2190,
      "18": 2191,
      "sin": 2192,
      "edi": 2193,
      "Mema": 2194,
      "renyɛ": 2195,
      "rus": 2196,
      "versity": 2197,
      "atu": 2198,
      "pen": 2199,
      "muel": 2200,
      "EOCO": 2201,
      "Champions": 2202,
      "rentumi": 2203,
      "Ge": 2204,
      "hea": 2205,
      "adom": 2206,
      "penee": 2207,
      "discipline": 2208,
      "sesei": 2209,
      "ɛbɛka": 2210,
      "agumadifoɔ": 2211,
      "und": 2212,
      "ses": 2213,
      "Owusu": 2214,
      "Ɔmanpanin": 2215,
      "wonni": 2216,
      "ring": 2217,
      "Gold": 2218,
      "mehunu": 2219,
      "nkron": 2220,
      "him": 2221,
      "nsem": 2222,
      "Region": 2223,
      "Daa": 2224,
      "nsusu": 2225,
      "kane": 2226,
      "tiaa": 2227,
      "election": 2228,
      "nnomaa": 2229,
      "afo": 2230,
      "red": 2231,
      "see": 2232,
      "cent": 2233,
      "titire": 2234,
      "Prof": 2235,
      "adwe": 2236,
      "faako": 2237,
      "Samuel": 2238,
      "structure": 2239,
      "Nkurɔfo": 2240,
      "wogyae": 2241,
      "mihunu": 2242,
      "mehuu": 2243,
      "wobɛhu": 2244,
      "Ɛtɔ": 2245,
      "Wote": 2246,
      "ben": 2247,
      "bedi": 2248,
      "legal": 2249,
      "wɔgye": 2250,
      "nest": 2251,
      "amann": 2252,
      "woahu": 2253,
      "11": 2254,
      "ɔkyerɛɛ": 2255,
      "nance": 2256,
      "bal": 2257,
      "cil": 2258,
      "nkurow": 2259,
      "akwannya": 2260,
      "ahofa": 2261,
      "nnee": 2262,
      "mprempren": 2263,
      "HI": 2264,
      "mɛ": 2265,
      "abaso": 2266,
      "ine": 2267,
      "chool": 2268,
      "Ame": 2269,
      "ɔyareɛ": 2270,
      "liament": 2271,
      "nkwase": 2272,
      "bɛte": 2273,
      "sem": 2274,
      "botae": 2275,
      "wohwɛ": 2276,
      "ahoto": 2277,
      "Nipa": 2278,
      "lympic": 2279,
      "boxing": 2280,
      "Abena": 2281,
      "ɔfata": 2282,
      "ahyia": 2283,
      "Ɔpanyin": 2284,
      "wɔbɛhwɛ": 2285,
      "pment": 2286,
      "annya": 2287,
      "goal": 2288,
      "us": 2289,
      "awerɛhɔ": 2290,
      "asraafo": 2291,
      "retwɛn": 2292,
      "akura": 2293,
      "nkuraa": 2294,
      "senea": 2295,
      "ɔsan": 2296,
      "Afei": 2297,
      "ɔpɔnkɔ": 2298,
      "Queens": 2299,
      "mfiridwuma": 2300,
      "nsunsuansoɔ": 2301,
      "ɔpanin": 2302,
      "yɛbɛtena": 2303,
      "public": 2304,
      "tapho": 2305,
      "Woyɛ": 2306,
      "wobɛyɛ": 2307,
      "Osei": 2308,
      "nment": 2309,
      "dɔn": 2310,
      "ata": 2311,
      "dennee": 2312,
      "tech": 2313,
      "yɛayɛ": 2314,
      "gyinaeɛ": 2315,
      "cul": 2316,
      "Hearts": 2317,
      "Highlife": 2318,
      "nyi": 2319,
      "nkyi": 2320,
      "thi": 2321,
      "velo": 2322,
      "kyerɛwfoɔ": 2323,
      "akodi": 2324,
      "akyerɛkyerɛ": 2325,
      "fã": 2326,
      "yɛmmɔ": 2327,
      "wɔredi": 2328,
      "sukuufoɔ": 2329,
      "denneennen": 2330,
      "akokoɔduro": 2331,
      "Ɛhe": 2332,
      "dwane": 2333,
      "ananmu": 2334,
      "ric": 2335,
      "yɛbɛboa": 2336,
      "ɔgye": 2337,
      "nkurase": 2338,
      "ɛsen": 2339,
      "wɔnhwɛ": 2340,
      "nsoro": 2341,
      "wɔrehwɛ": 2342,
      "ranteɛ": 2343,
      "wɔkyeree": 2344,
      "Tema": 2345,
      "kyinkyin": 2346,
      "land": 2347,
      "University": 2348,
      "ance": 2349,
      "sia": 2350,
      "point": 2351,
      "Yɛpɛ": 2352,
      "agyapadeɛ": 2353,
      "borɔ": 2354,
      "fuw": 2355,
      "Sukuu": 2356,
      "Alha": 2357,
      "Stone": 2358,
      "Ɔwɔ": 2359,
      "sor": 2360,
      "wɔgyina": 2361,
      "ntɔ": 2362,
      "Adan": 2363,
      "akokɔ": 2364,
      "African": 2365,
      "Show": 2366,
      "mpanyi": 2367,
      "ahunu": 2368,
      "car": 2369,
      "Inter": 2370,
      "Ɛnnyɛ": 2371,
      "cor": 2372,
      "Ɔsoafoɔ": 2373,
      "Direc": 2374,
      "Ga": 2375,
      "nsoromma": 2376,
      "Baw": 2377,
      "bɛhunu": 2378,
      "ɛdeɛn": 2379,
      "30": 2380,
      "Bawku": 2381,
      "yansa": 2382,
      "dri": 2383,
      "rgy": 2384,
      "ond": 2385,
      "ketball": 2386,
      "16": 2387,
      "Ca": 2388,
      "Kenne": 2389,
      "agement": 2390,
      "ries": 2391,
      "ley": 2392,
      "Ɛkɔɔ": 2393,
      "14": 2394,
      "FI": 2395,
      "dwumadibea": 2396,
      "cess": 2397,
      "ntaban": 2398,
      "fɛw": 2399,
      "op": 2400,
      "Berɛ": 2401,
      "Ɔmanfoɔ": 2402,
      "net": 2403,
      "bɛgye": 2404,
      "vie": 2405,
      "Won": 2406,
      "yɛdwen": 2407,
      "nkateɛ": 2408,
      "Bar": 2409,
      "hyɛn": 2410,
      "nkan": 2411,
      "fata": 2412,
      "woy": 2413,
      "ntetee": 2414,
      "bwoy": 2415,
      "tum": 2416,
      "Mehwɛ": 2417,
      "Stonebwoy": 2418,
      "',": 2419,
      "wotie": 2420,
      "Yɛbɛ": 2421,
      "ul": 2422,
      "sah": 2423,
      "mere": 2424,
      "gover": 2425,
      "12": 2426,
      "Ha": 2427,
      "Ibra": 2428,
      "Ɔtwe": 2429,
      "ɛhyɛɛ": 2430,
      "ntease": 2431,
      "nteɛso": 2432,
      "ger": 2433,
      "dɛw": 2434,
      "frɛɛ": 2435,
      "Club": 2436,
      "tru": 2437,
      "mekyerɛ": 2438,
      "police": 2439,
      "Che": 2440,
      "nolo": 2441,
      "ker": 2442,
      "business": 2443,
      "fessi": 2444,
      "buae": 2445,
      "pta": 2446,
      "deɛn": 2447,
      "ɛtene": 2448,
      "Ɔyɛɛ": 2449,
      "ɛboro": 2450,
      "Moro": 2451,
      "wɔatumi": 2452,
      "ntaa": 2453,
      "abubu": 2454,
      "renyin": 2455,
      "ress": 2456,
      "meda": 2457,
      "wobɛhwɛ": 2458,
      "prama": 2459,
      "wɔhyɛɛ": 2460,
      "yɛbɛhunu": 2461,
      "lobal": 2462,
      "esiane": 2463,
      "ange": 2464,
      "wɔse": 2465,
      "akodeɛ": 2466,
      "Agyapong": 2467,
      "sk": 2468,
      "toral": 2469,
      "Bri": 2470,
      "muden": 2471,
      "kyire": 2472,
      "Ci": 2473,
      "nnum": 2474,
      "Parliament": 2475,
      "Pra": 2476,
      "wotena": 2477,
      "dɔteɛ": 2478,
      "ckey": 2479,
      "end": 2480,
      "akatua": 2481,
      "ham": 2482,
      "Yoo": 2483,
      "velopment": 2484,
      "Coun": 2485,
      "ducation": 2486,
      "Ta": 2487,
      "sane": 2488,
      "nomy": 2489,
      "Council": 2490,
      "WA": 2491,
      "pan": 2492,
      "kyekye": 2493,
      "twerɛ": 2494,
      "ɔkan": 2495,
      "wɔadi": 2496,
      "gyedie": 2497,
      "policy": 2498,
      "commi": 2499,
      "nsra": 2500,
      "Ibrahim": 2501,
      "yɛfiri": 2502,
      "rence": 2503,
      "Kumi": 2504,
      "cco": 2505,
      "bɔdeɛ": 2506,
      "nkwaseasɛm": 2507,
      "Onyame": 2508,
      "Ɔne": 2509,
      "bɛda": 2510,
      "omo": 2511,
      "wɔayi": 2512,
      "West": 2513,
      "Kennedy": 2514,
      "vate": 2515,
      "akyɛ": 2516,
      "tɛ": 2517,
      "aduan": 2518,
      "pl": 2519,
      "Char": 2520,
      "quali": 2521,
      "MA": 2522,
      "Opo": 2523,
      "ining": 2524,
      "one": 2525,
      "pte": 2526,
      "owu": 2527,
      "ankɔ": 2528,
      "mer": 2529,
      "Er": 2530,
      "Ɔkwan": 2531,
      "wosusuw": 2532,
      "lex": 2533,
      "Central": 2534,
      "atete": 2535,
      "Septe": 2536,
      "Morocco": 2537,
      "Atta": 2538,
      "Boa": 2539,
      "adɔ": 2540,
      "Director": 2541,
      "Ru": 2542,
      "Tu": 2543,
      "ɛtwa": 2544,
      "dwe": 2545,
      "wobɛka": 2546,
      "frama": 2547,
      "September": 2548,
      "baanu": 2549,
      "agoprama": 2550,
      "aburo": 2551,
      "mom": 2552,
      "ɔhyɛ": 2553,
      "wen": 2554,
      "bisae": 2555,
      "Opoku": 2556,
      "adwumaden": 2557,
      "ɛbɛsi": 2558,
      "Mills": 2559,
      "mmoden": 2560,
      "tt": 2561,
      "toom": 2562,
      "Wɔkaa": 2563,
      "lla": 2564,
      "wɔkyerɛ": 2565,
      "wɔkasa": 2566,
      "Meka": 2567,
      "funu": 2568,
      "fɛɛ": 2569,
      "amammuo": 2570,
      "ters": 2571,
      "spital": 2572,
      "ahyehyɛ": 2573,
      "yɛda": 2574,
      "Agyeman": 2575,
      "yɛe": 2576,
      "yɛtumi": 2577,
      "yɛrekyerɛ": 2578,
      "Ɔpɛpɔn": 2579,
      "yɛne": 2580,
      "wowɔ": 2581,
      "Davi": 2582,
      "asiesie": 2583,
      "star": 2584,
      "Elec": 2585,
      "Gal": 2586,
      "wosusu": 2587,
      "Wopɛ": 2588,
      "ach": 2589,
      "tary": 2590,
      "ntwi": 2591,
      "yɛrebɔ": 2592,
      "nkum": 2593,
      "aboterɛ": 2594,
      "woakɔ": 2595,
      "yɛbɛgyae": 2596,
      "seesei": 2597,
      "Olympic": 2598,
      "wrest": 2599,
      "ɛkeka": 2600,
      "yɛrehu": 2601,
      "frastructure": 2602,
      "part": 2603,
      "Offi": 2604,
      "amu": 2605,
      "yɛtee": 2606,
      "Tor": 2607,
      "taphor": 2608,
      "Euro": 2609,
      "asan": 2610,
      "esii": 2611,
      "sur": 2612,
      "nnwa": 2613,
      "yɛahu": 2614,
      "stic": 2615,
      "17": 2616,
      "Obi": 2617,
      "nkasa": 2618,
      "twitwa": 2619,
      "kyɛn": 2620,
      "ɔsɛe": 2621,
      "yɛrebu": 2622,
      "hanti": 2623,
      "Mor": 2624,
      "Sɛdeɛ": 2625,
      "wɔnkɔ": 2626,
      "dɛm": 2627,
      "ghts": 2628,
      "kɔhwehwɛɛ": 2629,
      "Ashanti": 2630,
      "boaa": 2631,
      "Nokwareɛ": 2632,
      "denti": 2633,
      "Ɔbaa": 2634,
      "wɔhunu": 2635,
      "menta": 2636,
      "billion": 2637,
      "adwi": 2638,
      "abɛdi": 2639,
      "noo": 2640,
      "kɔm": 2641,
      "management": 2642,
      "counta": 2643,
      "wrestling": 2644,
      "bɛkasa": 2645,
      "kwaa": 2646,
      "wofiri": 2647,
      "kunu": 2648,
      "ɔrehyɛ": 2649,
      "Ah": 2650,
      "SA": 2651,
      "iɛ": 2652,
      "stu": 2653,
      "ɔba": 2654,
      "doɔ": 2655,
      "nnyigyei": 2656,
      "mpanyimfoɔ": 2657,
      "ɔgyina": 2658,
      "wonim": 2659,
      "yɛrehyɛ": 2660,
      "artiste": 2661,
      "aduasa": 2662,
      "amannɔne": 2663,
      "gan": 2664,
      "ɛgyina": 2665,
      "ɛnka": 2666,
      "fini": 2667,
      "adwenem": 2668,
      "power": 2669,
      "Achea": 2670,
      "professi": 2671,
      "Acheampong": 2672,
      "Aye": 2673,
      "Tra": 2674,
      "roup": 2675,
      "La": 2676,
      "FIFA": 2677,
      "ɔtee": 2678,
      "foro": 2679,
      "mmarahyɛbadwa": 2680,
      "Mpo": 2681,
      "ff": 2682,
      "ɔrehwɛ": 2683,
      "Kwaku": 2684,
      "13": 2685,
      "ɛbɛdi": 2686,
      "nsrahwɛ": 2687,
      "Du": 2688,
      "asotwe": 2689,
      "mebisa": 2690,
      "boah": 2691,
      "Chri": 2692,
      "Tama": 2693,
      "2028": 2694,
      "mmabunu": 2695,
      "Geor": 2696,
      "aku": 2697,
      "ɛreka": 2698,
      "nnuane": 2699,
      "ofiri": 2700,
      "ɛberɛ": 2701,
      "thority": 2702,
      "Championship": 2703,
      "apo": 2704,
      "wate": 2705,
      "akyirikyiri": 2706,
      "GA": 2707,
      "Ná": 2708,
      "Pal": 2709,
      "my": 2710,
      "kyekyere": 2711,
      "mining": 2712,
      "2020": 2713,
      "kanea": 2714,
      "Ɔkasa": 2715,
      "ɔbɛbɔ": 2716,
      "Ernest": 2717,
      "sea": 2718,
      "fes": 2719,
      "Mmoa": 2720,
      "Ada": 2721,
      "retu": 2722,
      "kɔhwɛ": 2723,
      "kɔdii": 2724,
      "kor": 2725,
      "law": 2726,
      "ɛpɛ": 2727,
      "ɛnam": 2728,
      "kɔsii": 2729,
      "bɔn": 2730,
      "contra": 2731,
      "dwoodwoo": 2732,
      "atifi": 2733,
      "At": 2734,
      "mwrestling": 2735,
      "Kye": 2736,
      "wɔan": 2737,
      "set": 2738,
      "urnalist": 2739,
      "ɛnkyɛ": 2740,
      "News": 2741,
      "urnament": 2742,
      "Fri": 2743,
      "Hou": 2744,
      "wɔkaa": 2745,
      "meate": 2746,
      "ɛnneɛma": 2747,
      "pira": 2748,
      "ference": 2749,
      "Asare": 2750,
      "Az": 2751,
      "cto": 2752,
      "yɛkeka": 2753,
      "wɔaka": 2754,
      "dation": 2755,
      "adidi": 2756,
      "mmarahyɛbadw": 2757,
      "Heli": 2758,
      "ign": 2759,
      "abasobɔdeɛ": 2760,
      "ud": 2761,
      "wei": 2762,
      "Committee": 2763,
      "kwae": 2764,
      "Efi": 2765,
      "yɛdwene": 2766,
      "ɛbɛfiri": 2767,
      "her": 2768,
      "peti": 2769,
      "ord": 2770,
      "China": 2771,
      "show": 2772,
      "soa": 2773,
      "ahonya": 2774,
      "ars": 2775,
      "Oak": 2776,
      "Ofori": 2777,
      "bɛtɔ": 2778,
      "wɔda": 2779,
      "lag": 2780,
      "fessor": 2781,
      "Ɛma": 2782,
      "reboa": 2783,
      "nior": 2784,
      "Premi": 2785,
      "wɛn": 2786,
      "Ger": 2787,
      "Tennis": 2788,
      "nkitahodi": 2789,
      "tohɔ": 2790,
      "ous": 2791,
      "political": 2792,
      "Lo": 2793,
      "ders": 2794,
      "buu": 2795,
      "fer": 2796,
      "ɛtumi": 2797,
      "metie": 2798,
      "infrastructure": 2799,
      "cus": 2800,
      "School": 2801,
      "ɛbɛn": 2802,
      "ɔrebɔ": 2803,
      "ath": 2804,
      "training": 2805,
      "ambo": 2806,
      "cle": 2807,
      "ranimfoɔ": 2808,
      "rewu": 2809,
      "Electoral": 2810,
      "doh": 2811,
      "Jose": 2812,
      "wɔbɛtena": 2813,
      "waka": 2814,
      "Premier": 2815,
      "abotɔ": 2816,
      "rds": 2817,
      "sul": 2818,
      "Gover": 2819,
      "tainment": 2820,
      "Ase": 2821,
      "ace": 2822,
      "ssa": 2823,
      "mewɔ": 2824,
      "ware": 2825,
      "akontaa": 2826,
      "abɔne": 2827,
      "sisi": 2828,
      "nyae": 2829,
      "final": 2830,
      "ɔrekasa": 2831,
      "dence": 2832,
      "Vice": 2833,
      "nhom": 2834,
      "support": 2835,
      "wɔnam": 2836,
      "state": 2837,
      "qualifi": 2838,
      "sha": 2839,
      "akra": 2840,
      "countability": 2841,
      "rt": 2842,
      "wɔhia": 2843,
      "deration": 2844,
      "akora": 2845,
      "New": 2846,
      "Chair": 2847,
      "virus": 2848,
      "25": 2849,
      "ɔbɛyɛɛ": 2850,
      "mogya": 2851,
      "ɔmfa": 2852,
      "ɔhuu": 2853,
      "retwa": 2854,
      "asere": 2855,
      "amanyɔfo": 2856,
      "atesɛm": 2857,
      "baakoyɛ": 2858,
      "ɛpo": 2859,
      "data": 2860,
      "mmɔn": 2861,
      "economy": 2862,
      "Aboa": 2863,
      "SP": 2864,
      "wɔkae": 2865,
      "2026": 2866,
      "ason": 2867,
      "ankoran": 2868,
      "nical": 2869,
      "ahodoɔ": 2870,
      "atom": 2871,
      "Akufo": 2872,
      "Ago": 2873,
      "Ki": 2874,
      "ful": 2875,
      "akyere": 2876,
      "akonnwa": 2877,
      "Hospital": 2878,
      "Es": 2879,
      "force": 2880,
      "Abu": 2881,
      "Ɛberɛ": 2882,
      "mefa": 2883,
      "aniso": 2884,
      "nnwen": 2885,
      "wɔrebu": 2886,
      "Ea": 2887,
      "obetumi": 2888,
      "asoɔ": 2889,
      "nority": 2890,
      "dwoa": 2891,
      "wɔhunuu": 2892,
      "mahu": 2893,
      "Yɛnkɔ": 2894,
      "form": 2895,
      "House": 2896,
      "adwen": 2897,
      "ɔmaa": 2898,
      "atwe": 2899,
      "Mmarima": 2900,
      "kurow": 2901,
      "integ": 2902,
      "seree": 2903,
      "afuo": 2904,
      "atri": 2905,
      "Mark": 2906,
      "akyire": 2907,
      "BA": 2908,
      "mfɛ": 2909,
      "ut": 2910,
      "ɛnteɛ": 2911,
      "ɔyɛeɛ": 2912,
      "wɔreba": 2913,
      "May": 2914,
      "ntertainment": 2915,
      "Meteɛ": 2916,
      "nnwo": 2917,
      "asuafoɔ": 2918,
      "Ɔte": 2919,
      "kɔtoo": 2920,
      "vent": 2921,
      "adwumayɛfo": 2922,
      "mfom": 2923,
      "Boate": 2924,
      "Security": 2925,
      "Appi": 2926,
      "metaphor": 2927,
      "Alhaji": 2928,
      "doo": 2929,
      "cracy": 2930,
      "change": 2931,
      "umah": 2932,
      "ɛnt": 2933,
      "reative": 2934,
      "dadeɛ": 2935,
      "ɛtrɛw": 2936,
      "Galamsey": 2937,
      "George": 2938,
      "ecu": 2939,
      "Ɔkaeɛ": 2940,
      "sida": 2941,
      "GP": 2942,
      "pon": 2943,
      "ahotosoɔ": 2944,
      "Ɛbɛyɛɛ": 2945,
      "energy": 2946,
      "Professor": 2947,
      "wɔbɛkyerɛ": 2948,
      "anisoade": 2949,
      "nhyira": 2950,
      "Ɛduruu": 2951,
      "yɛnkae": 2952,
      "Minority": 2953,
      "sdom": 2954,
      "atew": 2955,
      "Ayi": 2956,
      "Air": 2957,
      "Mmom": 2958,
      "ed": 2959,
      "ɛdii": 2960,
      "kyena": 2961,
      "kyerɛeɛ": 2962,
      "Wɔwɔ": 2963,
      "yɛatumi": 2964,
      "bɛdii": 2965,
      "woayɛ": 2966,
      "care": 2967,
      "Ber": 2968,
      "Mur": 2969,
      "tala": 2970,
      "akɔkyerɛ": 2971,
      "Mmarahyɛbadwa": 2972,
      "tern": 2973,
      "market": 2974,
      "Murtala": 2975,
      "26": 2976,
      "Adwoa": 2977,
      "Bon": 2978,
      "GT": 2979,
      "ɛsi": 2980,
      "ant": 2981,
      "wii": 2982,
      "mode": 2983,
      "med": 2984,
      "mmeae": 2985,
      "private": 2986,
      "lism": 2987,
      "abɔfra": 2988,
      "Authority": 2989,
      "abodin": 2990,
      "awia": 2991,
      "28": 2992,
      "Ana": 2993,
      "Awu": 2994,
      "RA": 2995,
      "fans": 2996,
      "mframa": 2997,
      "cti": 2998,
      "ɔbɛkora": 2999,
      "Monhwɛ": 3000,
      "Pa": 3001,
      "obe": 3002,
      "ɛsan": 3003,
      "nkyɛre": 3004,
      "Medi": 3005,
      "Mepene": 3006,
      "aduanan": 3007,
      "Seme": 3008,
      "nnansa": 3009,
      "Boateng": 3010,
      "Vol": 3011,
      "ananseɛ": 3012,
      "transpa": 3013,
      "Helicopter": 3014,
      "Gi": 3015,
      "afu": 3016,
      "yɛaka": 3017,
      "Kweku": 3018,
      "ankorankoro": 3019,
      "ope": 3020,
      "test": 3021,
      "Wɔkɔɔ": 3022,
      "Regional": 3023,
      "International": 3024,
      "dra": 3025,
      "kwaw": 3026,
      "anammɔn": 3027,
      "One": 3028,
      "mereka": 3029,
      "mihu": 3030,
      "wuhwɛ": 3031,
      "kyerɛwtohɔ": 3032,
      "Semenyo": 3033,
      "megye": 3034,
      "nsakrae": 3035,
      "medwene": 3036,
      "Mehu": 3037,
      "toto": 3038,
      "gic": 3039,
      "animguase": 3040,
      "nology": 3041,
      "owia": 3042,
      "tɔɔ": 3043,
      "AI": 3044,
      "book": 3045,
      "stage": 3046,
      "nhu": 3047,
      "mene": 3048,
      "tournament": 3049,
      "Wode": 3050,
      "hwi": 3051,
      "gyaw": 3052,
      "forma": 3053,
      "yɛsɛe": 3054,
      "nomic": 3055,
      "wɔnka": 3056,
      "2022": 3057,
      "ahwɛyiye": 3058,
      "ight": 3059,
      "fɛɛfɛ": 3060,
      "Morning": 3061,
      "ams": 3062,
      "communi": 3063,
      "investi": 3064,
      "HIV": 3065,
      "Tamale": 3066,
      "integrity": 3067,
      "fai": 3068,
      "abien": 3069,
      "hy": 3070,
      "ɔmpɛ": 3071,
      "Adom": 3072,
      "Ste": 3073,
      "St": 3074,
      "king": 3075,
      "bɛhwe": 3076,
      "Kwesi": 3077,
      "wɔmpɛ": 3078,
      "kɔyɛ": 3079,
      "nkɔmmɔbɔ": 3080,
      "awieɛ": 3081,
      "aye": 3082,
      "buee": 3083,
      "Coast": 3084,
      "Spe": 3085,
      "kɔhyɛɛ": 3086,
      "wobɛtumi": 3087,
      "21": 3088,
      "amfa": 3089,
      "trɛw": 3090,
      "bɛsesa": 3091,
      "wobe": 3092,
      "akyinnye": 3093,
      "200": 3094,
      "Adansi": 3095,
      "ecutive": 3096,
      "id": 3097,
      "ments": 3098,
      "amaneɛbɔ": 3099,
      "Abdu": 3100,
      "Bas": 3101,
      "Ɛkwan": 3102,
      "yɛntumi": 3103,
      "nnuan": 3104,
      "Daabi": 3105,
      "nyansafoɔ": 3106,
      "Asase": 3107,
      "Bɔɔl": 3108,
      "yɛbɛsɛe": 3109,
      "ɔbɛhwɛ": 3110,
      "Tok": 3111,
      "ntɔkwa": 3112,
      "CEO": 3113,
      "Tho": 3114,
      "mas": 3115,
      "Wɔbɔɔ": 3116,
      "Chairman": 3117,
      "Chan": 3118,
      "que": 3119,
      "ɔsoro": 3120,
      "menya": 3121,
      "wɔrehwehwɛ": 3122,
      "Kenya": 3123,
      "anwummere": 3124,
      "nnwonto": 3125,
      "Asom": 3126,
      "Patri": 3127,
      "cli": 3128,
      "dedaw": 3129,
      "lling": 3130,
      "Football": 3131,
      "wɔreko": 3132,
      "ɔrepɛ": 3133,
      "East": 3134,
      "onto": 3135,
      "ɔpɛɛ": 3136,
      "proje": 3137,
      "wiee": 3138,
      "Face": 3139,
      "Asie": 3140,
      "IM": 3141,
      "yɛyi": 3142,
      "akɔyɛ": 3143,
      "Chel": 3144,
      "professional": 3145,
      "dam": 3146,
      "fɛfɛɛfɛ": 3147,
      "Chelsea": 3148,
      "Gre": 3149,
      "Law": 3150,
      "flag": 3151,
      "yɛnhwehwɛ": 3152,
      "nimaa": 3153,
      "honhom": 3154,
      "adwumakuw": 3155,
      "hini": 3156,
      "uel": 3157,
      "dwinnwen": 3158,
      "Bro": 3159,
      "Pu": 3160,
      "bɛhyia": 3161,
      "ammu": 3162,
      "Lond": 3163,
      "amumu": 3164,
      "London": 3165,
      "Ahe": 3166,
      "Je": 3167,
      "horow": 3168,
      "nimfini": 3169,
      "Mmofra": 3170,
      "vaccine": 3171,
      "mfɛfoɔ": 3172,
      "Gu": 3173,
      "kraa": 3174,
      "ɛhwɛ": 3175,
      "produ": 3176,
      "ctor": 3177,
      "wn": 3178,
      "Ananseɛ": 3179,
      "wisdom": 3180,
      "Agyemang": 3181,
      "nsamu": 3182,
      "hing": 3183,
      "Mmeranteɛ": 3184,
      "wɔbu": 3185,
      "wim": 3186,
      "ɛkyerɛɛ": 3187,
      "wɔreboa": 3188,
      "phy": 3189,
      "Ja": 3190,
      "ɛtoo": 3191,
      "yɛsua": 3192,
      "pt": 3193,
      "dwan": 3194,
      "dget": 3195,
      "Ben": 3196,
      "rehyia": 3197,
      "Joy": 3198,
      "masua": 3199,
      "nansa": 3200,
      "Adj": 3201,
      "yini": 3202,
      "kɔmaa": 3203,
      "rap": 3204,
      "Joseph": 3205,
      "bri": 3206,
      "bereɛ": 3207,
      "nkata": 3208,
      "Eng": 3209,
      "Twi": 3210,
      "ɛdɔ": 3211,
      "nifo": 3212,
      "medi": 3213,
      "wɔbɛsi": 3214,
      "Torkor": 3215,
      "ɔhu": 3216,
      "wɔhyɛ": 3217,
      "adesoa": 3218,
      "Games": 3219,
      "nwom": 3220,
      "sc": 3221,
      "ɛha": 3222,
      "annyina": 3223,
      "dwoeɛ": 3224,
      "State": 3225,
      "leadership": 3226,
      "23": 3227,
      "Har": 3228,
      "yɛnkasa": 3229,
      "abusuafoɔ": 3230,
      "player": 3231,
      "Charles": 3232,
      "ahyehyɛdeɛ": 3233,
      "Torkornoo": 3234,
      "FC": 3235,
      "Ɔma": 3236,
      "menyɛ": 3237,
      "Yeboah": 3238,
      "strategy": 3239,
      "yafunu": 3240,
      "rona": 3241,
      "hoɔ": 3242,
      "ater": 3243,
      "asra": 3244,
      "basketball": 3245,
      "Tot": 3246,
      "ɔtumi": 3247,
      "mance": 3248,
      "ɔhwɛɛ": 3249,
      "CE": 3250,
      "Nte": 3251,
      "Ɛnkyɛre": 3252,
      "ɔkyerɛkyerɛ": 3253,
      "nsow": 3254,
      "mmɔfoɔ": 3255,
      "Day": 3256,
      "mfinimfini": 3257,
      "apam": 3258,
      "IGP": 3259,
      "free": 3260,
      "tter": 3261,
      "wuwu": 3262,
      "Nii": 3263,
      "Tech": 3264,
      "tenham": 3265,
      "Tottenham": 3266,
      "kyie": 3267,
      "mɛka": 3268,
      "vation": 3269,
      "Ɔhyɛɛ": 3270,
      "ɔbra": 3271,
      "wɔsan": 3272,
      "season": 3273,
      "yɛbɛhwere": 3274,
      "atwi": 3275,
      "Nnɛ": 3276,
      "abatow": 3277,
      "cies": 3278,
      "wɔyɛeɛ": 3279,
      "pha": 3280,
      "rom": 3281,
      "vy": 3282,
      "safe": 3283,
      "crash": 3284,
      "perfor": 3285,
      "Asi": 3286,
      "ES": 3287,
      "ption": 3288,
      "za": 3289,
      "date": 3290,
      "kunkum": 3291,
      "mmɔne": 3292,
      "ɔnhwɛ": 3293,
      "Adeɛ": 3294,
      "CA": 3295,
      "Otum": 3296,
      "mebɔ": 3297,
      "Meate": 3298,
      "kɔkɔbɔ": 3299,
      "Hon": 3300,
      "air": 3301,
      "waa": 3302,
      "remfi": 3303,
      "sing": 3304,
      "mmy": 3305,
      "suu": 3306,
      "nnyinasosɛm": 3307,
      "bre": 3308,
      "gation": 3309,
      "kɔkaa": 3310,
      "cedi": 3311,
      "Mali": 3312,
      "ja": 3313,
      "ton": 3314,
      "ɔsɛ": 3315,
      "ɔtwe": 3316,
      "ɛkyɛ": 3317,
      "match": 3318,
      "yers": 3319,
      "nnyaa": 3320,
      "Afriyie": 3321,
      "Dani": 3322,
      "Edw": 3323,
      "ft": 3324,
      "qui": 3325,
      "bia": 3326,
      "woyɛɛ": 3327,
      "nkoto": 3328,
      "Micha": 3329,
      "Willi": 3330,
      "Mantam": 3331,
      "Michael": 3332,
      "50": 3333,
      "Sɛn": 3334,
      "entertainment": 3335,
      "gon": 3336,
      "ɔnkɔ": 3337,
      "ɔkura": 3338,
      "ury": 3339,
      "sure": 3340,
      "Wɔkae": 3341,
      "199": 3342,
      "ɔtare": 3343,
      "pitch": 3344,
      "culture": 3345,
      "view": 3346,
      "ahwehwɛ": 3347,
      "Star": 3348,
      "puty": 3349,
      "legend": 3350,
      "ɔkannifoɔ": 3351,
      "Otumfuo": 3352,
      "ntena": 3353,
      "ntan": 3354,
      "stra": 3355,
      "rency": 3356,
      "Ot": 3357,
      "ent": 3358,
      "pɔw": 3359,
      "Baf": 3360,
      "bɛsan": 3361,
      "tual": 3362,
      "Pau": 3363,
      "lor": 3364,
      "va": 3365,
      "Ɔhunuu": 3366,
      "nnwontofoɔ": 3367,
      "development": 3368,
      "urse": 3369,
      "ɛrekyerɛ": 3370,
      "wɔbɛhyɛ": 3371,
      "ntadeɛ": 3372,
      "100": 3373,
      "bran": 3374,
      "aduo": 3375,
      "atutu": 3376,
      "ɔkyena": 3377,
      "kɔka": 3378,
      "sts": 3379,
      "perso": 3380,
      "demokra": 3381,
      "Ogya": 3382,
      "wɔkura": 3383,
      "nnɔ": 3384,
      "kenkan": 3385,
      "peri": 3386,
      "Daniel": 3387,
      "moah": 3388,
      "standa": 3389,
      "Appiah": 3390,
      "hockey": 3391,
      "akyerɛw": 3392,
      "wobɛte": 3393,
      "plat": 3394,
      "Facebook": 3395,
      "ronavirus": 3396,
      "wobɔ": 3397,
      "wieeɛ": 3398,
      "ananmusifoɔ": 3399,
      "Wontumi": 3400,
      "aburokyire": 3401,
      "Asiedu": 3402,
      ").": 3403,
      "31": 3404,
      "idoo": 3405,
      "yiedie": 3406,
      "politics": 3407,
      "resɛe": 3408,
      "medwen": 3409,
      "field": 3410,
      "nkyerɛkyerɛmu": 3411,
      "Ade": 3412,
      "dor": 3413,
      "ski": 3414,
      "acy": 3415,
      "Akwan": 3416,
      "Ɔtee": 3417,
      "ɔnam": 3418,
      "woaka": 3419,
      "didi": 3420,
      "tation": 3421,
      "2019": 3422,
      "mehwɛɛ": 3423,
      "Wunim": 3424,
      "official": 3425,
      "Ɔmampanyin": 3426,
      "pli": 3427,
      "rehwehwɛ": 3428,
      "league": 3429,
      "asɛdeɛ": 3430,
      "ɔgyinaa": 3431,
      "ates": 3432,
      "Car": 3433,
      "refrɛ": 3434,
      "time": 3435,
      "anomaa": 3436,
      "Armwrestling": 3437,
      "korɔn": 3438,
      "Sal": 3439,
      "Muni": 3440,
      "plan": 3441,
      "wohu": 3442,
      "back": 3443,
      "dawuro": 3444,
      "dɛɛdɛɛ": 3445,
      "Spi": 3446,
      "tte": 3447,
      "hie": 3448,
      "sty": 3449,
      "yɛrentumi": 3450,
      "wobɛhunu": 3451,
      "Richa": 3452,
      "Sarko": 3453,
      "ɛtra": 3454,
      "tax": 3455,
      "adanse": 3456,
      "quah": 3457,
      "lleng": 3458,
      "Akandoh": 3459,
      "kã": 3460,
      "presi": 3461,
      "mah": 3462,
      "hui": 3463,
      "sum": 3464,
      "forms": 3465,
      "illegal": 3466,
      "Paul": 3467,
      "TA": 3468,
      "dzi": 3469,
      "adwa": 3470,
      "kyerɛfoɔ": 3471,
      "koo": 3472,
      "ɔbɛtena": 3473,
      "Kwaeɛ": 3474,
      "Sarkodie": 3475,
      "Bra": 3476,
      "ɔrehwehwɛ": 3477,
      "contract": 3478,
      "sour": 3479,
      "sed": 3480,
      "wobɛkɔ": 3481,
      "yɛbɛkura": 3482,
      "llar": 3483,
      "amanehunu": 3484,
      "gyidie": 3485,
      "ɔnyaa": 3486,
      "bɛbu": 3487,
      "leum": 3488,
      "llo": 3489,
      "),": 3490,
      "NI": 3491,
      "ɔgyaee": 3492,
      "yɛadi": 3493,
      "lee": 3494,
      "Dece": 3495,
      "ahen": 3496,
      "29": 3497,
      "Lambo": 3498,
      "Mana": 3499,
      "kɔhwɛɛ": 3500,
      "fashi": 3501,
      "ɛbɛbɔ": 3502,
      "dɔfo": 3503,
      "Deputy": 3504,
      "Bɔɔlo": 3505,
      "urnalists": 3506,
      "wɔtumi": 3507,
      "nyane": 3508,
      "beare": 3509,
      "Wosusuw": 3510,
      "dodow": 3511,
      "asisi": 3512,
      "Abdul": 3513,
      "December": 3514,
      "Awa": 3515,
      "wɔkyerɛɛ": 3516,
      "rebisa": 3517,
      "\"?": 3518,
      "Obu": 3519,
      "Tru": 3520,
      "onni": 3521,
      "wɔtee": 3522,
      "mmaranimfoɔ": 3523,
      "wɔrehu": 3524,
      "rghini": 3525,
      "Thomas": 3526,
      "Lamborghini": 3527,
      "Hu": 3528,
      "Media": 3529,
      "amumuyɛ": 3530,
      "Nsuo": 3531,
      "Nnansa": 3532,
      "ɔpe": 3533,
      "aneɛ": 3534,
      "all": 3535,
      "ahenni": 3536,
      "Amoah": 3537,
      "mfomsoɔ": 3538,
      "Nkɔ": 3539,
      "Sam": 3540,
      "Ɛdeɛn": 3541,
      "nie": 3542,
      "wotua": 3543,
      "ves": 3544,
      "Frank": 3545,
      "petition": 3546,
      "ɔhyiaa": 3547,
      "yɛdɔ": 3548,
      "koto": 3549,
      "stment": 3550,
      "Communi": 3551,
      "committee": 3552,
      "Emman": 3553,
      "vor": 3554,
      "report": 3555,
      "coac": 3556,
      "meneda": 3557,
      "wɔyi": 3558,
      "ying": 3559,
      "yɛnkura": 3560,
      "nke": 3561,
      "yiyedi": 3562,
      "Dar": 3563,
      "mɔden": 3564,
      "Ɛhia": 3565,
      "ɔyare": 3566,
      "anwo": 3567,
      "yim": 3568,
      "saase": 3569,
      "ahobrɛ": 3570,
      "hemaa": 3571,
      "Wotee": 3572,
      "Secre": 3573,
      "short": 3574,
      "Dor": 3575,
      "nancial": 3576,
      "wɔregye": 3577,
      "Asraa": 3578,
      "troleum": 3579,
      "Federation": 3580,
      "Nteaseɛ": 3581,
      "Yaa": 3582,
      "atie": 3583,
      "ɛsono": 3584,
      "wɔakɔ": 3585,
      "dit": 3586,
      "agen": 3587,
      "akokodurufoɔ": 3588,
      "Nkran": 3589,
      "akɛse": 3590,
      "suaa": 3591,
      "ɔbɛtu": 3592,
      "mmusua": 3593,
      "eyinom": 3594,
      "performance": 3595,
      "Pi": 3596,
      "head": 3597,
      "adamfo": 3598,
      "Afenyo": 3599,
      "abotɔyam": 3600,
      "Markin": 3601,
      "sɔfoɔ": 3602,
      "nomi": 3603,
      "amanyɔni": 3604,
      "adeyɛ": 3605,
      "Mp": 3606,
      "ɛrebu": 3607,
      "wɔbɛba": 3608,
      "2021": 3609,
      "Emmanuel": 3610,
      "nkran": 3611,
      "board": 3612,
      "constitu": 3613,
      "ahonyadeɛ": 3614,
      "Lar": 3615,
      "kɔyɛɛ": 3616,
      "fia": 3617,
      "adwempa": 3618,
      "rent": 3619,
      "table": 3620,
      "mpaninfoɔ": 3621,
      "yɛhunuu": 3622,
      "wɔtoo": 3623,
      "ɔredi": 3624,
      "apɔmuden": 3625,
      "Akro": 3626,
      "ehia": 3627,
      "Ɔpɔnkɔ": 3628,
      "defe": 3629,
      "woreyɛ": 3630,
      "taku": 3631,
      "Sol": 3632,
      "cts": 3633,
      "regu": 3634,
      "sear": 3635,
      "ɛnɛ": 3636,
      "future": 3637,
      "yɛahwɛ": 3638,
      "City": 3639,
      "Aboagye": 3640,
      "fashion": 3641,
      "She": 3642,
      "kɔfa": 3643,
      "akokwaw": 3644,
      "Woate": 3645,
      "dential": 3646,
      "adwiri": 3647,
      "Ali": 3648,
      "odi": 3649,
      "ɛnkɔ": 3650,
      "Wɔreka": 3651,
      "beae": 3652,
      "staina": 3653,
      "Edward": 3654,
      "Col": 3655,
      "Sport": 3656,
      "Ɛnna": 3657,
      "yɛmpɛ": 3658,
      "rebɛyɛ": 3659,
      "sic": 3660,
      "ris": 3661,
      "gram": 3662,
      "22": 3663,
      "El": 3664,
      "aniteɛ": 3665,
      "omson": 3666,
      "Koomson": 3667,
      "asakra": 3668,
      "Antwi": 3669,
      "are": 3670,
      "bɛhyɛɛ": 3671,
      "Bright": 3672,
      "yɛdeɛ": 3673,
      "ɔbɛhyɛ": 3674,
      "June": 3675,
      "strategic": 3676,
      "Volta": 3677,
      "wɔba": 3678,
      "worehwɛ": 3679,
      "ntem": 3680,
      "akɔhwehwɛ": 3681,
      "lation": 3682,
      "urism": 3683,
      "flagbeare": 3684,
      "Janu": 3685,
      "asie": 3686,
      "ona": 3687,
      "tifi": 3688,
      "yadeɛ": 3689,
      "amammu": 3690,
      "ɔbɛgyina": 3691,
      "ahodwiriw": 3692,
      "wɔahu": 3693,
      "Tik": 3694,
      "abotereɛ": 3695,
      "January": 3696,
      "game": 3697,
      "nye": 3698,
      "nity": 3699,
      "tors": 3700,
      "ntentan": 3701,
      "ahan": 3702,
      "Lil": 3703,
      "Nko": 3704,
      "OSP": 3705,
      "nseɛ": 3706,
      "Ɛnam": 3707,
      "urs": 3708,
      "Aya": 3709,
      "Egy": 3710,
      "regi": 3711,
      "dina": 3712,
      "bel": 3713,
      "asianeɛ": 3714,
      "strict": 3715,
      "Ayew": 3716,
      "Richard": 3717,
      "education": 3718,
      "plo": 3719,
      "ɛduru": 3720,
      "bɔhyɛ": 3721,
      "wum": 3722,
      "wɔbɛgyina": 3723,
      "wɔrepɛ": 3724,
      "accountability": 3725,
      "percent": 3726,
      "Ɔdii": 3727,
      "sifoɔ": 3728,
      "ania": 3729,
      "wuntumi": 3730,
      "stadium": 3731,
      "sukuupɔn": 3732,
      "apan": 3733,
      "economic": 3734,
      "Nka": 3735,
      "tse": 3736,
      "ɔdwen": 3737,
      "nkor": 3738,
      "anwanwa": 3739,
      "fore": 3740,
      "wayɛ": 3741,
      "lass": 3742,
      "coach": 3743,
      "record": 3744,
      "Egypt": 3745,
      "wokɔ": 3746,
      "woreka": 3747,
      "tit": 3748,
      "spel": 3749,
      "Gyan": 3750,
      "Group": 3751,
      "atuo": 3752,
      "Ɛba": 3753,
      "yɛnnya": 3754,
      "rew": 3755,
      "body": 3756,
      "loo": 3757,
      "ckson": 3758,
      "Legon": 3759,
      "ahi": 3760,
      "global": 3761,
      "ɛman": 3762,
      "wɔahyɛ": 3763,
      "government": 3764,
      "ɔben": 3765,
      "tenti": 3766,
      "ats": 3767,
      "Woaka": 3768,
      "ɛntɛn": 3769,
      "event": 3770,
      "sraa": 3771,
      "bɛyera": 3772,
      "Mekae": 3773,
      "yɛbɛyera": 3774,
      "akwankyerɛfoɔ": 3775,
      "ahum": 3776,
      "athle": 3777,
      "search": 3778,
      "ners": 3779,
      "kasae": 3780,
      "wɔyɛe": 3781,
      "Nke": 3782,
      "bɛfiri": 3783,
      "torney": 3784,
      "Akua": 3785,
      "nor": 3786,
      "sig": 3787,
      "viron": 3788,
      "justice": 3789,
      "race": 3790,
      "suahu": 3791,
      "Sammy": 3792,
      "Yɛmfa": 3793,
      "spect": 3794,
      "atadeɛ": 3795,
      "ganda": 3796,
      "Foun": 3797,
      "bɛkae": 3798,
      "mufoɔ": 3799,
      "passion": 3800,
      "minu": 3801,
      "Board": 3802,
      "Baidoo": 3803,
      "Gyata": 3804,
      "ahobrɛaseɛ": 3805,
      "Hawa": 3806,
      "mahunu": 3807,
      "Memeneda": 3808,
      "ɔyɛe": 3809,
      "amanneɛbɔfoɔ": 3810,
      "Dankwa": 3811,
      "formation": 3812,
      "Obuasi": 3813,
      "ɛhyerɛn": 3814,
      "ruption": 3815,
      "Attorney": 3816,
      "Asomdwoeɛ": 3817,
      "atiri": 3818,
      "ele": 3819,
      "gbo": 3820,
      "rumah": 3821,
      "kɔpta": 3822,
      "tel": 3823,
      "nnuru": 3824,
      "Eyinom": 3825,
      "candi": 3826,
      "Akosua": 3827,
      "Nkrumah": 3828,
      "27": 3829,
      "Abo": 3830,
      "gre": 3831,
      "mid": 3832,
      "ɛkorɔn": 3833,
      "nkongua": 3834,
      "amammui": 3835,
      "James": 3836,
      "cate": 3837,
      "difo": 3838,
      "nkurofoɔ": 3839,
      "Adwumayɛfoɔ": 3840,
      "Ɔpɛnimaa": 3841,
      "safety": 3842,
      "Nu": 3843,
      "tele": 3844,
      "post": 3845,
      "Sarpong": 3846,
      "asaase": 3847,
      "creative": 3848,
      "ntra": 3849,
      "CAF": 3850,
      "Ɔreka": 3851,
      "nnebɔne": 3852,
      "nkokora": 3853,
      "Wɔyɛ": 3854,
      "wɔbɛte": 3855,
      "art": 3856,
      "Asamoah": 3857,
      "legacy": 3858,
      "Boakye": 3859,
      "Government": 3860,
      "SS": 3861,
      "atua": 3862,
      "ps": 3863,
      "wɔmm": 3864,
      "lence": 3865,
      "Ka": 3866,
      "ɛto": 3867,
      "meteeɛ": 3868,
      "honam": 3869,
      "bail": 3870,
      "yal": 3871,
      "denden": 3872,
      "mpaa": 3873,
      "Ebinom": 3874,
      "Ra": 3875,
      "news": 3876,
      "fuel": 3877,
      "pany": 3878,
      "David": 3879,
      "akontaabu": 3880,
      "Baa": 3881,
      "CC": 3882,
      "Kor": 3883,
      "sis": 3884,
      "wɔbɛsɛe": 3885,
      "ɛso": 3886,
      "yɛrekyerɛw": 3887,
      "cations": 3888,
      "Act": 3889,
      "ahofadi": 3890,
      "gs": 3891,
      "senal": 3892,
      "mebɛka": 3893,
      "yɛbɛkyerɛ": 3894,
      "Arsenal": 3895,
      "awofoɔ": 3896,
      "Mpanimfoɔ": 3897,
      "rial": 3898,
      "rɔfoɔ": 3899,
      "Win": 3900,
      "bɛtra": 3901,
      "bɛboro": 3902,
      "tural": 3903,
      "asɛyɛdeɛ": 3904,
      "challeng": 3905,
      "Executive": 3906,
      "vol": 3907,
      "hol": 3908,
      "abɛboa": 3909,
      "ford": 3910,
      "Donkor": 3911,
      "Pratt": 3912,
      "Global": 3913,
      "yɛsan": 3914,
      "box": 3915,
      "athe": 3916,
      "station": 3917,
      "high": 3918,
      "vio": 3919,
      "fua": 3920,
      "Nokwarem": 3921,
      "Bry": 3922,
      "Para": 3923,
      "gene": 3924,
      "koko": 3925,
      "fuor": 3926,
      "chair": 3927,
      "Ɔkɔtɔ": 3928,
      "investment": 3929,
      "nkoguo": 3930,
      "afanan": 3931,
      "ɔmm": 3932,
      "ɛkasa": 3933,
      "yɛkyerɛkyerɛ": 3934,
      "Afro": 3935,
      "wogyina": 3936,
      "dinn": 3937,
      "sub": 3938,
      "wɔbɛhwehwɛ": 3939,
      "cience": 3940,
      "wobɛdi": 3941,
      "ECG": 3942,
      "mpontuo": 3943,
      "focus": 3944,
      "boase": 3945,
      "ɔreba": 3946,
      "Akansie": 3947,
      "project": 3948,
      "TE": 3949,
      "Ɛfata": 3950,
      "Foundation": 3951,
      "Os": 3952,
      "bagua": 3953,
      "Ghan": 3954,
      "Ghanafo": 3955,
      "cks": 3956,
      "USA": 3957,
      "phet": 3958,
      "transparency": 3959,
      "Tan": 3960,
      "ɛna": 3961,
      "yɛkora": 3962,
      "bilee": 3963,
      "four": 3964,
      "benya": 3965,
      "roo": 3966,
      "cian": 3967,
      "Sudan": 3968,
      "Abla": 3969,
      "democracy": 3970,
      "Kni": 3971,
      "Sup": 3972,
      "ɛduruu": 3973,
      "antie": 3974,
      "bɛtie": 3975,
      "nkoa": 3976,
      "hen": 3977,
      "international": 3978,
      "An": 3979,
      "nsie": 3980,
      "secu": 3981,
      "Jubilee": 3982,
      "Leade": 3983,
      "mental": 3984,
      "TikTok": 3985,
      "cur": 3986,
      "ice": 3987,
      "ɔkyerɛkyerɛfoɔ": 3988,
      "yɛbom": 3989,
      "wahu": 3990,
      "gue": 3991,
      "process": 3992,
      "cut": 3993,
      "nyin": 3994,
      "rations": 3995,
      "gyinapɛn": 3996,
      "bɔɔlobɔni": 3997,
      "kronkron": 3998,
      "sources": 3999,
      "ɛbɔɔ": 4000,
      "kɔtɔ": 4001,
      "kwasɛm": 4002,
      "budget": 4003,
      "lice": 4004,
      "Boxing": 4005,
      "Yɛkɔ": 4006,
      "mɛyɛ": 4007,
      "Ɛsono": 4008,
      "wɔbɛsan": 4009,
      "ahow": 4010,
      "nkyekyɛ": 4011,
      "rgency": 4012,
      "mmarahyɛbadwani": 4013,
      "boasetɔ": 4014,
      "Ani": 4015,
      "fan": 4016,
      "yɛmma": 4017,
      "kata": 4018,
      "weight": 4019,
      "Wosusu": 4020,
      "abɔfoɔ": 4021,
      "spiri": 4022,
      "office": 4023,
      "MO": 4024,
      "use": 4025,
      "bɛtoo": 4026,
      "ɔbɛkasa": 4027,
      "akɔfa": 4028,
      "city": 4029,
      "TV3": 4030,
      "Ofosu": 4031,
      "ayie": 4032,
      "afie": 4033,
      "ks": 4034,
      "yɛsɛ": 4035,
      "kɔma": 4036,
      "fitaa": 4037,
      "Wɔyɛɛ": 4038,
      "jet": 4039,
      "Ato": 4040,
      "pace": 4041,
      "tus": 4042,
      "omon": 4043,
      "posi": 4044,
      "abɛsɛe": 4045,
      "Solomon": 4046,
      "hard": 4047,
      "abasa": 4048,
      "pool": 4049,
      "atemmuo": 4050,
      "ahyɛdeɛ": 4051,
      "technology": 4052,
      "Frimpong": 4053,
      "platform": 4054,
      "EP": 4055,
      "Education": 4056,
      "Mmaa": 4057,
      "gence": 4058,
      "ɔsoafoɔ": 4059,
      "anni": 4060,
      "bɛduruu": 4061,
      "manpanin": 4062,
      "ɛnna": 4063,
      "ɛnnyina": 4064,
      "hare": 4065,
      "Nokorɛ": 4066,
      "kurom": 4067,
      "champions": 4068,
      "Ridge": 4069,
      "Adjei": 4070,
      "case": 4071,
      "bɛkura": 4072,
      "Mmarahyɛbadw": 4073,
      "uta": 4074,
      "ys": 4075,
      "bɛtu": 4076,
      "kɔbɔ": 4077,
      "akotene": 4078,
      "Fire": 4079,
      "anwummerɛ": 4080,
      "Homo": 4081,
      "hɔhoɔ": 4082,
      "ake": 4083,
      "polling": 4084,
      "very": 4085,
      "wɔfata": 4086,
      "flagbearer": 4087,
      "Am": 4088,
      "gold": 4089,
      "lue": 4090,
      "una": 4091,
      "mergency": 4092,
      "disa": 4093,
      "kopta": 4094,
      "round": 4095,
      "buil": 4096,
      "mmereɛ": 4097,
      "akyinkyin": 4098,
      "value": 4099,
      "Amerika": 4100,
      "Fund": 4101,
      "mmani": 4102,
      "ɔtan": 4103,
      "rekyie": 4104,
      "bɛtwa": 4105,
      "defoɔ": 4106,
      "soronko": 4107,
      "ther": 4108,
      "Homowo": 4109,
      "Ang": 4110,
      "bla": 4111,
      "Merehwɛ": 4112,
      "room": 4113,
      "yɛbɛte": 4114,
      "out": 4115,
      "ntom": 4116,
      "helikɔpta": 4117,
      "count": 4118,
      "UK": 4119,
      "resul": 4120,
      "deen": 4121,
      "kɔpɛɛ": 4122,
      "anibereɛ": 4123,
      "light": 4124,
      "ɔbɛhunu": 4125,
      "ahonim": 4126,
      "stre": 4127,
      "Demo": 4128,
      "chester": 4129,
      "service": 4130,
      "Is": 4131,
      "reboaboa": 4132,
      "hodie": 4133,
      "mmɔbɔ": 4134,
      "vigi": 4135,
      "penal": 4136,
      "conference": 4137,
      "Maha": 4138,
      "nnyigyeɛ": 4139,
      "qualifiers": 4140,
      "60": 4141,
      "ccess": 4142,
      "yɛnnhwɛ": 4143,
      "refi": 4144,
      "wosɛe": 4145,
      "kom": 4146,
      "nsaano": 4147,
      "wugye": 4148,
      "wɔbɛhu": 4149,
      "cipa": 4150,
      "mpion": 4151,
      "apue": 4152,
      "lance": 4153,
      "dawuru": 4154,
      "awotwe": 4155,
      "anisoadehu": 4156,
      "Afia": 4157,
      "eng": 4158,
      "nkwan": 4159,
      "oil": 4160,
      "ɔtoo": 4161,
      "novation": 4162,
      "teng": 4163,
      "fair": 4164,
      "ɔbɛgye": 4165,
      "ahotɔ": 4166,
      "ɔregye": 4167,
      "ntary": 4168,
      "vid": 4169,
      "governance": 4170,
      "Europa": 4171,
      "LA": 4172,
      "bɛhwehwɛ": 4173,
      "baasa": 4174,
      "less": 4175,
      "stration": 4176,
      "vel": 4177,
      "mmuden": 4178,
      "verpool": 4179,
      "Journalists": 4180,
      "Liverpool": 4181,
      "akuafoɔ": 4182,
      "Knights": 4183,
      "wɔtie": 4184,
      "woara": 4185,
      "financial": 4186,
      "his": 4187,
      "inf": 4188,
      "agoro": 4189,
      "stake": 4190,
      "rown": 4191,
      "accident": 4192,
      "IMF": 4193,
      "oman": 4194,
      "ven": 4195,
      "wɔsi": 4196,
      "ordina": 4197,
      "ntene": 4198,
      "Yɛnnyɛ": 4199,
      "world": 4200,
      "thon": 4201,
      "Asraafoɔ": 4202,
      "Japan": 4203,
      "Panyin": 4204,
      "ɔto": 4205,
      "horo": 4206,
      "kyerɛwee": 4207,
      "Ghanai": 4208,
      "Poku": 4209,
      "polisifo": 4210,
      "Cong": 4211,
      "Cap": 4212,
      "amammere": 4213,
      "atɛkyɛ": 4214,
      "Yɛhwɛ": 4215,
      "yɛanhwɛ": 4216,
      "Ras": 4217,
      "ɔtu": 4218,
      "Menim": 4219,
      "human": 4220,
      "akwansi": 4221,
      "awerɛhyɛ": 4222,
      "quality": 4223,
      "Mmere": 4224,
      "apɔmmuden": 4225,
      "Ɔhuu": 4226,
      "ɔgyaa": 4227,
      "anum": 4228,
      "States": 4229,
      "District": 4230,
      "chere": 4231,
      "abotere": 4232,
      "legates": 4233,
      "Coach": 4234,
      "ahofadie": 4235,
      "LilWin": 4236,
      "bɛpue": 4237,
      "mudu": 4238,
      "wama": 4239,
      "Wɔkɔ": 4240,
      "wɔbɛhunu": 4241,
      "akɔhwɛ": 4242,
      "Abatoɔ": 4243,
      "Prophet": 4244,
      "ɔbɔfoɔ": 4245,
      "Manchester": 4246,
      "Otchere": 4247,
      "Lu": 4248,
      "reto": 4249,
      "nkokoraa": 4250,
      "abam": 4251,
      "yɛrehwehwɛ": 4252,
      "medical": 4253,
      "Alex": 4254,
      "lar": 4255,
      "nwi": 4256,
      "minim": 4257,
      "dwoɔ": 4258,
      "action": 4259,
      "aware": 4260,
      "Nyansa": 4261,
      "mema": 4262,
      "susuu": 4263,
      "Christi": 4264,
      "German": 4265,
      "Bonsu": 4266,
      "Fame": 4267,
      "anyɛ": 4268,
      "deal": 4269,
      "depen": 4270,
      "mina": 4271,
      "ademy": 4272,
      "term": 4273,
      "Defe": 4274,
      "style": 4275,
      "gbe": 4276,
      "wɔnnyina": 4277,
      "lif": 4278,
      "well": 4279,
      "bɔɔlɔfoɔ": 4280,
      "pres": 4281,
      "DJ": 4282,
      "You": 4283,
      "bly": 4284,
      "cas": 4285,
      "wɔpaw": 4286,
      "bɛgyinaa": 4287,
      "nii": 4288,
      "worekɔ": 4289,
      "audit": 4290,
      "Ɔpataku": 4291,
      "Public": 4292,
      "campa": 4293,
      "Ɔpɛɛ": 4294,
      "wonnim": 4295,
      "yɛahunu": 4296,
      "ntoma": 4297,
      "PS": 4298,
      "wɔtu": 4299,
      "maeɛ": 4300,
      "sel": 4301,
      "bar": 4302,
      "asɔfoɔ": 4303,
      "Nkɔmmɔ": 4304,
      "GRA": 4305,
      "Oko": 4306,
      "abrɛ": 4307,
      "migye": 4308,
      "success": 4309,
      "nny": 4310,
      "lay": 4311,
      "lations": 4312,
      "buaeɛ": 4313,
      "France": 4314,
      "sembly": 4315,
      "aseresɛm": 4316,
      "wobehu": 4317,
      "ahantan": 4318,
      "Mahamudu": 4319,
      "40": 4320,
      "pain": 4321,
      "kota": 4322,
      "bank": 4323,
      "asɔ": 4324,
      "Senior": 4325,
      "nsesae": 4326,
      "Danquah": 4327,
      "leaders": 4328,
      "Olympics": 4329,
      "Congress": 4330,
      "kɔɔto": 4331,
      "ɔregyina": 4332,
      "players": 4333,
      "roots": 4334,
      "Anto": 4335,
      "aguadi": 4336,
      "Basketball": 4337,
      "Eco": 4338,
      "Zi": 4339,
      "mayɛ": 4340,
      "anidie": 4341,
      "kwasida": 4342,
      "online": 4343,
      "nnyan": 4344,
      "akwansereɛ": 4345,
      "dies": 4346,
      "abɛɛ": 4347,
      "danee": 4348,
      "Gif": 4349,
      "Captain": 4350,
      "Gyam": 4351,
      "Papa": 4352,
      "yɛakɔ": 4353,
      "nel": 4354,
      "bɛbɔɔ": 4355,
      "manag": 4356,
      "woho": 4357,
      "woadi": 4358,
      "anife": 4359,
      "nnyansa": 4360,
      "jour": 4361,
      "quare": 4362,
      "corruption": 4363,
      "Secretary": 4364,
      "candidate": 4365,
      "Dwa": 4366,
      "Ly": 4367,
      "credi": 4368,
      "ple": 4369,
      "wɔabɔ": 4370,
      "remma": 4371,
      "ming": 4372,
      "ges": 4373,
      "fraud": 4374,
      "bɔɔlɔbɔ": 4375,
      "aduonum": 4376,
      "helikopta": 4377,
      "Fameye": 4378,
      "Ev": 4379,
      "Isaa": 4380,
      "wɔdɔ": 4381,
      "biz": 4382,
      "amal": 4383,
      "liame": 4384,
      "akonta": 4385,
      "abusu": 4386,
      "akyerɛkyerɛfoɔ": 4387,
      "Isaac": 4388,
      "ee": 4389,
      "py": 4390,
      "zation": 4391,
      "ɛdɔɔ": 4392,
      "task": 4393,
      "beng": 4394,
      "tory": 4395,
      "animtiaa": 4396,
      "cele": 4397,
      "duu": 4398,
      "fun": 4399,
      "nnyaeɛ": 4400,
      "Rev": 4401,
      "mart": 4402,
      "phone": 4403,
      "skills": 4404,
      "Up": 4405,
      "wɔhwere": 4406,
      "far": 4407,
      "riga": 4408,
      "hat": 4409,
      "hall": 4410,
      "colla": 4411,
      "stival": 4412,
      "Feli": 4413,
      "mpaapae": 4414,
      "Gyamfi": 4415,
      "Okra": 4416,
      "Yɛte": 4417,
      "dro": 4418,
      "ɔteɛ": 4419,
      "ɛbɛhyɛ": 4420,
      "agyi": 4421,
      "wɔregyina": 4422,
      "yɛrehyia": 4423,
      "sɔfo": 4424,
      "Centre": 4425,
      "results": 4426,
      "Eas": 4427,
      "mɔne": 4428,
      "van": 4429,
      "yɛtwɛn": 4430,
      "bɔɔkye": 4431,
      "wɔbɛkura": 4432,
      "Constitu": 4433,
      "perience": 4434,
      "Ath": 4435,
      "ahwe": 4436,
      "mbra": 4437,
      "wɔkyere": 4438,
      "nnibea": 4439,
      "mmon": 4440,
      "baawa": 4441,
      "mekaeɛ": 4442,
      "adɔeɛ": 4443,
      "asoɔden": 4444,
      "investigation": 4445,
      "liamentary": 4446,
      "SD": 4447,
      "ctive": 4448,
      "yɛtena": 4449,
      "wɔmaa": 4450,
      "sustaina": 4451,
      "toco": 4452,
      "Wɔaka": 4453,
      "money": 4454,
      "abufuw": 4455,
      "stapha": 4456,
      "Park": 4457,
      "Mustapha": 4458,
      "Adwumakuo": 4459,
      "mmuae": 4460,
      "vaccination": 4461,
      "technical": 4462,
      "vironment": 4463,
      "Gifty": 4464,
      "Ose": 4465,
      "Qua": 4466,
      "wonya": 4467,
      "kyea": 4468,
      "war": 4469,
      "akɔhyɛ": 4470,
      "Chad": 4471,
      "Athle": 4472,
      "Mc": 4473,
      "Square": 4474,
      "Wes": 4475,
      "Yɛyɛ": 4476,
      "mɛkɔ": 4477,
      "wosiesie": 4478,
      "road": 4479,
      "ɔbɛkyerɛkyerɛ": 4480,
      "fuom": 4481,
      "wobɛfa": 4482,
      "aduruyɛ": 4483,
      "akyekyere": 4484,
      "Year": 4485,
      "ɛkyɛn": 4486,
      "bɛko": 4487,
      "home": 4488,
      "fapem": 4489,
      "mou": 4490,
      "akannifo": 4491,
      "nketewa": 4492,
      "God": 4493,
      "crime": 4494,
      "personal": 4495,
      "Ayariga": 4496,
      "Ak": 4497,
      "Dwuma": 4498,
      "zy": 4499,
      "mited": 4500,
      "abɛbuo": 4501,
      "Inve": 4502,
      "Ablakwa": 4503,
      "Cathe": 4504,
      "whe": 4505,
      "resakra": 4506,
      "wosua": 4507,
      "tiaseɛ": 4508,
      "cision": 4509,
      "trol": 4510,
      "nkitahodiɛ": 4511,
      "Youth": 4512,
      "impa": 4513,
      "ɛtena": 4514,
      "not": 4515,
      "yɛbɛkae": 4516,
      "nkamfoɔ": 4517,
      "run": 4518,
      "Okraku": 4519,
      "sco": 4520,
      "kɔbɔɔ": 4521,
      "bers": 4522,
      "lly": 4523,
      "nkonimdifoɔ": 4524,
      "press": 4525,
      "March": 4526,
      "Peter": 4527,
      "afotuo": 4528,
      "Bryan": 4529,
      "Bis": 4530,
      "zer": 4531,
      "wɔmmra": 4532,
      "yɛnnim": 4533,
      "resusu": 4534,
      "ɛresɛe": 4535,
      "akɔsi": 4536,
      "grass": 4537,
      "Office": 4538,
      "akraman": 4539,
      "En": 4540,
      "Ivor": 4541,
      "Uganda": 4542,
      "amma": 4543,
      "wɔgyee": 4544,
      "pass": 4545,
      "tivi": 4546,
      "ɛbɛsakra": 4547,
      "ɔbɛsi": 4548,
      "feree": 4549,
      "vement": 4550,
      "local": 4551,
      "concer": 4552,
      "Amanneɛ": 4553,
      "mmrahyɛ": 4554,
      "quar": 4555,
      "Tanz": 4556,
      "Leader": 4557,
      "Bor": 4558,
      "Jane": 4559,
      "Naa": 4560,
      "enni": 4561,
      "emergency": 4562,
      "nsan": 4563,
      "kɔduruu": 4564,
      "ditional": 4565,
      "ping": 4566,
      "live": 4567,
      "nnawɔtwe": 4568,
      "ɔntumi": 4569,
      "Prince": 4570,
      "Ivory": 4571,
      "fir": 4572,
      "Covid": 4573,
      "story": 4574,
      "Berna": 4575,
      "Cor": 4576,
      "WAFCON": 4577,
      "ayam": 4578,
      "dru": 4579,
      "dral": 4580,
      "imp": 4581,
      "you": 4582,
      "research": 4583,
      "Kona": 4584,
      "albu": 4585,
      "vices": 4586,
      "Music": 4587,
      "Davido": 4588,
      "standard": 4589,
      "atirimpɔ": 4590,
      "mpaapaemu": 4591,
      "Western": 4592,
      "Cy": 4593,
      "Hen": 4594,
      "Ya": 4595,
      "Yɛbɛkɔ": 4596,
      "rekyinkyin": 4597,
      "mehyɛɛ": 4598,
      "bey": 4599,
      "mili": 4600,
      "ntiatia": 4601,
      "vin": 4602,
      "agodifo": 4603,
      "worennya": 4604,
      "surance": 4605,
      "abasam": 4606,
      "Ɔbɛyɛɛ": 4607,
      "yɛtwe": 4608,
      "akwansra": 4609,
      "ɔbɛpɛ": 4610,
      "dɔkota": 4611,
      "Head": 4612,
      "Hockey": 4613,
      "Ameri": 4614,
      "kwaaba": 4615,
      "drama": 4616,
      "Baba": 4617,
      "Ɔpanin": 4618,
      "real": 4619,
      "tari": 4620,
      "yɛbɛsi": 4621,
      "logi": 4622,
      "protoco": 4623,
      "biakoyɛ": 4624,
      "woannya": 4625,
      "Jackson": 4626,
      "Williams": 4627,
      "ploma": 4628,
      "Germany": 4629,
      "Ken": 4630,
      "group": 4631,
      "yebetumi": 4632,
      "merehwɛ": 4633,
      "obiaa": 4634,
      "nntumi": 4635,
      "ntee": 4636,
      "mpun": 4637,
      "kasaeɛ": 4638,
      "wɔbɛkyere": 4639,
      "akɔto": 4640,
      "bɔɔlobɔfo": 4641,
      "mpanyinfoɔ": 4642,
      "anwonwa": 4643,
      "pressure": 4644,
      "Kan": 4645,
      "ide": 4646,
      "wone": 4647,
      "tiah": 4648,
      "ondo": 4649,
      "wɔhwɛɛ": 4650,
      "Johnson": 4651,
      "points": 4652,
      "Ampon": 4653,
      "Fu": 4654,
      "Oh": 4655,
      "gas": 4656,
      "trɛ": 4657,
      "sive": 4658,
      "ɔbɛsɛe": 4659,
      "ahome": 4660,
      "ɔrebu": 4661,
      "teɛteɛ": 4662,
      "visa": 4663,
      "nkrasɛm": 4664,
      "respon": 4665,
      "Nketiah": 4666,
      "Defence": 4667,
      "campaign": 4668,
      "Inte": 4669,
      "Ny": 4670,
      "blo": 4671,
      "osu": 4672,
      "rim": 4673,
      "nyan": 4674,
      "Madam": 4675,
      "GHS": 4676,
      "Aho": 4677,
      "Eu": 4678,
      "Nnwom": 4679,
      "ɔha": 4680,
      "nokwasɛm": 4681,
      "wɔyii": 4682,
      "ɔbɛsan": 4683,
      "brah": 4684,
      "dwenee": 4685,
      "Sikasɛm": 4686,
      "Kufuor": 4687,
      "bert": 4688,
      "wunnim": 4689,
      "Dwumadie": 4690,
      "And": 4691,
      "EA": 4692,
      "PR": 4693,
      "ntu": 4694,
      "ugh": 4695,
      "ɔtɔ": 4696,
      "mebɛyɛ": 4697,
      "mempɛ": 4698,
      "tac": 4699,
      "mibisa": 4700,
      "yɛbɛsesa": 4701,
      "wuhunu": 4702,
      "ahokyere": 4703,
      "ntama": 4704,
      "Development": 4705,
      "Bio": 4706,
      "Amoako": 4707,
      "building": 4708,
      "Tanzania": 4709,
      "Came": 4710,
      "Ham": 4711,
      "NHI": 4712,
      "Ɔkyerɛɛ": 4713,
      "ɔbisaa": 4714,
      "repere": 4715,
      "wɔrekasa": 4716,
      "adepa": 4717,
      "wɔato": 4718,
      "comp": 4719,
      "Munta": 4720,
      "gramme": 4721,
      "ahotoso": 4722,
      "Greater": 4723,
      "Felix": 4724,
      "Oti": 4725,
      "gby": 4726,
      "yɛntena": 4727,
      "bone": 4728,
      "amang": 4729,
      "mmisa": 4730,
      "Kwasi": 4731,
      "nnoɔma": 4732,
      "airport": 4733,
      "cket": 4734,
      "yɛnhyɛ": 4735,
      "bɛhwɛɛ": 4736,
      "kal": 4737,
      "biom": 4738,
      "rities": 4739,
      "fit": 4740,
      "animfo": 4741,
      "aguma": 4742,
      "Cathedral": 4743,
      "Eugene": 4744,
      "Ɛnkyerɛ": 4745,
      "ansah": 4746,
      "conte": 4747,
      "amin": 4748,
      "Paluta": 4749,
      "Patrick": 4750,
      "Christian": 4751,
      "Konadu": 4752,
      "Gol": 4753,
      "Ins": 4754,
      "ɔso": 4755,
      "neral": 4756,
      "bɛsakra": 4757,
      "mes": 4758,
      "min": 4759,
      "nue": 4760,
      "abirekyie": 4761,
      "UN": 4762,
      "apɛ": 4763,
      "ankyerɛ": 4764,
      "nomaa": 4765,
      "rem": 4766,
      "nkane": 4767,
      "Wɔreyɛ": 4768,
      "beaɛ": 4769,
      "wobɛnya": 4770,
      "Academy": 4771,
      "Boy": 4772,
      "Agency": 4773,
      "Polisifoɔ": 4774,
      "experience": 4775,
      "GTEC": 4776,
      "Bɔɔlobɔ": 4777,
      "Bernard": 4778,
      "ET": 4779,
      "GC": 4780,
      "onnim": 4781,
      "prima": 4782,
      "tting": 4783,
      "Kwakye": 4784,
      "stations": 4785,
      "Cedi": 4786,
      "Abi": 4787,
      "nem": 4788,
      "yɛnhunu": 4789,
      "institu": 4790,
      "trophy": 4791,
      "Fata": 4792,
      "clubs": 4793,
      "mpuntuo": 4794,
      "Mad": 4795,
      "ɛdaa": 4796,
      "reme": 4797,
      "moder": 4798,
      "gospel": 4799,
      "elchair": 4800,
      "Mantse": 4801,
      "nwoma": 4802,
      "Ohene": 4803,
      "Org": 4804,
      "ɔdan": 4805,
      "yiyedie": 4806,
      "kee": 4807,
      "ving": 4808,
      "ɔkɔtɔ": 4809,
      "GHA": 4810,
      "unity": 4811,
      "nkuraase": 4812,
      "community": 4813,
      "Nna": 4814,
      "lson": 4815,
      "ɛtwaa": 4816,
      "yɛpaw": 4817,
      "wɔhyehyɛ": 4818,
      "bɛhwere": 4819,
      "kɔhyiaa": 4820,
      "menni": 4821,
      "bin": 4822,
      "wɔntumi": 4823,
      "wɔnnya": 4824,
      "Mede": 4825,
      "nnɔn": 4826,
      "Wɔhyɛɛ": 4827,
      "Ɛnora": 4828,
      "nkamfo": 4829,
      "abufu": 4830,
      "abɛn": 4831,
      "champion": 4832,
      "sons": 4833,
      "leyball": 4834,
      "Officer": 4835,
      "nkyekyɛmu": 4836,
      "BC": 4837,
      "clu": 4838,
      "ɔtie": 4839,
      "wɔsesa": 4840,
      "hope": 4841,
      "yɛbɛgye": 4842,
      "dɔfoɔ": 4843,
      "abotan": 4844,
      "cap": 4845,
      "trude": 4846,
      "Gertrude": 4847,
      "Eastern": 4848,
      "Camero": 4849,
      "Ara": 4850,
      "gress": 4851,
      "kers": 4852,
      "ttey": 4853,
      "sɛeɛ": 4854,
      "wɔwuiɛ": 4855,
      "wobisa": 4856,
      "wakɔ": 4857,
      "nkwadaa": 4858,
      "pete": 4859,
      "Assembly": 4860,
      "competition": 4861,
      "Monday": 4862,
      "transfer": 4863,
      "adwemmɔne": 4864,
      "she": 4865,
      "Ɔbɔ": 4866,
      "ɔhia": 4867,
      "wɔnkyerɛ": 4868,
      "rid": 4869,
      "toaa": 4870,
      "wagye": 4871,
      "Wɔrekyerɛ": 4872,
      "cehall": 4873,
      "wɔagye": 4874,
      "Limited": 4875,
      "internet": 4876,
      "album": 4877,
      "Amponsah": 4878,
      "Cameroon": 4879,
      "ayɔnko": 4880,
      "cre": 4881,
      "’.": 4882,
      "rebrɛ": 4883,
      "ɛbɛhwe": 4884,
      "lities": 4885,
      "ahoho": 4886,
      "wɔreyi": 4887,
      "dodoo": 4888,
      "ricket": 4889,
      "driver": 4890,
      "ayeyi": 4891,
      "Akrofuom": 4892,
      "holders": 4893,
      "penalty": 4894,
      "Ene": 4895,
      "Hwan": 4896,
      "PAC": 4897,
      "Twum": 4898,
      "asuo": 4899,
      "kwanta": 4900,
      "faci": 4901,
      "mis": 4902,
      "amanfo": 4903,
      "yɛbɛto": 4904,
      "Wɔte": 4905,
      "har": 4906,
      "banbɔ": 4907,
      "wɔahyehyɛ": 4908,
      "asetenam": 4909,
      "Nelson": 4910,
      "Agumadi": 4911,
      "woantumi": 4912,
      "manager": 4913,
      "atirimpɔw": 4914,
      "wɔgyaa": 4915,
      "bɛdane": 4916,
      "rian": 4917,
      "nsono": 4918,
      "ɛbɛkyɛ": 4919,
      "Real": 4920,
      "Haruna": 4921,
      "coaching": 4922,
      "500": 4923,
      "Bur": 4924,
      "Brown": 4925,
      "yɛsi": 4926,
      "yɛdii": 4927,
      "sal": 4928,
      "sation": 4929,
      "Meda": 4930,
      "lligence": 4931,
      "Ghanaian": 4932,
      "impact": 4933,
      "Bag": 4934,
      "CID": 4935,
      "PO": 4936,
      "krom": 4937,
      "nkyene": 4938,
      "Forces": 4939,
      "WAS": 4940,
      "tteh": 4941,
      "tential": 4942,
      "Ɛnkyɛ": 4943,
      "wotwe": 4944,
      "wotutu": 4945,
      "nkɛntɛn": 4946,
      "adwane": 4947,
      "bɔnten": 4948,
      "bagu": 4949,
      "potential": 4950,
      "atorɔ": 4951,
      "awie": 4952,
      "rowth": 4953,
      "Special": 4954,
      "Ghanani": 4955,
      "Op": 4956,
      "ɔdaadaa": 4957,
      "wɔhuu": 4958,
      "year": 4959,
      "ɛbɛtwa": 4960,
      "yɛretwɛn": 4961,
      "venue": 4962,
      "Sing": 4963,
      "asɛn": 4964,
      "Audi": 4965,
      "quad": 4966,
      "akyɛdeɛ": 4967,
      "presidential": 4968,
      "Supreme": 4969,
      "DA": 4970,
      "Kra": 4971,
      "ɛhwe": 4972,
      "nant": 4973,
      "Nations": 4974,
      "venti": 4975,
      "resili": 4976,
      "prepa": 4977,
      "interest": 4978,
      "Conference": 4979,
      "III": 4980,
      "commit": 4981,
      "partment": 4982,
      "Henry": 4983,
      "Asɛ": 4984,
      "Phi": 4985,
      "fred": 4986,
      "rior": 4987,
      "nufu": 4988,
      "Ɔtemmu": 4989,
      "Ɛnkyɛree": 4990,
      "NSA": 4991,
      "fri": 4992,
      "rong": 4993,
      "nership": 4994,
      "ɛnhia": 4995,
      "ɛnsɔ": 4996,
      "siste": 4997,
      "onya": 4998,
      "insurance": 4999,
      "Kwasida": 5000,
      "siesiee": 5001,
      "Tetteh": 5002,
      "abɛɛfo": 5003,
      "Fatawu": 5004,
      "fann": 5005,
      "gg": 5006,
      "gration": 5007,
      "mba": 5008,
      "ɔpo": 5009,
      "rez": 5010,
      "kɔto": 5011,
      "fori": 5012,
      "tage": 5013,
      "Yɛnnyina": 5014,
      "Super": 5015,
      "Ɔbɛnem": 5016,
      "bassa": 5017,
      "Airport": 5018,
      "Organi": 5019,
      "foridua": 5020,
      "school": 5021,
      "fom": 5022,
      "wobu": 5023,
      "yɛbɛkasa": 5024,
      "anuanom": 5025,
      "Agor": 5026,
      "atim": 5027,
      "Municipa": 5028,
      "ɔbenfoɔ": 5029,
      "Cricket": 5030,
      "Nkwanta": 5031,
      "ahwere": 5032,
      "ɔsra": 5033,
      "yɛbɛduru": 5034,
      "yɛbɛtie": 5035,
      "ɛrebɔ": 5036,
      "Koforidua": 5037,
      "atwerɛ": 5038,
      "gyaeɛ": 5039,
      "agokan": 5040,
      "Armed": 5041,
      "phen": 5042,
      "Paris": 5043,
      "Stephen": 5044,
      "Bafana": 5045,
      "cles": 5046,
      "gree": 5047,
      "gah": 5048,
      "okraman": 5049,
      "kɔpɛ": 5050,
      "kɔsraa": 5051,
      "pam": 5052,
      "asɛmpa": 5053,
      "mit": 5054,
      "yɛbɛsan": 5055,
      "Juli": 5056,
      "Forson": 5057,
      "nhomasua": 5058,
      "lawyer": 5059,
      "70": 5060,
      "Eric": 5061,
      "bɛduru": 5062,
      "decision": 5063,
      "megyina": 5064,
      "Mehyɛ": 5065,
      "asomfoɔ": 5066,
      "fɔm": 5067,
      "practi": 5068,
      "Agyei": 5069,
      "portu": 5070,
      "nhoma": 5071,
      "Medikal": 5072,
      "Badu": 5073,
      "jor": 5074,
      "sanaa": 5075,
      "yɛhyia": 5076,
      "mand": 5077,
      "ntamgyina": 5078,
      "Debrah": 5079,
      "Tae": 5080,
      "Agodie": 5081,
      "GAC": 5082,
      "mɔ": 5083,
      "yane": 5084,
      "foun": 5085,
      "bor": 5086,
      "nimdie": 5087,
      "Dada": 5088,
      "woatumi": 5089,
      "Manhyia": 5090,
      "Bukom": 5091,
      "Trump": 5092,
      "GBA": 5093,
      "Jor": 5094,
      "Kurt": 5095,
      "aha": 5096,
      "kron": 5097,
      "Ɔsanaa": 5098,
      "ɔsi": 5099,
      "ɛhyia": 5100,
      "yɛni": 5101,
      "kwondo": 5102,
      "rick": 5103,
      "ɛbɛtra": 5104,
      "dents": 5105,
      "yɛreba": 5106,
      "suapɔn": 5107,
      "cia": 5108,
      "cing": 5109,
      "stagram": 5110,
      "Coronavirus": 5111,
      "Instagram": 5112,
      "Force": 5113,
      "nkurasefoɔ": 5114,
      "ahennie": 5115,
      "television": 5116,
      "Akyiri": 5117,
      "Spain": 5118,
      "yɛteɛ": 5119,
      "diploma": 5120,
      "paeɛ": 5121,
      "nokwaredi": 5122,
      "Blay": 5123,
      "Fore": 5124,
      "shie": 5125,
      "anisoadehunu": 5126,
      "Assi": 5127,
      "Kar": 5128,
      "Nor": 5129,
      "yɛabɔ": 5130,
      "rekyere": 5131,
      "secon": 5132,
      "ram": 5133,
      "ɛrehyɛ": 5134,
      "dɛɛdɛ": 5135,
      "leader": 5136,
      "Europe": 5137,
      "apomuden": 5138,
      "violence": 5139,
      "mouth": 5140,
      "bassador": 5141,
      "Hami": 5142,
      "KA": 5143,
      "ehu": 5144,
      "master": 5145,
      "yifoɔ": 5146,
      "wɔnhwehwɛ": 5147,
      "minal": 5148,
      "ongo": 5149,
      "Wɔbɛtumi": 5150,
      "poll": 5151,
      "coa": 5152,
      "ahyɛn": 5153,
      "nsuro": 5154,
      "exper": 5155,
      "Social": 5156,
      "license": 5157,
      "dz": 5158,
      "over": 5159,
      "Ɛtete": 5160,
      "respect": 5161,
      "nifa": 5162,
      "pay": 5163,
      "Member": 5164,
      "top": 5165,
      "nsɛmmɔne": 5166,
      "dwumakuo": 5167,
      "nokwarefoɔ": 5168,
      "len": 5169,
      "alo": 5170,
      "yɛredi": 5171,
      "abɛfa": 5172,
      "Adwumayɛ": 5173,
      "India": 5174,
      "nnuaba": 5175,
      "medal": 5176,
      "studio": 5177,
      "Dormaa": 5178,
      "wheelchair": 5179,
      "BI": 5180,
      "ECO": 5181,
      "Manu": 5182,
      "ssan": 5183,
      "Ɔdɔ": 5184,
      "wɔmmɔ": 5185,
      "resources": 5186,
      "woyii": 5187,
      "Messi": 5188,
      "cratic": 5189,
      "lines": 5190,
      "sereeɛ": 5191,
      "Cape": 5192,
      "GNA": 5193,
      "rical": 5194,
      "wɔbɛgye": 5195,
      "ɔrehu": 5196,
      "pɔtee": 5197,
      "ticle": 5198,
      "polisini": 5199,
      "Asanteman": 5200,
      "Auditor": 5201,
      "Basi": 5202,
      "Cana": 5203,
      "apae": 5204,
      "ire": 5205,
      "hour": 5206,
      "tiz": 5207,
      "bus": 5208,
      "ntini": 5209,
      "dollar": 5210,
      "porate": 5211,
      "tweɛ": 5212,
      "atetesɛm": 5213,
      "nkrante": 5214,
      "Empre": 5215,
      "GES": 5216,
      "IC": 5217,
      "OC": 5218,
      "Por": 5219,
      "ɔdaa": 5220,
      "wosuro": 5221,
      "nkranteɛ": 5222,
      "rights": 5223,
      "best": 5224,
      "mmɔborɔ": 5225,
      "Party": 5226,
      "Amanyɔfoɔ": 5227,
      "stics": 5228,
      "ahenfo": 5229,
      "Athletics": 5230,
      "Empress": 5231,
      "klo": 5232,
      "ɔhwehwɛ": 5233,
      "demic": 5234,
      "base": 5235,
      "adɔɔ": 5236,
      "Nar": 5237,
      "nsum": 5238,
      "petroleum": 5239,
      "stability": 5240,
      "Max": 5241,
      "Franci": 5242,
      "wɔdwen": 5243,
      "ngo": 5244,
      "gyinabea": 5245,
      "adio": 5246,
      "Alhassan": 5247,
      "elect": 5248,
      "Asɛnnibea": 5249,
      "ECOWAS": 5250,
      "Id": 5251,
      "MT": 5252,
      "Sun": 5253,
      "identi": 5254,
      "ndwom": 5255,
      "rko": 5256,
      "yɛyɛɛ": 5257,
      "bɛwie": 5258,
      "nantwi": 5259,
      "wɔbɛto": 5260,
      "innovation": 5261,
      "Minta": 5262,
      "Sukuufoɔ": 5263,
      "grassroots": 5264,
      "GS": 5265,
      "Issa": 5266,
      "Ral": 5267,
      "ɛayɛ": 5268,
      "retwe": 5269,
      "doho": 5270,
      "kes": 5271,
      "thur": 5272,
      "staff": 5273,
      "Akwasi": 5274,
      "minister": 5275,
      "Ɛnkyɛreeɛ": 5276,
      "..": 5277,
      "Tay": 5278,
      "cla": 5279,
      "growth": 5280,
      "ɛbaeɛ": 5281,
      "referee": 5282,
      "nic": 5283,
      "para": 5284,
      "fil": 5285,
      "ɛrenya": 5286,
      "ɛrenkyɛ": 5287,
      "hes": 5288,
      "anigyedeɛ": 5289,
      "yɛrennya": 5290,
      "Wokɔ": 5291,
      "cine": 5292,
      "ɛtete": 5293,
      "asaw": 5294,
      "peace": 5295,
      "atoto": 5296,
      "Power": 5297,
      "char": 5298,
      "sɔree": 5299,
      "Doku": 5300,
      "Asantehene": 5301,
      "nkuraaseɛ": 5302,
      "Asetena": 5303,
      "lifting": 5304,
      "Nyankopɔn": 5305,
      "Taekwondo": 5306,
      "Francis": 5307,
      "Anyi": 5308,
      "ante": 5309,
      "yɛnsua": 5310,
      "umadu": 5311,
      "urses": 5312,
      "rif": 5313,
      "sus": 5314,
      "lina": 5315,
      "come": 5316,
      "coronavirus": 5317,
      "Company": 5318,
      "basket": 5319,
      "opportu": 5320,
      "Kyerɛ": 5321,
      "Akye": 5322,
      "Ita": 5323,
      "Kay": 5324,
      "OD": 5325,
      "ɔdwene": 5326,
      "annyɛ": 5327,
      "dwonto": 5328,
      "celle": 5329,
      "krado": 5330,
      "monnya": 5331,
      "Nkansah": 5332,
      "climate": 5333,
      "Ralph": 5334,
      "yɛtu": 5335,
      "ded": 5336,
      "mee": 5337,
      "manfo": 5338,
      "aseda": 5339,
      "tofoɔ": 5340,
      "wannya": 5341,
      "nkrah": 5342,
      "Arthur": 5343,
      "mpeh": 5344,
      "play": 5345,
      "England": 5346,
      "aduosia": 5347,
      "PI": 5348,
      "San": 5349,
      "Sou": 5350,
      "aniwa": 5351,
      "Mehuu": 5352,
      "sue": 5353,
      "ady": 5354,
      "aker": 5355,
      "ahoma": 5356,
      "wɔrehyia": 5357,
      "COP": 5358,
      "Team": 5359,
      "urnalism": 5360,
      "Cho": 5361,
      "Class": 5362,
      "Grace": 5363,
      "ety": 5364,
      "pur": 5365,
      "wɔfaa": 5366,
      "nana": 5367,
      "nsonsono": 5368,
      "obile": 5369,
      "dabiara": 5370,
      "analy": 5371,
      "web": 5372,
      "mpanimfo": 5373,
      "wing": 5374,
      "ahosiesie": 5375,
      "gyinaesi": 5376,
      "ɛkɔm": 5377,
      "yɛrekasa": 5378,
      "sɛee": 5379,
      "pers": 5380,
      "nnor": 5381,
      "Ankrah": 5382,
      "space": 5383,
      "wɔwui": 5384,
      "yɛnnyane": 5385,
      "kɔhwehwɛ": 5386,
      "mansin": 5387,
      "nnyin": 5388,
      "yɛbɛhyɛ": 5389,
      "label": 5390,
      "agumadiɛ": 5391,
      "Ɔsebɔn": 5392,
      "Tetekwa": 5393,
      "abira": 5394,
      "mmarahyɛbadwafoɔ": 5395,
      "1992": 5396,
      "agenda": 5397,
      "athletes": 5398,
      "Energy": 5399,
      "Taylor": 5400,
      "Anyidoho": 5401,
      "Mpre": 5402,
      "spo": 5403,
      "ɛyera": 5404,
      "listic": 5405,
      "akɔka": 5406,
      "atta": 5407,
      "2018": 5408,
      "wɔahwɛ": 5409,
      "confi": 5410,
      "Asumadu": 5411,
      "ɔnyɛɛ": 5412,
      "Communications": 5413,
      "Ɔso": 5414,
      "meboa": 5415,
      "mansini": 5416,
      "urne": 5417,
      "hwɛfoɔ": 5418,
      "yɛbɛn": 5419,
      "docu": 5420,
      "wɔbɛkyerɛkyerɛ": 5421,
      "nton": 5422,
      "yɛregyina": 5423,
      "vis": 5424,
      "trade": 5425,
      "nnwomfoɔ": 5426,
      "Jota": 5427,
      "Article": 5428,
      "afoforoɔ": 5429,
      "cricket": 5430,
      "title": 5431,
      "commitment": 5432,
      "Mintah": 5433,
      "AID": 5434,
      "Nnomaa": 5435,
      "sɔhwɛ": 5436,
      "ɔgyee": 5437,
      "ɔtenaa": 5438,
      "ɛse": 5439,
      "wɔgyinaa": 5440,
      "sil": 5441,
      "hub": 5442,
      "win": 5443,
      "mmit": 5444,
      "nkɔmmɔdi": 5445,
      "bisaeɛ": 5446,
      "Achi": 5447,
      "mond": 5448,
      "asoɛ": 5449,
      "stance": 5450,
      "awerɛhɔsɛm": 5451,
      "career": 5452,
      ",”": 5453,
      "Mat": 5454,
      "ɔgyae": 5455,
      "wɔsua": 5456,
      "sex": 5457,
      "kaw": 5458,
      "Wɔkyeree": 5459,
      "akonwa": 5460,
      "yɛresɛe": 5461,
      "asane": 5462,
      "track": 5463,
      "Prempeh": 5464,
      "Daakye": 5465,
      "Ayine": 5466,
      "Channel": 5467,
      "Madrid": 5468,
      "Ano": 5469,
      "fĩ": 5470,
      "lder": 5471,
      "ner": 5472,
      "mahwɛ": 5473,
      "yɛnfa": 5474,
      "resesa": 5475,
      "rekyerɛw": 5476,
      "dee": 5477,
      "bɔɔlɔboɔ": 5478,
      "musician": 5479,
      "nsekyerɛ": 5480,
      "Mmarahyɛbadwani": 5481,
      "Agorɔ": 5482,
      "80": 5483,
      "Anka": 5484,
      "Mac": 5485,
      "Or": 5486,
      "chw": 5487,
      "traa": 5488,
      "ɔfaa": 5489,
      "kɔhyɛ": 5490,
      "wealth": 5491,
      "wɔbɛpɛ": 5492,
      "politi": 5493,
      "asɛeɛ": 5494,
      "ahyɛaseɛ": 5495,
      "mfitiaseɛ": 5496,
      "kie": 5497,
      "Alge": 5498,
      "Festival": 5499,
      "atwitwa": 5500,
      "Golden": 5501,
      "AIDS": 5502,
      "HS": 5503,
      "Mal": 5504,
      "Qu": 5505,
      "lars": 5506,
      "phi": 5507,
      "ĩa": 5508,
      "retie": 5509,
      "kakraa": 5510,
      "mers": 5511,
      "suahunu": 5512,
      "dum": 5513,
      "inwii": 5514,
      "wɔahunu": 5515,
      "ssing": 5516,
      "teams": 5517,
      "pandemic": 5518,
      "Adams": 5519,
      "Kyei": 5520,
      "Antoine": 5521,
      "Cri": 5522,
      "hĩa": 5523,
      "Ɛbɛma": 5524,
      "denam": 5525,
      "kɔdi": 5526,
      "hohoro": 5527,
      "samma": 5528,
      "ward": 5529,
      "ntex": 5530,
      "ntasɛm": 5531,
      "Accountability": 5532,
      "adesuafoɔ": 5533,
      "Tutu": 5534,
      "Lawyer": 5535,
      "freedom": 5536,
      "GI": 5537,
      "abe": 5538,
      "ahye": 5539,
      "Ɛha": 5540,
      "wɔama": 5541,
      "wɔkyerɛkyerɛ": 5542,
      "wood": 5543,
      "nantew": 5544,
      "tourism": 5545,
      "wɔbɛtie": 5546,
      "nkyerɛaseɛ": 5547,
      "tamfoɔ": 5548,
      "mmeaɛ": 5549,
      "abibi": 5550,
      "nsusuiɛ": 5551,
      "apore": 5552,
      "Asiamah": 5553,
      "Spintex": 5554,
      "ahintasɛm": 5555,
      "dependence": 5556,
      "Singapore": 5557,
      "Jordan": 5558,
      "Mprempren": 5559,
      "Ado": 5560,
      "Ewura": 5561,
      "aya": 5562,
      "ɛbɛnya": 5563,
      "nkoko": 5564,
      "nsɛmkyerɛwfoɔ": 5565,
      "leman": 5566,
      "amanyɔsem": 5567,
      "akwantufo": 5568,
      "yɛfata": 5569,
      "akwadaa": 5570,
      "nsew": 5571,
      "shop": 5572,
      "Yɛbɛhwɛ": 5573,
      "agencies": 5574,
      "Nkabom": 5575,
      "mmaninyɛ": 5576,
      "Octo": 5577,
      "ob": 5578,
      "wase": 5579,
      "ɔsɔfoɔ": 5580,
      "semi": 5581,
      "rage": 5582,
      "woakyerɛ": 5583,
      "Mebisa": 5584,
      "sunsum": 5585,
      "pital": 5586,
      "hyiamu": 5587,
      "rɔfo": 5588,
      "nsɛnkyerɛ": 5589,
      "asotweɛ": 5590,
      "nnwumakuo": 5591,
      "puee": 5592,
      "Technical": 5593,
      "brand": 5594,
      "resilience": 5595,
      "Canada": 5596,
      "October": 5597,
      "HA": 5598,
      "Pas": 5599,
      "Tran": 5600,
      "mfie": 5601,
      "obedi": 5602,
      "misa": 5603,
      "lege": 5604,
      "moa": 5605,
      "monni": 5606,
      "akɔdi": 5607,
      "andball": 5608,
      "Yiadom": 5609,
      "interview": 5610,
      "Yɛrehwɛ": 5611,
      "nsusuw": 5612,
      "fairs": 5613,
      "Akwantu": 5614,
      "stakeholders": 5615,
      "PSG": 5616,
      "Aso": 5617,
      "GAF": 5618,
      "Kɔ": 5619,
      "ɔbo": 5620,
      "wɔwu": 5621,
      "yɛnhu": 5622,
      "bɛtenaa": 5623,
      "mepene": 5624,
      "ɛbɛkora": 5625,
      "nnhwɛ": 5626,
      "ɔreko": 5627,
      "Women": 5628,
      "conne": 5629,
      "sting": 5630,
      "Arts": 5631,
      "Serwaa": 5632,
      "Azonto": 5633,
      "opera": 5634,
      "ɔpepem": 5635,
      "modern": 5636,
      "Mas": 5637,
      "Nsa": 5638,
      "TU": 5639,
      "bene": 5640,
      "etwa": 5641,
      "ɛdane": 5642,
      "bɛsii": 5643,
      "bɛhyiaa": 5644,
      "bɛkyere": 5645,
      "yerɛ": 5646,
      "kɔla": 5647,
      "ɛbɛsesa": 5648,
      "ɔreboa": 5649,
      "cism": 5650,
      "nkraman": 5651,
      "wɔapaw": 5652,
      "ssy": 5653,
      "Dogbo": 5654,
      "Abofra": 5655,
      "Dogboe": 5656,
      "Ate": 5657,
      "Owuo": 5658,
      "Radio": 5659,
      "UE": 5660,
      "wɔhyiaa": 5661,
      "wɔtɔn": 5662,
      "rable": 5663,
      "ɛnya": 5664,
      "tin": 5665,
      "ɛbɛda": 5666,
      "level": 5667,
      "wɔreboaboa": 5668,
      "Nation": 5669,
      "abosome": 5670,
      "ɔnnim": 5671,
      "Wed": 5672,
      "gations": 5673,
      "Nyarko": 5674,
      "nyim": 5675,
      "Rugby": 5676,
      "Ayare": 5677,
      "Creative": 5678,
      "ɔhunu": 5679,
      "yɛgyaa": 5680,
      "mebu": 5681,
      "ler": 5682,
      "ababaawa": 5683,
      "allo": 5684,
      "aboro": 5685,
      "Sikaman": 5686,
      "yɛamfa": 5687,
      "nesday": 5688,
      "MOG": 5689,
      "agyira": 5690,
      "nsonsonoeɛ": 5691,
      "Wednesday": 5692,
      "Dwu": 5693,
      "bru": 5694,
      "opi": 5695,
      "romo": 5696,
      "ɔsa": 5697,
      "ɔtena": 5698,
      "wɔbaa": 5699,
      "metwa": 5700,
      "hit": 5701,
      "Wɔnni": 5702,
      "wɔpɛɛ": 5703,
      "nhyiam": 5704,
      "content": 5705,
      "32": 5706,
      "Kyere": 5707,
      "PA": 5708,
      "Tur": 5709,
      "ɛbu": 5710,
      "yɛto": 5711,
      "yɛsiesie": 5712,
      "Wɔre": 5713,
      "wɔbɛsesa": 5714,
      "ahodeɛ": 5715,
      "dɔla": 5716,
      "faahodie": 5717,
      "Sali": 5718,
      "hann": 5719,
      "Tourism": 5720,
      "Petroleum": 5721,
      "drisu": 5722,
      "Amoakohene": 5723,
      "Iddrisu": 5724,
      "FBI": 5725,
      "yɛhyɛɛ": 5726,
      "wɔtua": 5727,
      "rious": 5728,
      "besi": 5729,
      "yɛbɛbu": 5730,
      "ntwɛn": 5731,
      "armwrestling": 5732,
      "than": 5733,
      "Bourne": 5734,
      "consiste": 5735,
      "Prosecu": 5736,
      "Friday": 5737,
      "rapper": 5738,
      "Ambassador": 5739,
      "Evans": 5740,
      "identity": 5741,
      "Ayaresa": 5742,
      "Bournemouth": 5743,
      "Cir": 5744,
      "Per": 5745,
      "sli": 5746,
      "wɔkyerɛw": 5747,
      "bɛtua": 5748,
      "agy": 5749,
      "ɔbɛbu": 5750,
      "stine": 5751,
      "twee": 5752,
      "progress": 5753,
      "Safo": 5754,
      "srɛɛ": 5755,
      "Dome": 5756,
      "Fosu": 5757,
      "obegye": 5758,
      "Speaker": 5759,
      "'?": 5760,
      "Obeng": 5761,
      "gger": 5762,
      "jamin": 5763,
      "tur": 5764,
      "menka": 5765,
      "metiee": 5766,
      "house": 5767,
      "nante": 5768,
      "urch": 5769,
      "bon": 5770,
      "wanw": 5771,
      "fuu": 5772,
      "COC": 5773,
      "cyber": 5774,
      "nnyim": 5775,
      "nnyigye": 5776,
      "healthcare": 5777,
      "amannyɔ": 5778,
      "Benjamin": 5779,
      "foreign": 5780,
      "responsi": 5781,
      "Ansa": 5782,
      "DP": 5783,
      "Hene": 5784,
      "KN": 5785,
      "Pho": 5786,
      "Van": 5787,
      "nder": 5788,
      "oku": 5789,
      "vato": 5790,
      "Ɔkan": 5791,
      "ɛsɔ": 5792,
      "bɛhunuu": 5793,
      "nyinaɛ": 5794,
      "nnie": 5795,
      "yɛbɛhwe": 5796,
      "with": 5797,
      "nkwagyeɛ": 5798,
      "ɔnnyɛ": 5799,
      "sesaeɛ": 5800,
      "abusuakuo": 5801,
      "ahwɛsoɔ": 5802,
      "jia": 5803,
      "championship": 5804,
      "GCB": 5805,
      "abufusɛm": 5806,
      "nkɛntɛnsoɔ": 5807,
      "Mene": 5808,
      "ɛdwo": 5809,
      "bɛgyee": 5810,
      "woo": 5811,
      "woda": 5812,
      "kyekyɛ": 5813,
      "kɔɔt": 5814,
      "abadi": 5815,
      "akɔbɔ": 5816,
      "fielder": 5817,
      "wɔafa": 5818,
      "agumadifo": 5819,
      "Union": 5820,
      "Manso": 5821,
      "Asawase": 5822,
      "Mmerɛ": 5823,
      "UST": 5824,
      "Medical": 5825,
      "asram": 5826,
      "collabo": 5827,
      "Algeria": 5828,
      "Apri": 5829,
      "Ivo": 5830,
      "Kpe": 5831,
      "Obo": 5832,
      "eye": 5833,
      "fre": 5834,
      "uti": 5835,
      "Ɔsan": 5836,
      "ɔbu": 5837,
      "ɔsono": 5838,
      "ɛsa": 5839,
      "nin": 5840,
      "nitia": 5841,
      "direc": 5842,
      "right": 5843,
      "ɛremma": 5844,
      "ntwe": 5845,
      "Movement": 5846,
      "kyerɛkyerɛni": 5847,
      "joe": 5848,
      "ntoto": 5849,
      "Diana": 5850,
      "ronze": 5851,
      "Institu": 5852,
      "officials": 5853,
      "concert": 5854,
      "Bagbin": 5855,
      "April": 5856,
      "nitiative": 5857,
      "PP": 5858,
      "sca": 5859,
      "mako": 5860,
      "bɛdaa": 5861,
      "boy": 5862,
      "siee": 5863,
      "atwɛn": 5864,
      "ambi": 5865,
      "inclu": 5866,
      "mmigration": 5867,
      "mony": 5868,
      "monkae": 5869,
      "prote": 5870,
      "parliamentary": 5871,
      "Bill": 5872,
      "ahenfie": 5873,
      "Awards": 5874,
      "Afrobe": 5875,
      "Democracy": 5876,
      "Amanneɛbɔ": 5877,
      "Kro": 5878,
      "Kua": 5879,
      "dze": 5880,
      "ɛhwee": 5881,
      "wɔkora": 5882,
      "wɔhwehwɛɛ": 5883,
      "komm": 5884,
      "ntetew": 5885,
      "levy": 5886,
      "2016": 5887,
      "bɔɔlɔɔ": 5888,
      "wɔkɔeɛ": 5889,
      "Royal": 5890,
      "NACOC": 5891,
      "striker": 5892,
      "Darko": 5893,
      "Sherif": 5894,
      "Science": 5895,
      "gol": 5896,
      "shu": 5897,
      "Ɛnneɛma": 5898,
      "yɛama": 5899,
      "rekyerɛkyerɛ": 5900,
      "woso": 5901,
      "simma": 5902,
      "pɛsɛ": 5903,
      "loan": 5904,
      "Mari": 5905,
      "Agbe": 5906,
      "Business": 5907,
      "internal": 5908,
      "anwanwadeɛ": 5909,
      "amammuisɛm": 5910,
      "foundation": 5911,
      "37": 5912,
      "Mfe": 5913,
      "MCE": 5914,
      "War": 5915,
      "sani": 5916,
      "Ɛfa": 5917,
      "ɛkaa": 5918,
      "ned": 5919,
      "wuhuu": 5920,
      "wiei": 5921,
      "Wogye": 5922,
      "viral": 5923,
      "camp": 5924,
      "wobɛbɔ": 5925,
      "kɔkɔɔbɔ": 5926,
      "pueeɛ": 5927,
      "Danso": 5928,
      "Technology": 5929,
      "nkeka": 5930,
      "primaries": 5931,
      "Dormaahene": 5932,
      "KNUST": 5933,
      "Cud": 5934,
      "Ele": 5935,
      "Hit": 5936,
      "Kamal": 5937,
      "bur": 5938,
      "nwu": 5939,
      "nsɛe": 5940,
      "ɛntumi": 5941,
      "Mer": 5942,
      "stle": 5943,
      "Series": 5944,
      "nkyerɛkyerɛfoɔ": 5945,
      "puei": 5946,
      "Hajia": 5947,
      "mmarahyɛbadwafie": 5948,
      "Palace": 5949,
      "Abusua": 5950,
      "transparent": 5951,
      "operation": 5952,
      "production": 5953,
      "ahohora": 5954,
      "Cudjoe": 5955,
      "Hi": 5956,
      "os": 5957,
      "ɔfã": 5958,
      "mara": 5959,
      "solar": 5960,
      "rerun": 5961,
      "dem": 5962,
      "woteɛ": 5963,
      "bɔfo": 5964,
      "Metro": 5965,
      "akɔnnɔ": 5966,
      "wɔrebɛyɛ": 5967,
      "Mmaranimfoɔ": 5968,
      "reality": 5969,
      "Akonnor": 5970,
      "akansifoɔ": 5971,
      "Ayensu": 5972,
      "anwonwadeɛ": 5973,
      "Muntaka": 5974,
      "confidence": 5975,
      "Fis": 5976,
      "FDA": 5977,
      "refiri": 5978,
      "yinaa": 5979,
      "wɔnyaa": 5980,
      "wam": 5981,
      "gyedi": 5982,
      "pora": 5983,
      "cocoa": 5984,
      "inj": 5985,
      "abusuafo": 5986,
      "Acting": 5987,
      "proce": 5988,
      "good": 5989,
      "Department": 5990,
      "lux": 5991,
      "woanhwɛ": 5992,
      "Tie": 5993,
      "nyamesom": 5994,
      "partnership": 5995,
      "nkotodwe": 5996,
      "nomination": 5997,
      "Kuami": 5998,
      "SM": 5999,
      "brity": 6000,
      "Ɔgyinaa": 6001,
      "meba": 6002,
      "animdefoɔ": 6003,
      "dwumadzi": 6004,
      "aspora": 6005,
      "yɔnkoɔ": 6006,
      "Asantehemaa": 6007,
      "aberewa": 6008,
      "nkɔmhyɛfoɔ": 6009,
      "position": 6010,
      "awerɛhyɛm": 6011,
      "nwiinwii": 6012,
      "asoɛeɛ": 6013,
      "MM": 6014,
      "Maa": 6015,
      "nɔ": 6016,
      "nurse": 6017,
      "Ɔkyerɛkyerɛfoɔ": 6018,
      "ɔsesa": 6019,
      "new": 6020,
      "dwadi": 6021,
      "fake": 6022,
      "yɛbɛkora": 6023,
      "akwansin": 6024,
      "ɔbɛdii": 6025,
      "akyiwa": 6026,
      "cholars": 6027,
      "midfielder": 6028,
      "Cina": 6029,
      "Eli": 6030,
      "HO": 6031,
      "Kri": 6032,
      "Water": 6033,
      "tren": 6034,
      "yɛhwe": 6035,
      "wopa": 6036,
      "nnisoɔ": 6037,
      "nnennen": 6038,
      "asefoɔ": 6039,
      "Mereka": 6040,
      "ahohia": 6041,
      "ahoteɛ": 6042,
      "stro": 6043,
      "sien": 6044,
      "visi": 6045,
      "ɔtemmu": 6046,
      "yeraw": 6047,
      "yeraeɛ": 6048,
      "woamfa": 6049,
      "jority": 6050,
      "lings": 6051,
      "services": 6052,
      "ople": 6053,
      "Essien": 6054,
      "Urus": 6055,
      "ebetumi": 6056,
      "ohia": 6057,
      "ɔsii": 6058,
      "balance": 6059,
      "minya": 6060,
      "dapɛn": 6061,
      "down": 6062,
      "DCE": 6063,
      "ɔkasae": 6064,
      "intelligence": 6065,
      "Finance": 6066,
      "nesty": 6067,
      "ahofama": 6068,
      "challenges": 6069,
      "evi": 6070,
      "mɛma": 6071,
      "wotɔ": 6072,
      "admini": 6073,
      "akɔgyina": 6074,
      "Kevin": 6075,
      "kina": 6076,
      "awieiɛ": 6077,
      "Bibi": 6078,
      "officer": 6079,
      "plane": 6080,
      "dwetɛ": 6081,
      "afuom": 6082,
      "Twitter": 6083,
      "onalism": 6084,
      "cro": 6085,
      "ky": 6086,
      "nsiesie": 6087,
      "Ɔnam": 6088,
      "repre": 6089,
      "celo": 6090,
      "abɛhwɛ": 6091,
      "Bono": 6092,
      "cuit": 6093,
      "ɔbɔmmɔfoɔ": 6094,
      "Cele": 6095,
      "thing": 6096,
      "Barcelo": 6097,
      "spirit": 6098,
      "America": 6099,
      "Barcelona": 6100,
      "Osono": 6101,
      "lti": 6102,
      "nwene": 6103,
      "anhwɛ": 6104,
      "wɔkeka": 6105,
      "regyina": 6106,
      "redwene": 6107,
      "bɛbue": 6108,
      "sim": 6109,
      "ɔrehyia": 6110,
      "abuse": 6111,
      "traffi": 6112,
      "loy": 6113,
      "Beat": 6114,
      "quaye": 6115,
      "place": 6116,
      "agyapadie": 6117,
      "ntwitwa": 6118,
      "Hitz": 6119,
      "Damang": 6120,
      "Land": 6121,
      "nde": 6122,
      "nhia": 6123,
      "ɛhyeɛ": 6124,
      "yɛnom": 6125,
      "wofi": 6126,
      "nkrɔfoɔ": 6127,
      "uring": 6128,
      "kusuu": 6129,
      "akɔhyia": 6130,
      "wɔrekyere": 6131,
      "poi": 6132,
      "Affairs": 6133,
      "Yɛbɔ": 6134,
      "Agyepong": 6135,
      "Church": 6136,
      "finals": 6137,
      "qualification": 6138,
      "Awuku": 6139,
      "Gui": 6140,
      "coaches": 6141,
      "UEFA": 6142,
      "Eag": 6143,
      "that": 6144,
      "ɛhĩa": 6145,
      "anhyɛ": 6146,
      "rebɛ": 6147,
      "reset": 6148,
      "rah": 6149,
      "wɔnnim": 6150,
      "ɛbɛgye": 6151,
      "wah": 6152,
      "led": 6153,
      "will": 6154,
      "Naana": 6155,
      "aboto": 6156,
      "policies": 6157,
      "yɛhuu": 6158,
      "Hena": 6159,
      "ronye": 6160,
      "ches": 6161,
      "Abronye": 6162,
      "marke": 6163,
      "systems": 6164,
      "artistes": 6165,
      "ɔkyerɛkyerɛni": 6166,
      "Investi": 6167,
      "passport": 6168,
      "military": 6169,
      "protocols": 6170,
      "suspen": 6171,
      "Soul": 6172,
      "GJ": 6173,
      "GMA": 6174,
      "STE": 6175,
      "zo": 6176,
      "ɔkyerɛw": 6177,
      "bɛkye": 6178,
      "mey": 6179,
      "mentumi": 6180,
      "woyera": 6181,
      "nning": 6182,
      "dabi": 6183,
      "mprɛ": 6184,
      "mota": 6185,
      "wanda": 6186,
      "col": 6187,
      "assa": 6188,
      "off": 6189,
      "twam": 6190,
      "renyini": 6191,
      "activi": 6192,
      "ntokuro": 6193,
      "ɔkyerɛkyerɛɛ": 6194,
      "woresɛe": 6195,
      "nwomasua": 6196,
      "zed": 6197,
      "Mayor": 6198,
      "agumadie": 6199,
      "cellence": 6200,
      "Abe": 6201,
      "Blue": 6202,
      "ahɔhoɔ": 6203,
      "card": 6204,
      "science": 6205,
      "xy": 6206,
      "Ɛde": 6207,
      "Ɛmfa": 6208,
      "wɔhyehyɛɛ": 6209,
      "aga": 6210,
      "wers": 6211,
      "Good": 6212,
      "abusuasɛm": 6213,
      "Lin": 6214,
      "UTA": 6215,
      "atitiriw": 6216,
      "bs": 6217,
      "clo": 6218,
      "equi": 6219,
      "nnyinaa": 6220,
      "sse": 6221,
      "ɔfoforo": 6222,
      "rebo": 6223,
      "delegates": 6224,
      "degree": 6225,
      "kɔbisaa": 6226,
      "wopue": 6227,
      "fis": 6228,
      "fire": 6229,
      "fici": 6230,
      "sukyerɛ": 6231,
      "mmaran": 6232,
      "wɔbɛtua": 6233,
      "wɔrebɛ": 6234,
      "ɛhiahia": 6235,
      "Mmate": 6236,
      "abɛkyerɛ": 6237,
      "JoyNews": 6238,
      "mbassy": 6239,
      "Ewurabena": 6240,
      "STEM": 6241,
      "Free": 6242,
      "Ronal": 6243,
      "Sac": 6244,
      "class": 6245,
      "don": 6246,
      "gen": 6247,
      "solu": 6248,
      "yea": 6249,
      "kɔsra": 6250,
      "tar": 6251,
      "but": 6252,
      "abɔmu": 6253,
      "nhwɛso": 6254,
      "Amanfoɔ": 6255,
      "prio": 6256,
      "Lions": 6257,
      "Big": 6258,
      "Peace": 6259,
      "Showbiz": 6260,
      "Boahene": 6261,
      "complex": 6262,
      "Burkina": 6263,
      "baguani": 6264,
      "Nartey": 6265,
      "Circuit": 6266,
      "agyanom": 6267,
      "Bibiani": 6268,
      "Cli": 6269,
      "Kum": 6270,
      "Smart": 6271,
      "bro": 6272,
      "ɛhye": 6273,
      "reli": 6274,
      "tensi": 6275,
      "hop": 6276,
      "ɛreyera": 6277,
      "ɔbɛtie": 6278,
      "wɔbɛkasa": 6279,
      "moh": 6280,
      "akɔgye": 6281,
      "reet": 6282,
      "chan": 6283,
      "stars": 6284,
      "Joshu": 6285,
      "ɔmampanyin": 6286,
      "Prime": 6287,
      "suppor": 6288,
      "GAA": 6289,
      "wobenya": 6290,
      "disability": 6291,
      "captain": 6292,
      "asɛndibea": 6293,
      "adɔɔso": 6294,
      "Achimota": 6295,
      "Joshua": 6296,
      "Cou": 6297,
      "DV": 6298,
      "Fir": 6299,
      "Mara": 6300,
      "Sei": 6301,
      "ncy": 6302,
      "Ɔnim": 6303,
      "Ɔbea": 6304,
      "wɔto": 6305,
      "yiyie": 6306,
      "mankoma": 6307,
      "rie": 6308,
      "Mehwɛɛ": 6309,
      "agri": 6310,
      "dou": 6311,
      "ahoboa": 6312,
      "cavato": 6313,
      "monya": 6314,
      "agumadibea": 6315,
      "lus": 6316,
      "Mining": 6317,
      "illa": 6318,
      "Armah": 6319,
      "cher": 6320,
      "worenni": 6321,
      "judi": 6322,
      "nsunsuanso": 6323,
      "Prisons": 6324,
      "William": 6325,
      "Lartey": 6326,
      "sustainable": 6327,
      "Oppong": 6328,
      "PGA": 6329,
      "Wen": 6330,
      "Zu": 6331,
      "ffe": 6332,
      "kno": 6333,
      "nhunu": 6334,
      "yɛsɔre": 6335,
      "anwene": 6336,
      "ɛbɛbu": 6337,
      "super": 6338,
      "Yɛnnyae": 6339,
      "ɛredi": 6340,
      "abatuo": 6341,
      "Boye": 6342,
      "Auby": 6343,
      "Common": 6344,
      "Akwaboah": 6345,
      "rekorɔ": 6346,
      "Muniru": 6347,
      "adwiriw": 6348,
      "Environment": 6349,
      "Aubynn": 6350,
      "Han": 6351,
      "Jer": 6352,
      "Lei": 6353,
      "WHO": 6354,
      "wɔtenaa": 6355,
      "soboɔ": 6356,
      "dition": 6357,
      "pati": 6358,
      "adii": 6359,
      "rules": 6360,
      "ging": 6361,
      "NPA": 6362,
      "ɔkɔm": 6363,
      "Suleman": 6364,
      "Video": 6365,
      "Tokyo": 6366,
      "Cardi": 6367,
      "atuateɛ": 6368,
      "nantwie": 6369,
      "Kwan": 6370,
      "Ty": 6371,
      "bronze": 6372,
      "ground": 6373,
      "oma": 6374,
      "youth": 6375,
      "bɛdaadaa": 6376,
      "years": 6377,
      "ɛnfa": 6378,
      "nkora": 6379,
      "mpɛn": 6380,
      "domankoma": 6381,
      "moma": 6382,
      "federation": 6383,
      "Junior": 6384,
      "nteɛmu": 6385,
      "ɔkɔhyiaa": 6386,
      "yɛannya": 6387,
      "akontabuo": 6388,
      "Marathon": 6389,
      "Cle": 6390,
      "RI": 6391,
      "Schw": 6392,
      "ctions": 6393,
      "mbo": 6394,
      "nhwehwɛ": 6395,
      "ɛsesa": 6396,
      "mask": 6397,
      "yɛnnyae": 6398,
      "rekeka": 6399,
      "serious": 6400,
      "wohunu": 6401,
      "wotwitwa": 6402,
      "bai": 6403,
      "Wɔkyerɛɛ": 6404,
      "wel": 6405,
      "mptey": 6406,
      "wit": 6407,
      "ɔbɛte": 6408,
      "cester": 6409,
      "Koku": 6410,
      "arz": 6411,
      "ins": 6412,
      "naly": 6413,
      "ahuru": 6414,
      "Mid": 6415,
      "prophe": 6416,
      "kuropɔn": 6417,
      "executive": 6418,
      "Life": 6419,
      "Victor": 6420,
      "awoɔ": 6421,
      "chie": 6422,
      "vaccines": 6423,
      "Lamptey": 6424,
      "Change": 6425,
      "standards": 6426,
      "values": 6427,
      "score": 6428,
      "Ansah": 6429,
      "Edu": 6430,
      "Mpae": 6431,
      "Rwanda": 6432,
      "cke": 6433,
      "mra": 6434,
      "sɛnkyerɛ": 6435,
      "manu": 6436,
      "fame": 6437,
      "mmɛn": 6438,
      "anafoɔ": 6439,
      "kɔɔtɔ": 6440,
      "wiaa": 6441,
      "wɔbɛtwa": 6442,
      "ahopere": 6443,
      "Nove": 6444,
      "Kwahu": 6445,
      "Mommra": 6446,
      "under": 6447,
      "kɔkɔɔkɔ": 6448,
      "gyigye": 6449,
      "statement": 6450,
      "Brob": 6451,
      "cholarship": 6452,
      "November": 6453,
      "Oc": 6454,
      "Raw": 6455,
      "SHS": 6456,
      "odii": 6457,
      "scan": 6458,
      "ɔnka": 6459,
      "rewa": 6460,
      "bɛgyae": 6461,
      "mepa": 6462,
      "rary": 6463,
      "wosi": 6464,
      "dwumayɛfoɔ": 6465,
      "wutumi": 6466,
      "adua": 6467,
      "susuo": 6468,
      "Bel": 6469,
      "ɔsen": 6470,
      "asɔredan": 6471,
      "excavato": 6472,
      "Rose": 6473,
      "Road": 6474,
      "mmanana": 6475,
      "Traditional": 6476,
      "shortcut": 6477,
      "challenge": 6478,
      "Paralympic": 6479,
      "Rawlings": 6480,
      "Afa": 6481,
      "Der": 6482,
      "SO": 6483,
      "ɔhwehwɛɛ": 6484,
      "ɛbɛfa": 6485,
      "ɛbɛyera": 6486,
      "ɔbɛhwehwɛ": 6487,
      "ɔreyi": 6488,
      "ɔnhu": 6489,
      "nkɔmmɔdii": 6490,
      "abomu": 6491,
      "cking": 6492,
      "wɔakyere": 6493,
      "sukuufo": 6494,
      "Center": 6495,
      "stors": 6496,
      "mɛhwɛ": 6497,
      "goalkee": 6498,
      "this": 6499,
      "nkotokuo": 6500,
      "Laryea": 6501,
      "regula": 6502,
      "Lydia": 6503,
      "GACL": 6504,
      "Akyem": 6505,
      "Leicester": 6506,
      "Faso": 6507,
      "UG": 6508,
      "Yu": 6509,
      "ensa": 6510,
      "mobile": 6511,
      "ore": 6512,
      "ɔtua": 6513,
      "ɛwie": 6514,
      "yɛnsakra": 6515,
      "revenue": 6516,
      "worebɔ": 6517,
      "fare": 6518,
      "mmfi": 6519,
      "ork": 6520,
      "gyinae": 6521,
      "dunsia": 6522,
      "Majority": 6523,
      "urnalistic": 6524,
      "Wuhu": 6525,
      "ctors": 6526,
      "president": 6527,
      "Andre": 6528,
      "vention": 6529,
      "Julius": 6530,
      "Institute": 6531,
      "luxury": 6532,
      "33": 6533,
      "Amu": 6534,
      "Ukra": 6535,
      "asusu": 6536,
      "Ɛna": 6537,
      "yɛtra": 6538,
      "tei": 6539,
      "way": 6540,
      "lic": 6541,
      "dow": 6542,
      "motor": 6543,
      "akɔma": 6544,
      "wɔretwɛn": 6545,
      "erci": 6546,
      "ambia": 6547,
      "monka": 6548,
      "account": 6549,
      "Independence": 6550,
      "ɔkasaeɛ": 6551,
      "nkyɛm": 6552,
      "asrafoɔ": 6553,
      "Constitution": 6554,
      "ayamye": 6555,
      "Ronaldo": 6556,
      "Mpaebɔ": 6557,
      "Ami": 6558,
      "Fada": 6559,
      "MC": 6560,
      "afɔ": 6561,
      "ɛtaa": 6562,
      "wɔagyae": 6563,
      "reau": 6564,
      "toho": 6565,
      "hite": 6566,
      "org": 6567,
      "ɛrekasa": 6568,
      "teɛm": 6569,
      "mfatoho": 6570,
      "cker": 6571,
      "active": 6572,
      "Ɔbɛhyɛɛ": 6573,
      "nsusuwii": 6574,
      "Mpox": 6575,
      "Kyerɛw": 6576,
      "akyinnyeɛ": 6577,
      "Korle": 6578,
      "kokoɔ": 6579,
      "stream": 6580,
      "vigilan": 6581,
      "Nkɔmmɔdie": 6582,
      "journey": 6583,
      "mmrahyɛbadw": 6584,
      "collaboration": 6585,
      "Eagles": 6586,
      "GR": 6587,
      "Gambo": 6588,
      "Tas": 6589,
      "kpe": 6590,
      "ɛɛ": 6591,
      "noa": 6592,
      "kɔgyinaa": 6593,
      "waba": 6594,
      "water": 6595,
      "mpram": 6596,
      "wɔbɛda": 6597,
      "enda": 6598,
      "god": 6599,
      "Commey": 6600,
      "Coordina": 6601,
      "nsɔ": 6602,
      "akyea": 6603,
      "noloji": 6604,
      "Prampram": 6605,
      "hyth": 6606,
      "minute": 6607,
      "Italy": 6608,
      "Kamaldeen": 6609,
      "GJA": 6610,
      "Rami": 6611,
      "Yɛde": 6612,
      "udi": 6613,
      "reforms": 6614,
      "bɛkyerɛkyerɛ": 6615,
      "wodeɛ": 6616,
      "mission": 6617,
      "ony": 6618,
      "watumi": 6619,
      "hin": 6620,
      "yɛbɛhwehwɛ": 6621,
      "lin": 6622,
      "weh": 6623,
      "hweree": 6624,
      "movie": 6625,
      "nkyere": 6626,
      "Benin": 6627,
      "nsɛnnennen": 6628,
      "Arms": 6629,
      "Division": 6630,
      "Hotel": 6631,
      "thorities": 6632,
      "corporate": 6633,
      "cases": 6634,
      "self": 6635,
      "Prosecutor": 6636,
      "Ivoire": 6637,
      "tension": 6638,
      "Ramirez": 6639,
      "Edem": 6640,
      "Pan": 6641,
      "bt": 6642,
      "ofi": 6643,
      "ninku": 6644,
      "huna": 6645,
      "nkorɔfoɔ": 6646,
      "few": 6647,
      "rand": 6648,
      "adesamma": 6649,
      "protest": 6650,
      "craft": 6651,
      "Staff": 6652,
      "prices": 6653,
      "NAPO": 6654,
      "trust": 6655,
      "professionalism": 6656,
      "hern": 6657,
      "demokrase": 6658,
      "demokrasia": 6659,
      "quarters": 6660,
      "Municipal": 6661,
      "meeting": 6662,
      "mmaransɛm": 6663,
      "DVLA": 6664,
      "47": 6665,
      "Amen": 6666,
      "Sene": 6667,
      "apem": 6668,
      "nery": 6669,
      "wɔbisaa": 6670,
      "nani": 6671,
      "mination": 6672,
      "nnuro": 6673,
      "nnwɔtwe": 6674,
      "haku": 6675,
      "mmera": 6676,
      "citiz": 6677,
      "contro": 6678,
      "See": 6679,
      "Delegates": 6680,
      "Northern": 6681,
      "Paint": 6682,
      "communication": 6683,
      "volleyball": 6684,
      "spiritual": 6685,
      "institutions": 6686,
      "Kraman": 6687,
      "opportunity": 6688,
      "Dam": 6689,
      "IGA": 6690,
      "Oku": 6691,
      "Shi": 6692,
      "York": 6693,
      "squad": 6694,
      "Ɛbaa": 6695,
      "ɔbɔne": 6696,
      "yɛakyerɛ": 6697,
      "yɛdwinnwen": 6698,
      "anwanw": 6699,
      "wobetumi": 6700,
      "behu": 6701,
      "Mekyerɛ": 6702,
      "akɔpɛ": 6703,
      "los": 6704,
      "gement": 6705,
      "fort": 6706,
      "Dede": 6707,
      "ntokwa": 6708,
      "effe": 6709,
      "sɔɔ": 6710,
      "Ɔkɔkaa": 6711,
      "projects": 6712,
      "llow": 6713,
      "Quar": 6714,
      "fiscal": 6715,
      "First": 6716,
      "Schwarz": 6717,
      "All": 6718,
      "Akwaaba": 6719,
      "Analy": 6720,
      "Gab": 6721,
      "ahia": 6722,
      "emo": 6723,
      "nr": 6724,
      "Ɔben": 6725,
      "Ɛnni": 6726,
      "ɔwui": 6727,
      "yɛkyerɛw": 6728,
      "wɔantumi": 6729,
      "rebɛba": 6730,
      "fira": 6731,
      "Wɔkyerɛ": 6732,
      "nyaeɛ": 6733,
      "ahoɔ": 6734,
      "Woahu": 6735,
      "cky": 6736,
      "promi": 6737,
      "abɛgye": 6738,
      "goals": 6739,
      "borɔfo": 6740,
      "Haj": 6741,
      "Ayaresabea": 6742,
      "Senegal": 6743,
      "36": 6744,
      "55": 6745,
      "It": 6746,
      "NF": 6747,
      "yɛtaa": 6748,
      "ang": 6749,
      "anta": 6750,
      "non": 6751,
      "kɔso": 6752,
      "dwin": 6753,
      "kwase": 6754,
      "bɔeɛ": 6755,
      "pɛe": 6756,
      "Mewɔ": 6757,
      "Kodua": 6758,
      "yɛrenya": 6759,
      "mmɔdenmmɔ": 6760,
      "sesae": 6761,
      "nkonnua": 6762,
      "person": 6763,
      "pɔli": 6764,
      "company": 6765,
      "Musli": 6766,
      "check": 6767,
      "Dope": 6768,
      "Ahen": 6769,
      "inflation": 6770,
      "NHIS": 6771,
      "Beatz": 6772,
      "Sulemana": 6773,
      "ahurusi": 6774,
      "Jnr": 6775,
      "Open": 6776,
      "hɛn": 6777,
      "ship": 6778,
      "yɛbrɛ": 6779,
      "mae": 6780,
      "mat": 6781,
      "yɛnhia": 6782,
      "yɛnyaa": 6783,
      "fon": 6784,
      "enegger": 6785,
      "adwumawura": 6786,
      "akoto": 6787,
      "ɔbɛkaa": 6788,
      "wɔrentumi": 6789,
      "ɔremma": 6790,
      "mfata": 6791,
      "ntale": 6792,
      "hyiaeɛ": 6793,
      "Mona": 6794,
      "Republic": 6795,
      "Mampong": 6796,
      "Hots": 6797,
      "TVET": 6798,
      "afanaa": 6799,
      "Gyampo": 6800,
      "mpontu": 6801,
      "retwam": 6802,
      "Anala": 6803,
      "branding": 6804,
      "Community": 6805,
      "Basintale": 6806,
      "Schwarzenegger": 6807,
      "asusuw": 6808,
      "long": 6809,
      "two": 6810,
      "yɛmmra": 6811,
      "yɛkenkan": 6812,
      "sene": 6813,
      "mena": 6814,
      "wotu": 6815,
      "mika": 6816,
      "ɛbɛgyina": 6817,
      "yɛhwɛɛ": 6818,
      "vey": 6819,
      "stina": 6820,
      "kyɛfa": 6821,
      "competi": 6822,
      "exerci": 6823,
      "Town": 6824,
      "gative": 6825,
      "certifi": 6826,
      "nkwaa": 6827,
      "Aduane": 6828,
      "truck": 6829,
      "Bɔɔlbɔ": 6830,
      "Issahaku": 6831,
      "Eei": 6832,
      "MMA": 6833,
      "OS": 6834,
      "On": 6835,
      "ahw": 6836,
      "afuw": 6837,
      "nfa": 6838,
      "ply": 6839,
      "ɔkyerɛwfoɔ": 6840,
      "reni": 6841,
      "bɛbaa": 6842,
      "nia": 6843,
      "mefiri": 6844,
      "melo": 6845,
      "diako": 6846,
      "bah": 6847,
      "tine": 6848,
      "mind": 6849,
      "ɛbɛhwɛ": 6850,
      "yɛbɛsiesie": 6851,
      "ɛreboa": 6852,
      "heart": 6853,
      "atemmu": 6854,
      "abura": 6855,
      "Bediako": 6856,
      "cure": 6857,
      "nkɔmɔ": 6858,
      "trotro": 6859,
      "Roman": 6860,
      "Adut": 6861,
      "Gyakie": 6862,
      "truth": 6863,
      "Anaa": 6864,
      "marathon": 6865,
      "evidence": 6866,
      "Ati": 6867,
      "Ampo": 6868,
      "Dua": 6869,
      "Eno": 6870,
      "Hap": 6871,
      "Villa": 6872,
      "Zongo": 6873,
      "gba": 6874,
      "nurses": 6875,
      "ɛhyehyɛ": 6876,
      "wɔgyaee": 6877,
      "yɛnyane": 6878,
      "mennim": 6879,
      "bill": 6880,
      "tism": 6881,
      "rob": 6882,
      "yɛbɛpɛ": 6883,
      "lish": 6884,
      "ɔrentumi": 6885,
      "daase": 6886,
      "rang": 6887,
      "cturing": 6888,
      "Russi": 6889,
      "abɔnefoɔ": 6890,
      "College": 6891,
      "ɔbenfo": 6892,
      "Kristo": 6893,
      "patience": 6894,
      "Aweh": 6895,
      "Oka": 6896,
      "et": 6897,
      "ɔwuo": 6898,
      "wɔtena": 6899,
      "mal": 6900,
      "yiyi": 6901,
      "rehia": 6902,
      "remony": 6903,
      "mehyia": 6904,
      "Wɔdii": 6905,
      "ntete": 6906,
      "Yɛnka": 6907,
      "mpene": 6908,
      "ɛrebɛba": 6909,
      "ɔbɛsesa": 6910,
      "rant": 6911,
      "asse": 6912,
      "inho": 6913,
      "Austra": 6914,
      "Ashie": 6915,
      "Shai": 6916,
      "ahwɛso": 6917,
      "Winne": 6918,
      "rates": 6919,
      "Bull": 6920,
      "ananmusifo": 6921,
      "dɔnhwere": 6922,
      "constitutional": 6923,
      "vigil": 6924,
      "akwansideɛ": 6925,
      "first": 6926,
      "Commonwealth": 6927,
      "AM": 6928,
      "Anko": 6929,
      "Ahene": 6930,
      "Bre": 6931,
      "Drew": 6932,
      "OT": 6933,
      "Ope": 6934,
      "Ɔdwan": 6935,
      "Ɛbɛduruu": 6936,
      "ɔsɔfo": 6937,
      "yɛagyae": 6938,
      "kɔkyerɛɛ": 6939,
      "food": 6940,
      "site": 6941,
      "boss": 6942,
      "Wɔhunuu": 6943,
      "akono": 6944,
      "gui": 6945,
      "vil": 6946,
      "NPPfoɔ": 6947,
      "appro": 6948,
      "dwirii": 6949,
      "ɔkota": 6950,
      "Lib": 6951,
      "cultural": 6952,
      "Ahmed": 6953,
      "anifest": 6954,
      "logistics": 6955,
      "akyiwadeɛ": 6956,
      "Plan": 6957,
      "Rap": 6958,
      "Sate": 6959,
      "ɛhyew": 6960,
      "nou": 6961,
      "urance": 6962,
      "Metee": 6963,
      "mmrɛ": 6964,
      "wal": 6965,
      "lip": 6966,
      "wudi": 6967,
      "strong": 6968,
      "ɛkɔso": 6969,
      "akata": 6970,
      "yɛreko": 6971,
      "las": 6972,
      "Mour": 6973,
      "monhwehwɛ": 6974,
      "chacha": 6975,
      "seisei": 6976,
      "korabea": 6977,
      "Nigeri": 6978,
      "Budget": 6979,
      "Ɔkɔhyiaa": 6980,
      "Bible": 6981,
      "asubɔnten": 6982,
      "nyini": 6983,
      "ɔkannifo": 6984,
      "ctory": 6985,
      "dwontofoɔ": 6986,
      "DopeNation": 6987,
      "Libya": 6988,
      "90": 6989,
      "Adi": 6990,
      "Akyire": 6991,
      "Hy": 6992,
      "Okyere": 6993,
      "mor": 6994,
      "ntua": 6995,
      "yɛahyɛ": 6996,
      "renni": 6997,
      "review": 6998,
      "sesaa": 6999,
      "kari": 7000,
      "sary": 7001,
      "toa": 7002,
      "tour": 7003,
      "wuhyɛ": 7004,
      "ntɔn": 7005,
      "ntwene": 7006,
      "ɔrekyerɛkyerɛ": 7007,
      "labo": 7008,
      "laun": 7009,
      "get": 7010,
      "wobɛma": 7011,
      "kyerɛwfo": 7012,
      "Domini": 7013,
      "twiri": 7014,
      "Mmea": 7015,
      "akyekye": 7016,
      "crisis": 7017,
      "tribu": 7018,
      "ult": 7019,
      "Table": 7020,
      "ttle": 7021,
      "ɔtwee": 7022,
      "black": 7023,
      "influ": 7024,
      "awerɛhyɛmu": 7025,
      "Economic": 7026,
      "Maxwell": 7027,
      "Task": 7028,
      "Kane": 7029,
      "Kel": 7030,
      "Stre": 7031,
      "abisa": 7032,
      "apira": 7033,
      "immu": 7034,
      "sci": 7035,
      "wɔsom": 7036,
      "wɔtɔ": 7037,
      "wɔnom": 7038,
      "Meteeɛ": 7039,
      "ntil": 7040,
      "ards": 7041,
      "Wotumi": 7042,
      "Wokeka": 7043,
      "victi": 7044,
      "Acquah": 7045,
      "ɔsebo": 7046,
      "proper": 7047,
      "Delay": 7048,
      "Poloo": 7049,
      "Saudi": 7050,
      "Digital": 7051,
      "Chiefs": 7052,
      "tenenee": 7053,
      "network": 7054,
      "Isla": 7055,
      "goalkeeper": 7056,
      "Ukraine": 7057,
      "Happy": 7058,
      "Mourinho": 7059,
      "Abere": 7060,
      "Abra": 7061,
      "CD": 7062,
      "Clo": 7063,
      "Gban": 7064,
      "Onipa": 7065,
      "Sp": 7066,
      "Stu": 7067,
      "Ɛpo": 7068,
      "yɛsrɛ": 7069,
      "nah": 7070,
      "mall": 7071,
      "resiesie": 7072,
      "bɛwu": 7073,
      "des": 7074,
      "kɔtenaa": 7075,
      "mereyɛ": 7076,
      "ɔreboaboa": 7077,
      "stress": 7078,
      "llars": 7079,
      "lot": 7080,
      "cast": 7081,
      "stin": 7082,
      "acade": 7083,
      "programme": 7084,
      "bɔɔlbɔfo": 7085,
      "Asha": 7086,
      "Yɛmma": 7087,
      "ɛsɛee": 7088,
      "Buah": 7089,
      "recor": 7090,
      "Febru": 7091,
      "porting": 7092,
      "Oforisuo": 7093,
      "draw": 7094,
      "Manager": 7095,
      "Hub": 7096,
      "Nkonim": 7097,
      "ɔsram": 7098,
      "Gbande": 7099,
      "February": 7100,
      "52": 7101,
      "Jay": 7102,
      "Ter": 7103,
      "Wa": 7104,
      "Waka": 7105,
      "era": 7106,
      "ɛgye": 7107,
      "bɛbisa": 7108,
      "kɔkae": 7109,
      "measu": 7110,
      "divi": 7111,
      "Sɛɛ": 7112,
      "tun": 7113,
      "liy": 7114,
      "wɔbɛbu": 7115,
      "wɔbɛhyia": 7116,
      "mono": 7117,
      "ciary": 7118,
      "Moliy": 7119,
      "Mike": 7120,
      "abusuafie": 7121,
      "nteɛm": 7122,
      "consul": 7123,
      "Kusa": 7124,
      "Arti": 7125,
      "aduruyɛfoɔ": 7126,
      "kid": 7127,
      "ller": 7128,
      "Ford": 7129,
      "ministry": 7130,
      "taphorical": 7131,
      "oner": 7132,
      "physi": 7133,
      "break": 7134,
      "Trust": 7135,
      "Yareɛ": 7136,
      "ayayadeɛ": 7137,
      "Pastor": 7138,
      "Afrobeats": 7139,
      "Paintsil": 7140,
      "Dwom": 7141,
      "SC": 7142,
      "kpor": 7143,
      "yɛbue": 7144,
      "wɔsakra": 7145,
      "bili": 7146,
      "dise": 7147,
      "kosii": 7148,
      "mix": 7149,
      "Wɔkasa": 7150,
      "ntian": 7151,
      "wɔbɛtew": 7152,
      "moni": 7153,
      "ntal": 7154,
      "nnɛyi": 7155,
      "Mepɛɛ": 7156,
      "capital": 7157,
      "NPC": 7158,
      "ɔkɔfa": 7159,
      "unds": 7160,
      "amena": 7161,
      "Archer": 7162,
      "ront": 7163,
      "worepɛ": 7164,
      "Gee": 7165,
      "awerɛhɔm": 7166,
      "Otto": 7167,
      "tention": 7168,
      "taskforce": 7169,
      "Upper": 7170,
      "tactical": 7171,
      "Assin": 7172,
      "MTN": 7173,
      "Anokye": 7174,
      "Kumchacha": 7175,
      "organi": 7176,
      "Adutwum": 7177,
      "Australia": 7178,
      "39": 7179,
      "Th": 7180,
      "YEA": 7181,
      "late": 7182,
      "smart": 7183,
      "Ɛbɔ": 7184,
      "yɛtɔ": 7185,
      "wɔate": 7186,
      "maker": 7187,
      "ret": 7188,
      "mente": 7189,
      "mehunuu": 7190,
      "rɛɛ": 7191,
      "foe": 7192,
      "foo": 7193,
      "risk": 7194,
      "mmond": 7195,
      "amanne": 7196,
      "kua": 7197,
      "mmepɔw": 7198,
      "ahoko": 7199,
      "ɔpɛnimaa": 7200,
      "twere": 7201,
      "BoG": 7202,
      "ɛbae": 7203,
      "Deen": 7204,
      "Programme": 7205,
      "agent": 7206,
      "Hammond": 7207,
      "Abuba": 7208,
      "Management": 7209,
      "akwansim": 7210,
      "drug": 7211,
      "marketing": 7212,
      "Dominic": 7213,
      "67": 7214,
      "Annan": 7215,
      "PC": 7216,
      "Takyi": 7217,
      "otic": 7218,
      "rhyth": 7219,
      "thu": 7220,
      "wɔmma": 7221,
      "rena": 7222,
      "bɛdɔɔ": 7223,
      "kɔpem": 7224,
      "racles": 7225,
      "wodu": 7226,
      "woresi": 7227,
      "side": 7228,
      "rit": 7229,
      "mihuu": 7230,
      "wuhia": 7231,
      "nyarewa": 7232,
      "monim": 7233,
      "Wokyerɛ": 7234,
      "low": 7235,
      "capa": 7236,
      "Ntim": 7237,
      "tives": 7238,
      "Agri": 7239,
      "Akwatiafoɔ": 7240,
      "tactics": 7241,
      "Foreign": 7242,
      "Phobi": 7243,
      "Hajj": 7244,
      "Satelli": 7245,
      "Gra": 7246,
      "Glo": 7247,
      "akwaaba": 7248,
      "gma": 7249,
      "Ɛnde": 7250,
      "ɔmma": 7251,
      "anhu": 7252,
      "wɔtaa": 7253,
      "macy": 7254,
      "song": 7255,
      "rennya": 7256,
      "bɛsɔre": 7257,
      "kafoɔ": 7258,
      "fast": 7259,
      "sues": 7260,
      "agree": 7261,
      "wuhyia": 7262,
      "akɔko": 7263,
      "nty": 7264,
      "dɔte": 7265,
      "ɛkɔeɛ": 7266,
      "guo": 7267,
      "adanmu": 7268,
      "nkonya": 7269,
      "control": 7270,
      "Joe": 7271,
      "Teac": 7272,
      "appli": 7273,
      "Godwin": 7274,
      "Dancehall": 7275,
      "Kotoka": 7276,
      "mmanim": 7277,
      "transformation": 7278,
      "artist": 7279,
      "week": 7280,
      "Duah": 7281,
      "atesɛmfoɔ": 7282,
      "celebrity": 7283,
      "SDG": 7284,
      "Inspe": 7285,
      "Ɔsoafo": 7286,
      "Maame": 7287,
      "Seidu": 7288,
      "48": 7289,
      "Don": 7290,
      "My": 7291,
      "Wil": 7292,
      "afra": 7293,
      "fli": 7294,
      "yɛgya": 7295,
      "kɔkyerɛ": 7296,
      "tufoɔ": 7297,
      "ɔbɛhu": 7298,
      "wɔbɛyi": 7299,
      "atre": 7300,
      "yɛregye": 7301,
      "environment": 7302,
      "course": 7303,
      "vere": 7304,
      "abɔmmɔfoɔ": 7305,
      "baakofoɔ": 7306,
      "nnaadaafoɔ": 7307,
      "agodiefoɔ": 7308,
      "abɛhyɛ": 7309,
      "Ampadu": 7310,
      "Gospel": 7311,
      "Consul": 7312,
      "Ladies": 7313,
      "planning": 7314,
      "Osman": 7315,
      "ahomegyeɛ": 7316,
      "facility": 7317,
      "Inspector": 7318,
      "Ethi": 7319,
      "abɔɔ": 7320,
      "apɔnkɔ": 7321,
      "initiative": 7322,
      "lat": 7323,
      "nsii": 7324,
      "Ɔhwɛɛ": 7325,
      "ɔtaa": 7326,
      "ɔnnye": 7327,
      "ɔdom": 7328,
      "ɔhɔhoɔ": 7329,
      "nese": 7330,
      "mehyiaa": 7331,
      "merepɛ": 7332,
      "nnii": 7333,
      "ritage": 7334,
      "ɔmantam": 7335,
      "mmar": 7336,
      "amansin": 7337,
      "nnwan": 7338,
      "bulance": 7339,
      "ntia": 7340,
      "nsase": 7341,
      "fers": 7342,
      "2017": 7343,
      "Wokasa": 7344,
      "adum": 7345,
      "cata": 7346,
      "atoa": 7347,
      "yɛahwere": 7348,
      "authorities": 7349,
      "lifestyle": 7350,
      "Fiel": 7351,
      "Agyekum": 7352,
      "investors": 7353,
      "Bɔɔlɔ": 7354,
      "sustainability": 7355,
      "Russia": 7356,
      "influence": 7357,
      "38": 7358,
      "Cau": 7359,
      "Swe": 7360,
      "kran": 7361,
      "Ɛkɔ": 7362,
      "Ɛbɛboa": 7363,
      "yisɛm": 7364,
      "mebɛtumi": 7365,
      "mennye": 7366,
      "ɛntene": 7367,
      "bery": 7368,
      "was": 7369,
      "kuayɛ": 7370,
      "nting": 7371,
      "ɔbɛdaadaa": 7372,
      "guide": 7373,
      "nkyekye": 7374,
      "ues": 7375,
      "wobɛhwere": 7376,
      "montie": 7377,
      "akwampae": 7378,
      "huuu": 7379,
      "intenance": 7380,
      "mark": 7381,
      "Soci": 7382,
      "Yɛreka": 7383,
      "English": 7384,
      "volu": 7385,
      "Nsawam": 7386,
      "ahokokwaw": 7387,
      "Apaa": 7388,
      "Nkwa": 7389,
      "Ola": 7390,
      "ek": 7391,
      "em": 7392,
      "edii": 7393,
      "gor": 7394,
      "lying": 7395,
      "nahuna": 7396,
      "resu": 7397,
      "night": 7398,
      "kah": 7399,
      "anies": 7400,
      "ɛbɛtɔ": 7401,
      "Wɔhuu": 7402,
      "were": 7403,
      "Yɛntena": 7404,
      "nyani": 7405,
      "Miracles": 7406,
      "abɛbu": 7407,
      "Journalism": 7408,
      "DCEs": 7409,
      "Sunyani": 7410,
      "Hope": 7411,
      "strugg": 7412,
      "Ɔbɛkyerɛɛ": 7413,
      "medals": 7414,
      "Citi": 7415,
      "Tamaklo": 7416,
      "mfomso": 7417,
      "producer": 7418,
      "allowan": 7419,
      "Agbeko": 7420,
      "Sackey": 7421,
      "Ampofo": 7422,
      "BBC": 7423,
      "Gye": 7424,
      "Mpanin": 7425,
      "Ode": 7426,
      "atirim": 7427,
      "cru": 7428,
      "kyɛɛ": 7429,
      "kuru": 7430,
      "stor": 7431,
      "yɛkɔɔ": 7432,
      "wɔgyae": 7433,
      "fication": 7434,
      "Mente": 7435,
      "ɔbɛhwe": 7436,
      "dome": 7437,
      "morial": 7438,
      "nkonimbo": 7439,
      "yɛrenni": 7440,
      "Woahunu": 7441,
      "vehi": 7442,
      "gent": 7443,
      "thy": 7444,
      "ahuri": 7445,
      "susuwii": 7446,
      "namba": 7447,
      "asɛnka": 7448,
      "talk": 7449,
      "kumaa": 7450,
      "issues": 7451,
      "Martin": 7452,
      "Ɔkɔhunuu": 7453,
      "curfew": 7454,
      "Anida": 7455,
      "Angel": 7456,
      "consistency": 7457,
      "Kpebu": 7458,
      "ahohiahia": 7459,
      "Apaak": 7460,
      "300": 7461,
      "Ebo": 7462,
      "Fred": 7463,
      "Jina": 7464,
      "NMA": 7465,
      "Paa": 7466,
      "atamfoɔ": 7467,
      "ctical": 7468,
      "turo": 7469,
      "ɔwuiɛ": 7470,
      "ɛpɔn": 7471,
      "ɛgyee": 7472,
      "pare": 7473,
      "bata": 7474,
      "hɔfoɔ": 7475,
      "adwumayɛni": 7476,
      "wunhu": 7477,
      "dollars": 7478,
      "akɔduru": 7479,
      "ntwa": 7480,
      "ston": 7481,
      "yɛreboa": 7482,
      "gyata": 7483,
      "abɔdin": 7484,
      "abontene": 7485,
      "wɔahyia": 7486,
      "nnyaw": 7487,
      "ayaresafoɔ": 7488,
      "Dennis": 7489,
      "nnompe": 7490,
      "Togo": 7491,
      "Times": 7492,
      "elections": 7493,
      "mpanyimfo": 7494,
      "ahwɛyiyeɛ": 7495,
      "Baah": 7496,
      "EPA": 7497,
      "agokansie": 7498,
      "sponso": 7499,
      "injury": 7500,
      "Brobbey": 7501,
      "exercise": 7502,
      "ahwene": 7503,
      "capacity": 7504,
      "Phobians": 7505,
      "atirimɔden": 7506,
      "Fre": 7507,
      "Gar": 7508,
      "Okraman": 7509,
      "PM": 7510,
      "cture": 7511,
      "ndi": 7512,
      "Ɔkyerɛkyerɛɛ": 7513,
      "reco": 7514,
      "bɛɛ": 7515,
      "bɛgu": 7516,
      "tima": 7517,
      "mira": 7518,
      "Medaase": 7519,
      "dai": 7520,
      "yɛbɛtra": 7521,
      "ɛrekum": 7522,
      "ceremony": 7523,
      "wɔrenya": 7524,
      "ngua": 7525,
      "Bentil": 7526,
      "Simon": 7527,
      "abɛsi": 7528,
      "mfiaseɛ": 7529,
      "ahummɔborɔ": 7530,
      "nseku": 7531,
      "Ɔkɔdeɛ": 7532,
      "wubedi": 7533,
      "shoo": 7534,
      "Braz": 7535,
      "newsroom": 7536,
      "Oscar": 7537,
      "responsibility": 7538,
      "burg": 7539,
      "Islamic": 7540,
      "Satellites": 7541,
      "Jinapor": 7542,
      "Embassy": 7543,
      "Fer": 7544,
      "Her": 7545,
      "Tes": 7546,
      "Yɛsɛ": 7547,
      "from": 7548,
      "xi": 7549,
      "xim": 7550,
      "ɔmo": 7551,
      "yɛfo": 7552,
      "reye": 7553,
      "bɛbɛn": 7554,
      "debt": 7555,
      "teki": 7556,
      "foot": 7557,
      "nanteɛ": 7558,
      "ɛnsɛe": 7559,
      "tish": 7560,
      "Sɛ́": 7561,
      "bepɔw": 7562,
      "mily": 7563,
      "nimdefoɔ": 7564,
      "wamma": 7565,
      "order": 7566,
      "ɔbɛkura": 7567,
      "moto": 7568,
      "ntrɛw": 7569,
      "ngth": 7570,
      "wɔaboa": 7571,
      "wɔamfa": 7572,
      "Recor": 7573,
      "dancehall": 7574,
      "Agbo": 7575,
      "puter": 7576,
      "appe": 7577,
      "mpempem": 7578,
      "wubenya": 7579,
      "ahemfo": 7580,
      "tɛɛ": 7581,
      "Ɔkasae": 7582,
      "Mmarahyɛbadwafie": 7583,
      "bridge": 7584,
      "nnɔbaeɛ": 7585,
      "officers": 7586,
      "NHIA": 7587,
      "Philip": 7588,
      "documenta": 7589,
      "Jerry": 7590,
      "Coordinator": 7591,
      "Fordjour": 7592,
      "AR": 7593,
      "Bom": 7594,
      "Eye": 7595,
      "TH": 7596,
      "abaa": 7597,
      "dre": 7598,
      "iman": 7599,
      "osuahu": 7600,
      "Ɔbisaa": 7601,
      "Ɛdii": 7602,
      "ɛmmra": 7603,
      "wɔkaeɛ": 7604,
      "naa": 7605,
      "resua": 7606,
      "kɔhunuu": 7607,
      "merebɔ": 7608,
      "bad": 7609,
      "rimma": 7610,
      "ado": 7611,
      "aki": 7612,
      "ahosɛ": 7613,
      "wɔrebisa": 7614,
      "atrɛ": 7615,
      "tɔeɛ": 7616,
      "amnesty": 7617,
      "aborɔfo": 7618,
      "former": 7619,
      "yɛayi": 7620,
      "Command": 7621,
      "Suhu": 7622,
      "yɛboaboa": 7623,
      "borɔdeɛ": 7624,
      "Chris": 7625,
      "clean": 7626,
      "Asetra": 7627,
      "Agona": 7628,
      "Great": 7629,
      "constituency": 7630,
      "ayɔnkofoɔ": 7631,
      "Dwumoh": 7632,
      "ntotoeɛ": 7633,
      "Derrick": 7634,
      "Aberewa": 7635,
      "Abraham": 7636,
      "Immigration": 7637,
      "Nhwehwɛmu": 7638,
      "Owura": 7639,
      "Ph": 7640,
      "ddy": 7641,
      "ise": 7642,
      "smo": 7643,
      "Ɔdaa": 7644,
      "ɔduruu": 7645,
      "ɛkae": 7646,
      "yɛate": 7647,
      "wɔhyia": 7648,
      "yɛnwerɛ": 7649,
      "regye": 7650,
      "bɛdan": 7651,
      "racism": 7652,
      "wopere": 7653,
      "bɔkɔɔ": 7654,
      "ɛbɛkyere": 7655,
      "Mensa": 7656,
      "Mennim": 7657,
      "banki": 7658,
      "mmɔfo": 7659,
      "nkuguo": 7660,
      "lure": 7661,
      "luck": 7662,
      "Proje": 7663,
      "criminal": 7664,
      "model": 7665,
      "akyinnyegyeɛ": 7666,
      "Belgi": 7667,
      "Hotspur": 7668,
      "Ethiopi": 7669,
      "Teshie": 7670,
      "Dre": 7671,
      "Dzi": 7672,
      "Flex": 7673,
      "Lago": 7674,
      "MS": 7675,
      "Mfi": 7676,
      "Odo": 7677,
      "Rah": 7678,
      "cta": 7679,
      "ccer": 7680,
      "obarima": 7681,
      "Ɔsa": 7682,
      "Ɛho": 7683,
      "ɔnyansafoɔ": 7684,
      "ɛmma": 7685,
      "yɛko": 7686,
      "yɛsusu": 7687,
      "yɛhwere": 7688,
      "maintenance": 7689,
      "yɛntie": 7690,
      "bɛkyerɛɛ": 7691,
      "bɛkyɛ": 7692,
      "deter": 7693,
      "miles": 7694,
      "ɔmanba": 7695,
      "nkorang": 7696,
      "adɔfoɔ": 7697,
      "hwereɛ": 7698,
      "ahoa": 7699,
      "hemmaa": 7700,
      "Korea": 7701,
      "somfoɔ": 7702,
      "wobɛhwe": 7703,
      "kyerɛkyerɛfo": 7704,
      "program": 7705,
      "abɛbɔ": 7706,
      "asɛyɛde": 7707,
      "Net": 7708,
      "Red": 7709,
      "awerɛhoɛ": 7710,
      "ahwɛyie": 7711,
      "Chinese": 7712,
      "dware": 7713,
      "Richie": 7714,
      "ɔsomfoɔ": 7715,
      "Camp": 7716,
      "ɔsɛee": 7717,
      "Ahenni": 7718,
      "engine": 7719,
      "second": 7720,
      "Sunday": 7721,
      "analysis": 7722,
      "Seesei": 7723,
      "Analytics": 7724,
      "tuntum": 7725,
      "Brazil": 7726,
      "Akyerɛ": 7727,
      "Arena": 7728,
      "GB": 7729,
      "Ms": 7730,
      "Osu": 7731,
      "cko": 7732,
      "dle": 7733,
      "yɛadu": 7734,
      "deli": 7735,
      "kɔntɔ": 7736,
      "woba": 7737,
      "wotwɛn": 7738,
      "sition": 7739,
      "yɛbɛhyia": 7740,
      "ɛrenyɛ": 7741,
      "ɔbɛgyae": 7742,
      "cedis": 7743,
      "here": 7744,
      "attention": 7745,
      "asomdwoeeɛ": 7746,
      "coun": 7747,
      "gie": 7748,
      "Mavis": 7749,
      "asoa": 7750,
      "Summit": 7751,
      "parliament": 7752,
      "Home": 7753,
      "Info": 7754,
      "Presidential": 7755,
      "Adam": 7756,
      "ayeforo": 7757,
      "platforms": 7758,
      "Shei": 7759,
      "ahomasoɔ": 7760,
      "Mercy": 7761,
      "manufa": 7762,
      "ahurisie": 7763,
      "Lagos": 7764,
      "45": 7765,
      "49": 7766,
      "AS": 7767,
      "Ant": 7768,
      "Kɔkɔɔ": 7769,
      "Oil": 7770,
      "TF": 7771,
      "cted": 7772,
      "flight": 7773,
      "pto": 7774,
      "Ɔpete": 7775,
      "ɔnkyerɛ": 7776,
      "ɔkora": 7777,
      "yɛnsiesie": 7778,
      "wɔnfa": 7779,
      "tise": 7780,
      "tali": 7781,
      "mmpɛ": 7782,
      "yɛbɛda": 7783,
      "wuu": 7784,
      "wɔrekae": 7785,
      "nnafua": 7786,
      "yɛkamfo": 7787,
      "mmusuo": 7788,
      "abɛto": 7789,
      "condi": 7790,
      "yɛakasa": 7791,
      "Amanaman": 7792,
      "Child": 7793,
      "effici": 7794,
      "mmanan": 7795,
      "wɔsɛee": 7796,
      "democratic": 7797,
      "Barnie": 7798,
      "WASS": 7799,
      "clear": 7800,
      "nkatasoɔ": 7801,
      "tariat": 7802,
      "reprene": 7803,
      "curement": 7804,
      "WASSCE": 7805,
      "Hall": 7806,
      "Ray": 7807,
      "Yaku": 7808,
      "inee": 7809,
      "kh": 7810,
      "nhwi": 7811,
      "ohu": 7812,
      "ola": 7813,
      "sche": 7814,
      "scholarship": 7815,
      "Ɔbɔfoɔ": 7816,
      "Ɔsɔfo": 7817,
      "Ɛdɔɔso": 7818,
      "ɔmmra": 7819,
      "ɛkyere": 7820,
      "wɔteɛ": 7821,
      "member": 7822,
      "wɔnnye": 7823,
      "bara": 7824,
      "rival": 7825,
      "roll": 7826,
      "krakye": 7827,
      "ading": 7828,
      "viation": 7829,
      "tool": 7830,
      "Sir": 7831,
      "mfour": 7832,
      "nkonnwa": 7833,
      "conta": 7834,
      "Jona": 7835,
      "Relations": 7836,
      "Yie": 7837,
      "exchange": 7838,
      "yɛbɛdidi": 7839,
      "electoral": 7840,
      "zie": 7841,
      "pher": 7842,
      "momfa": 7843,
      "Palmer": 7844,
      "Azumah": 7845,
      "scam": 7846,
      "Malik": 7847,
      "regional": 7848,
      "Nkaw": 7849,
      "bodybuilding": 7850,
      "farmers": 7851,
      "PIAC": 7852,
      "procedu": 7853,
      "supporters": 7854,
      "physical": 7855,
      "Society": 7856,
      "Tamakloe": 7857,
      "Akw": 7858,
      "Mz": 7859,
      "Port": 7860,
      "Tues": 7861,
      "bana": 7862,
      "kɛntɛn": 7863,
      "mbers": 7864,
      "our": 7865,
      "xt": 7866,
      "ɔfrɛɛ": 7867,
      "wɔdaadaa": 7868,
      "bɛdɔɔso": 7869,
      "ɛyɛeɛ": 7870,
      "huno": 7871,
      "dates": 7872,
      "mpson": 7873,
      "wɔresɛe": 7874,
      "ɔrewe": 7875,
      "atrɛw": 7876,
      "fied": 7877,
      "traditional": 7878,
      "nyansapɛ": 7879,
      "abodwo": 7880,
      "ballot": 7881,
      "Tenkorang": 7882,
      "ahunahuna": 7883,
      "Market": 7884,
      "Monyɛ": 7885,
      "Tiwa": 7886,
      "practical": 7887,
      "anyini": 7888,
      "Yohuno": 7889,
      "sign": 7890,
      "Nnaadaa": 7891,
      "nkɔmmɔdini": 7892,
      "connection": 7893,
      "citizens": 7894,
      "approach": 7895,
      "agreement": 7896,
      "Barnieh": 7897,
      "Yakubu": 7898,
      "Tuesday": 7899,
      "Abɔ": 7900,
      "Bad": 7901,
      "Lady": 7902,
      "Vin": 7903,
      "Yɛbɛtumi": 7904,
      "Ɔsɔfoɔ": 7905,
      "Ɛnkyɛn": 7906,
      "wɔbisa": 7907,
      "manpanyin": 7908,
      "kyee": 7909,
      "ɛnsom": 7910,
      "hɔn": 7911,
      "ɛbɛsan": 7912,
      "tou": 7913,
      "adesrɛ": 7914,
      "nkyerɛwee": 7915,
      "nkonyaa": 7916,
      "yɛayera": 7917,
      "Ashis": 7918,
      "Sao": 7919,
      "Saku": 7920,
      "adagyaw": 7921,
      "ahemfie": 7922,
      "mprenu": 7923,
      "Yesu": 7924,
      "Baffoe": 7925,
      "demokrasi": 7926,
      "Raz": 7927,
      "Bullgod": 7928,
      "academic": 7929,
      "Rahman": 7930,
      "Vincent": 7931,
      "Atal": 7932,
      "Can": 7933,
      "Handball": 7934,
      "Kina": 7935,
      "Pla": 7936,
      "Plus": 7937,
      "apaw": 7938,
      "blue": 7939,
      "gni": 7940,
      "mɛboa": 7941,
      "Ɔda": 7942,
      "ɛsakra": 7943,
      "yɛbɔɔ": 7944,
      "yɛagyina": 7945,
      "ander": 7946,
      "wɔdwene": 7947,
      "mashie": 7948,
      "ɛnsi": 7949,
      "file": 7950,
      "waste": 7951,
      "Wɔnim": 7952,
      "akorɔ": 7953,
      "adifu": 7954,
      "ɔpɛe": 7955,
      "duty": 7956,
      "Woahwɛ": 7957,
      "peree": 7958,
      "mepɛɛ": 7959,
      "funeral": 7960,
      "Modi": 7961,
      "susui": 7962,
      "gies": 7963,
      "seini": 7964,
      "Legal": 7965,
      "Didi": 7966,
      "Musah": 7967,
      "Top": 7968,
      "Rome": 7969,
      "Villar": 7970,
      "seseiara": 7971,
      "Patricia": 7972,
      "Jean": 7973,
      "ahwehwɛdeɛ": 7974,
      "kookoo": 7975,
      "Pokuase": 7976,
      "Alexander": 7977,
      "ahosɛpɛ": 7978,
      "Atalanta": 7979,
      "Kinaata": 7980,
      "Villarreal": 7981,
      "%.": 7982,
      "Anim": 7983,
      "GO": 7984,
      "Osa": 7985,
      "Oduro": 7986,
      "Takora": 7987,
      "Wahu": 7988,
      "ahyeɛ": 7989,
      "ffo": 7990,
      "tha": 7991,
      "ɛfi": 7992,
      "ɛboɔ": 7993,
      "nar": 7994,
      "rebɛn": 7995,
      "bɛkora": 7996,
      "depɛ": 7997,
      "kɔsua": 7998,
      "testing": 7999
    },
    "merges": [
      [
        "y",
        "ɛ"
      ],
      [
        "s",
        "ɛ"
      ],
      [
        "a",
        "n"
      ],
      [
        "n",
        "o"
      ],
      [
        "n",
        "e"
      ],
      [
        "w",
        "ɔ"
      ],
      [
        "n",
        "a"
      ],
      [
        "m",
        "a"
      ],
      [
        "s",
        "o"
      ],
      [
        "y",
        "i"
      ],
      [
        "yɛ",
        "n"
      ],
      [
        "r",
        "e"
      ],
      [
        "b",
        "ɛ"
      ],
      [
        "d",
        "e"
      ],
      [
        "y",
        "e"
      ],
      [
        "a",
        "a"
      ],
      [
        "s",
        "e"
      ],
      [
        "n",
        "i"
      ],
      [
        "k",
        "ɔ"
      ],
      [
        "k",
        "a"
      ],
      [
        "m",
        "e"
      ],
      [
        "t",
        "e"
      ],
      [
        "b",
        "i"
      ],
      [
        "sɛ",
        "m"
      ],
      [
        "r",
        "a"
      ],
      [
        "d",
        "w"
      ],
      [
        "h",
        "o"
      ],
      [
        "r",
        "ɛ"
      ],
      [
        "f",
        "o"
      ],
      [
        "m",
        "an"
      ],
      [
        "k",
        "w"
      ],
      [
        "w",
        "o"
      ],
      [
        "m",
        "u"
      ],
      [
        "d",
        "i"
      ],
      [
        "n",
        "k"
      ],
      [
        "n",
        "an"
      ],
      [
        "k",
        "ye"
      ],
      [
        "yi",
        "na"
      ],
      [
        "ɛ",
        "n"
      ],
      [
        "a",
        "dw"
      ],
      [
        "kye",
        "rɛ"
      ],
      [
        "h",
        "w"
      ],
      [
        "s",
        "a"
      ],
      [
        "ne",
        "a"
      ],
      [
        "wɔ",
        "n"
      ],
      [
        "n",
        "yina"
      ],
      [
        "b",
        "ɔ"
      ],
      [
        "p",
        "a"
      ],
      [
        "ɛ",
        "yɛ"
      ],
      [
        "fo",
        "ɔ"
      ],
      [
        "a",
        "sɛm"
      ],
      [
        "b",
        "a"
      ],
      [
        "u",
        "ma"
      ],
      [
        "n",
        "ni"
      ],
      [
        "t",
        "i"
      ],
      [
        "s",
        "i"
      ],
      [
        "an",
        "i"
      ],
      [
        "ɛ",
        "ma"
      ],
      [
        "S",
        "ɛ"
      ],
      [
        "u",
        "r"
      ],
      [
        "nyina",
        "a"
      ],
      [
        "kw",
        "an"
      ],
      [
        "n",
        "ne"
      ],
      [
        "y",
        "a"
      ],
      [
        "f",
        "a"
      ],
      [
        "hw",
        "ɛ"
      ],
      [
        "r",
        "i"
      ],
      [
        "h",
        "ɔ"
      ],
      [
        "p",
        "ɛ"
      ],
      [
        "nan",
        "so"
      ],
      [
        "k",
        "o"
      ],
      [
        "a",
        "ra"
      ],
      [
        "t",
        "u"
      ],
      [
        "nne",
        "ɛma"
      ],
      [
        "f",
        "i"
      ],
      [
        "e",
        "ne"
      ],
      [
        "n",
        "so"
      ],
      [
        "de",
        "ɛ"
      ],
      [
        "t",
        "a"
      ],
      [
        "b",
        "e"
      ],
      [
        "e",
        "ɛ"
      ],
      [
        "m",
        "i"
      ],
      [
        "a",
        "se"
      ],
      [
        "kw",
        "a"
      ],
      [
        "ɛ",
        "sɛ"
      ],
      [
        "ɛ",
        "bɛ"
      ],
      [
        "b",
        "o"
      ],
      [
        "adw",
        "uma"
      ],
      [
        "ɔ",
        "man"
      ],
      [
        "M",
        "e"
      ],
      [
        "h",
        "u"
      ],
      [
        "o",
        "n"
      ],
      [
        "m",
        "m"
      ],
      [
        "s",
        "u"
      ],
      [
        "m",
        "ma"
      ],
      [
        "s",
        "aa"
      ],
      [
        "o",
        "bi"
      ],
      [
        "nk",
        "ur"
      ],
      [
        "a",
        "man"
      ],
      [
        "Ɛ",
        "yɛ"
      ],
      [
        "h",
        "yɛ"
      ],
      [
        "adw",
        "ene"
      ],
      [
        "d",
        "a"
      ],
      [
        "t",
        "o"
      ],
      [
        "ni",
        "m"
      ],
      [
        "n",
        "yɛ"
      ],
      [
        "nk",
        "o"
      ],
      [
        "w",
        "a"
      ],
      [
        "h",
        "i"
      ],
      [
        "g",
        "ye"
      ],
      [
        "ɛ",
        "wɔ"
      ],
      [
        "tu",
        "mi"
      ],
      [
        "nkur",
        "ɔ"
      ],
      [
        "A",
        "nan"
      ],
      [
        "Anan",
        "se"
      ],
      [
        "de",
        "n"
      ],
      [
        "N",
        "an"
      ],
      [
        "n",
        "n"
      ],
      [
        "o",
        "m"
      ],
      [
        "ani",
        "m"
      ],
      [
        "r",
        "o"
      ],
      [
        "Nan",
        "so"
      ],
      [
        "yɛ",
        "bɛ"
      ],
      [
        "b",
        "aa"
      ],
      [
        "ɛn",
        "yɛ"
      ],
      [
        "kwa",
        "re"
      ],
      [
        "yi",
        "e"
      ],
      [
        "an",
        "a"
      ],
      [
        "p",
        "i"
      ],
      [
        "nkurɔ",
        "foɔ"
      ],
      [
        "ɛ",
        "fa"
      ],
      [
        "a",
        "g"
      ],
      [
        "a",
        "ma"
      ],
      [
        "W",
        "ɔ"
      ],
      [
        "hi",
        "a"
      ],
      [
        "b",
        "u"
      ],
      [
        "o",
        "r"
      ],
      [
        "n",
        "te"
      ],
      [
        "n",
        "sɛm"
      ],
      [
        "k",
        "u"
      ],
      [
        "G",
        "h"
      ],
      [
        "Ɛ",
        "no"
      ],
      [
        "a",
        "yɛ"
      ],
      [
        "nni",
        "pa"
      ],
      [
        "k",
        "ɛ"
      ],
      [
        "Gh",
        "ana"
      ],
      [
        "a",
        "kwan"
      ],
      [
        "kɔ",
        "ɔ"
      ],
      [
        "n",
        "u"
      ],
      [
        "a",
        "d"
      ],
      [
        "n",
        "ti"
      ],
      [
        "n",
        "sa"
      ],
      [
        "l",
        "i"
      ],
      [
        "Ɛ",
        "nyɛ"
      ],
      [
        "bɔ",
        "ɔ"
      ],
      [
        "w",
        "e"
      ],
      [
        "dw",
        "uma"
      ],
      [
        "w",
        "u"
      ],
      [
        "bɛ",
        "yɛ"
      ],
      [
        "no",
        "kware"
      ],
      [
        "si",
        "ka"
      ],
      [
        "ase",
        "ɛ"
      ],
      [
        "n",
        "kɔ"
      ],
      [
        "Y",
        "ɛn"
      ],
      [
        "so",
        "ɔ"
      ],
      [
        "h",
        "a"
      ],
      [
        "b",
        "an"
      ],
      [
        "y",
        "ɔ"
      ],
      [
        "bo",
        "a"
      ],
      [
        "m",
        "p"
      ],
      [
        "a",
        "k"
      ],
      [
        "fi",
        "ri"
      ],
      [
        "ɛ",
        "re"
      ],
      [
        "ka",
        "sa"
      ],
      [
        "pi",
        "i"
      ],
      [
        "ɛbɛ",
        "ma"
      ],
      [
        "hw",
        "e"
      ],
      [
        "di",
        "e"
      ],
      [
        "m",
        "me"
      ],
      [
        "kɛ",
        "se"
      ],
      [
        "l",
        "e"
      ],
      [
        "p",
        "aa"
      ],
      [
        "bi",
        "ara"
      ],
      [
        "mm",
        "ɔ"
      ],
      [
        "a",
        "ba"
      ],
      [
        "aman",
        "yɔ"
      ],
      [
        "be",
        "re"
      ],
      [
        "ni",
        "pa"
      ],
      [
        "obi",
        "ara"
      ],
      [
        "a",
        "ko"
      ],
      [
        "sɛ",
        "nea"
      ],
      [
        "w",
        "i"
      ],
      [
        "ɛ",
        "kyerɛ"
      ],
      [
        "ɔ",
        "bɛ"
      ],
      [
        "d",
        "o"
      ],
      [
        "n",
        "ya"
      ],
      [
        "c",
        "e"
      ],
      [
        "an",
        "aa"
      ],
      [
        "wɔ",
        "bɛ"
      ],
      [
        "ɔ",
        "yɛ"
      ],
      [
        "an",
        "e"
      ],
      [
        "a",
        "ho"
      ],
      [
        "m",
        "o"
      ],
      [
        "yɛ",
        "hwɛ"
      ],
      [
        "a",
        "deɛ"
      ],
      [
        "h",
        "e"
      ],
      [
        "ka",
        "e"
      ],
      [
        "a",
        "kɔ"
      ],
      [
        "n",
        "t"
      ],
      [
        "K",
        "o"
      ],
      [
        "kyerɛ",
        "ɛ"
      ],
      [
        "Ɛ",
        "sɛ"
      ],
      [
        "wɔ",
        "wɔ"
      ],
      [
        "nko",
        "nim"
      ],
      [
        "k",
        "ra"
      ],
      [
        "ɛfa",
        "ta"
      ],
      [
        "wɔ",
        "re"
      ],
      [
        "ɔ",
        "wɔ"
      ],
      [
        "ɔ",
        "re"
      ],
      [
        "yɛ",
        "ɛ"
      ],
      [
        "n",
        "ka"
      ],
      [
        "a",
        "l"
      ],
      [
        "bɔɔ",
        "l"
      ],
      [
        "an",
        "an"
      ],
      [
        "amanyɔ",
        "sɛm"
      ],
      [
        "mm",
        "om"
      ],
      [
        "te",
        "ɛ"
      ],
      [
        "d",
        "ɔ"
      ],
      [
        "s",
        "t"
      ],
      [
        "we",
        "rɛ"
      ],
      [
        "ur",
        "u"
      ],
      [
        "n",
        "g"
      ],
      [
        "N",
        "a"
      ],
      [
        "Ko",
        "fi"
      ],
      [
        "fo",
        "fo"
      ],
      [
        "ɛ",
        "no"
      ],
      [
        "n",
        "kwa"
      ],
      [
        "g",
        "yina"
      ],
      [
        "ani",
        "gye"
      ],
      [
        "h",
        "yi"
      ],
      [
        "d",
        "ɛn"
      ],
      [
        "kɛse",
        "ɛ"
      ],
      [
        "k",
        "aa"
      ],
      [
        "ɛre",
        "kɔ"
      ],
      [
        "h",
        "ye"
      ],
      [
        "a",
        "di"
      ],
      [
        "n",
        "na"
      ],
      [
        "ɛ",
        "kɔ"
      ],
      [
        "so",
        "m"
      ],
      [
        "f",
        "e"
      ],
      [
        "hu",
        "nu"
      ],
      [
        "si",
        "e"
      ],
      [
        "ti",
        "on"
      ],
      [
        "w",
        "an"
      ],
      [
        "a",
        "r"
      ],
      [
        "te",
        "na"
      ],
      [
        "S",
        "aa"
      ],
      [
        "anan",
        "se"
      ],
      [
        "d",
        "uru"
      ],
      [
        "n",
        "y"
      ],
      [
        "dw",
        "o"
      ],
      [
        "yi",
        "ye"
      ],
      [
        "e",
        "r"
      ],
      [
        "a",
        "t"
      ],
      [
        "baa",
        "bi"
      ],
      [
        "be",
        "a"
      ],
      [
        "yɛ",
        "yɛ"
      ],
      [
        "m",
        "fa"
      ],
      [
        "a",
        "ka"
      ],
      [
        "r",
        "aa"
      ],
      [
        "yɛ",
        "re"
      ],
      [
        "e",
        "n"
      ],
      [
        "ak",
        "yi"
      ],
      [
        "2",
        "0"
      ],
      [
        "d",
        "aa"
      ],
      [
        "hwe",
        "hwɛ"
      ],
      [
        "ag",
        "or"
      ],
      [
        "wo",
        "de"
      ],
      [
        "n",
        "ta"
      ],
      [
        "su",
        "a"
      ],
      [
        "wɔ",
        "de"
      ],
      [
        "an",
        "ya"
      ],
      [
        "ɔ",
        "pɛ"
      ],
      [
        "d",
        "u"
      ],
      [
        "wo",
        "yɛ"
      ],
      [
        "nn",
        "ɛ"
      ],
      [
        "a",
        "ban"
      ],
      [
        "hyɛ",
        "ɛ"
      ],
      [
        "r",
        "an"
      ],
      [
        "wan",
        "wa"
      ],
      [
        "nte",
        "aseɛ"
      ],
      [
        "g",
        "u"
      ],
      [
        "p",
        "o"
      ],
      [
        "kɔ",
        "sɛm"
      ],
      [
        "t",
        "y"
      ],
      [
        "ɛ",
        "hia"
      ],
      [
        "W",
        "o"
      ],
      [
        "n",
        "wanwa"
      ],
      [
        "sɛ",
        "e"
      ],
      [
        "yɛ",
        "de"
      ],
      [
        "akwan",
        "tu"
      ],
      [
        "s",
        "an"
      ],
      [
        "N",
        "nipa"
      ],
      [
        "mma",
        "ra"
      ],
      [
        "t",
        "ɔ"
      ],
      [
        "k",
        "e"
      ],
      [
        "a",
        "de"
      ],
      [
        "agor",
        "ɔ"
      ],
      [
        "a",
        "te"
      ],
      [
        "g",
        "ya"
      ],
      [
        "a",
        "som"
      ],
      [
        "ɔ",
        "den"
      ],
      [
        "c",
        "i"
      ],
      [
        "hyi",
        "a"
      ],
      [
        "ɛbɛ",
        "yɛ"
      ],
      [
        "h",
        "ene"
      ],
      [
        "l",
        "a"
      ],
      [
        "yɛ",
        "wɔ"
      ],
      [
        "bo",
        "m"
      ],
      [
        "r",
        "ɔ"
      ],
      [
        "wɔ",
        "yɛ"
      ],
      [
        "ɔ",
        "de"
      ],
      [
        "asom",
        "dwo"
      ],
      [
        "aho",
        "ɔden"
      ],
      [
        "re",
        "e"
      ],
      [
        "Wɔ",
        "n"
      ],
      [
        "yi",
        "n"
      ],
      [
        "bɔ",
        "ne"
      ],
      [
        "ɛ",
        "te"
      ],
      [
        "wo",
        "pɛ"
      ],
      [
        "a",
        "sa"
      ],
      [
        "an",
        "sa"
      ],
      [
        "ma",
        "a"
      ],
      [
        "ad",
        "u"
      ],
      [
        "ananse",
        "sɛm"
      ],
      [
        "a",
        "bu"
      ],
      [
        "ɛn",
        "sɛ"
      ],
      [
        "20",
        "2"
      ],
      [
        "mp",
        "o"
      ],
      [
        "wi",
        "ase"
      ],
      [
        "anigye",
        "ɛ"
      ],
      [
        "n",
        "nyina"
      ],
      [
        "wo",
        "m"
      ],
      [
        "n",
        "su"
      ],
      [
        "di",
        "i"
      ],
      [
        "yɛ",
        "kɔ"
      ],
      [
        "wo",
        "te"
      ],
      [
        "yɛn",
        "ni"
      ],
      [
        "ku",
        "ra"
      ],
      [
        "an",
        "kasa"
      ],
      [
        "v",
        "i"
      ],
      [
        "ko",
        "raa"
      ],
      [
        "ɔman",
        "foɔ"
      ],
      [
        "mme",
        "rɛ"
      ],
      [
        "a",
        "m"
      ],
      [
        "ri",
        "ma"
      ],
      [
        "c",
        "o"
      ],
      [
        "ur",
        "o"
      ],
      [
        "a",
        "s"
      ],
      [
        "dwuma",
        "die"
      ],
      [
        "p",
        "e"
      ],
      [
        "be",
        "rɛ"
      ],
      [
        "kra",
        "man"
      ],
      [
        "ak",
        "an"
      ],
      [
        "asomdwo",
        "eɛ"
      ],
      [
        "me",
        "pɛ"
      ],
      [
        "nta",
        "m"
      ],
      [
        "ne",
        "ɛ"
      ],
      [
        "di",
        "n"
      ],
      [
        "aba",
        "kɔsɛm"
      ],
      [
        "N",
        "o"
      ],
      [
        "nk",
        "ye"
      ],
      [
        "nk",
        "u"
      ],
      [
        "f",
        "u"
      ],
      [
        "bɛ",
        "kɔ"
      ],
      [
        "fofo",
        "ro"
      ],
      [
        "i",
        "n"
      ],
      [
        "ko",
        "ma"
      ],
      [
        "o",
        "f"
      ],
      [
        "ti",
        "e"
      ],
      [
        "asa",
        "se"
      ],
      [
        "nkurɔ",
        "fo"
      ],
      [
        "m",
        "mi"
      ],
      [
        "ɔ",
        "n"
      ],
      [
        "b",
        "ra"
      ],
      [
        "f",
        "ɛ"
      ],
      [
        "ɛ",
        "firi"
      ],
      [
        "Ɛ",
        "nnɛ"
      ],
      [
        "ha",
        "w"
      ],
      [
        "ya",
        "re"
      ],
      [
        "nkɔ",
        "soɔ"
      ],
      [
        "v",
        "e"
      ],
      [
        "mmɔ",
        "den"
      ],
      [
        "an",
        "yin"
      ],
      [
        "ti",
        "ri"
      ],
      [
        "do",
        "do"
      ],
      [
        "nkɔ",
        "mmɔ"
      ],
      [
        "Ɔ",
        "se"
      ],
      [
        "ako",
        "ma"
      ],
      [
        "No",
        "kware"
      ],
      [
        "nkye",
        "rɛ"
      ],
      [
        "bɛ",
        "ka"
      ],
      [
        "Me",
        "pɛ"
      ],
      [
        "fi",
        "e"
      ],
      [
        "re",
        "ka"
      ],
      [
        "fofo",
        "rɔ"
      ],
      [
        "K",
        "wa"
      ],
      [
        "bi",
        "ri"
      ],
      [
        "ku",
        "o"
      ],
      [
        "e",
        "i"
      ],
      [
        "bɔɔl",
        "o"
      ],
      [
        "to",
        "o"
      ],
      [
        "or",
        "t"
      ],
      [
        "an",
        "o"
      ],
      [
        "l",
        "l"
      ],
      [
        "k",
        "an"
      ],
      [
        "hye",
        "hyɛ"
      ],
      [
        "yɛ",
        "pɛ"
      ],
      [
        "a",
        "bɔ"
      ],
      [
        "te",
        "r"
      ],
      [
        "ɛ",
        "ho"
      ],
      [
        "m",
        "pa"
      ],
      [
        "ag",
        "o"
      ],
      [
        "dw",
        "ene"
      ],
      [
        "wɔ",
        "pɛ"
      ],
      [
        "M",
        "o"
      ],
      [
        "hwe",
        "e"
      ],
      [
        "o",
        "a"
      ],
      [
        "ɛ",
        "kɔɔ"
      ],
      [
        "nim",
        "deɛ"
      ],
      [
        "re",
        "kɔ"
      ],
      [
        "a",
        "w"
      ],
      [
        "mme",
        "ran"
      ],
      [
        "ba",
        "sa"
      ],
      [
        "d",
        "ɛ"
      ],
      [
        "si",
        "i"
      ],
      [
        "b",
        "ree"
      ],
      [
        "be",
        "bree"
      ],
      [
        "ya",
        "m"
      ],
      [
        "t",
        "ra"
      ],
      [
        "Ɛ",
        "wɔ"
      ],
      [
        "baa",
        "ko"
      ],
      [
        "na",
        "l"
      ],
      [
        "te",
        "e"
      ],
      [
        "p",
        "anyin"
      ],
      [
        "ako",
        "ko"
      ],
      [
        "se",
        "sa"
      ],
      [
        "l",
        "o"
      ],
      [
        "adwuma",
        "yɛ"
      ],
      [
        "ɔ",
        "ne"
      ],
      [
        "me",
        "nt"
      ],
      [
        "\"",
        "."
      ],
      [
        "yɛ",
        "ka"
      ],
      [
        "g",
        "e"
      ],
      [
        "nsu",
        "o"
      ],
      [
        "ny",
        "ansa"
      ],
      [
        "ɔ",
        "haw"
      ],
      [
        "ɛ",
        "da"
      ],
      [
        "a",
        "werɛ"
      ],
      [
        "bɛ",
        "ba"
      ],
      [
        "t",
        "h"
      ],
      [
        "a",
        "bo"
      ],
      [
        "r",
        "s"
      ],
      [
        "a",
        "h"
      ],
      [
        "yɛn",
        "hwɛ"
      ],
      [
        "nkur",
        "an"
      ],
      [
        "f",
        "eɛ"
      ],
      [
        "A",
        "ma"
      ],
      [
        "a",
        "si"
      ],
      [
        "p",
        "ort"
      ],
      [
        "c",
        "k"
      ],
      [
        "202",
        "5"
      ],
      [
        "me",
        "ka"
      ],
      [
        "ba",
        "rima"
      ],
      [
        "yɛn",
        "yɛ"
      ],
      [
        "ho",
        "w"
      ],
      [
        "gya",
        "e"
      ],
      [
        "yɛ",
        "bɔ"
      ],
      [
        "D",
        "r"
      ],
      [
        "u",
        "m"
      ],
      [
        "ɔ",
        "kwan"
      ],
      [
        "su",
        "su"
      ],
      [
        "c",
        "a"
      ],
      [
        "an",
        "om"
      ],
      [
        "n",
        "ɛ"
      ],
      [
        "B",
        "e"
      ],
      [
        "akan",
        "sie"
      ],
      [
        "nka",
        "bom"
      ],
      [
        "tiri",
        "m"
      ],
      [
        "mmeran",
        "teɛ"
      ],
      [
        "Y",
        "aw"
      ],
      [
        "o",
        "l"
      ],
      [
        "akoko",
        "duru"
      ],
      [
        "E",
        "yi"
      ],
      [
        "f",
        "ra"
      ],
      [
        "nn",
        "wom"
      ],
      [
        "t",
        "wa"
      ],
      [
        "mm",
        "oa"
      ],
      [
        "biri",
        "bi"
      ],
      [
        "t",
        "aa"
      ],
      [
        "m",
        "mu"
      ],
      [
        "e",
        "te"
      ],
      [
        "bi",
        "sa"
      ],
      [
        "ɛn",
        "ni"
      ],
      [
        "me",
        "hwɛ"
      ],
      [
        "ɔ",
        "hene"
      ],
      [
        "bɔɔlo",
        "bɔ"
      ],
      [
        "n",
        "hyehyɛ"
      ],
      [
        "r",
        "y"
      ],
      [
        "yɛ",
        "di"
      ],
      [
        "M",
        "i"
      ],
      [
        "ani",
        "da"
      ],
      [
        "bra",
        "bɔ"
      ],
      [
        "nne",
        "yɛɛ"
      ],
      [
        "e",
        "nu"
      ],
      [
        "Ɔ",
        "man"
      ],
      [
        "A",
        "ane"
      ],
      [
        "a",
        "brabɔ"
      ],
      [
        "nk",
        "ra"
      ],
      [
        "u",
        "e"
      ],
      [
        "me",
        "hu"
      ],
      [
        "mmi",
        "enu"
      ],
      [
        "c",
        "h"
      ],
      [
        "nsa",
        "m"
      ],
      [
        "D",
        "a"
      ],
      [
        "W",
        "ei"
      ],
      [
        "m",
        "feɛ"
      ],
      [
        "J",
        "u"
      ],
      [
        "p",
        "ɔn"
      ],
      [
        "wɔ",
        "a"
      ],
      [
        "no",
        "m"
      ],
      [
        "s",
        "s"
      ],
      [
        "nk",
        "yɛn"
      ],
      [
        "ad",
        "aa"
      ],
      [
        "Sɛ",
        "nea"
      ],
      [
        "yɛbɛ",
        "ka"
      ],
      [
        "n",
        "nyɛ"
      ],
      [
        "f",
        "rɛ"
      ],
      [
        "bɛyɛ",
        "ɛ"
      ],
      [
        "abu",
        "sua"
      ],
      [
        "e",
        "fi"
      ],
      [
        "a",
        "fe"
      ],
      [
        "ti",
        "a"
      ],
      [
        "nte",
        "ɛ"
      ],
      [
        "ani",
        "n"
      ],
      [
        "s",
        "ti"
      ],
      [
        "ase",
        "tena"
      ],
      [
        "l",
        "y"
      ],
      [
        "a",
        "kyerɛ"
      ],
      [
        "t",
        "we"
      ],
      [
        "yɛbɛ",
        "tumi"
      ],
      [
        "wo",
        "bɛ"
      ],
      [
        "o",
        "nal"
      ],
      [
        "S",
        "i"
      ],
      [
        "nna",
        "adaa"
      ],
      [
        "o",
        "u"
      ],
      [
        "k",
        "ur"
      ],
      [
        "dw",
        "en"
      ],
      [
        "mfa",
        "soɔ"
      ],
      [
        "r",
        "u"
      ],
      [
        "yɛbɛ",
        "yɛ"
      ],
      [
        "ba",
        "eɛ"
      ],
      [
        "M",
        "ma"
      ],
      [
        "A",
        "f"
      ],
      [
        "akwan",
        "ya"
      ],
      [
        "g",
        "i"
      ],
      [
        "ɛbɛ",
        "boa"
      ],
      [
        "be",
        "tumi"
      ],
      [
        "Kwa",
        "me"
      ],
      [
        "ɛbɛ",
        "ba"
      ],
      [
        "ku",
        "u"
      ],
      [
        "n",
        "sɛ"
      ],
      [
        "ɔ",
        "dɔ"
      ],
      [
        "ɛn",
        "nɛ"
      ],
      [
        "ago",
        "die"
      ],
      [
        "A",
        "c"
      ],
      [
        "bi",
        "o"
      ],
      [
        "ɔ",
        "barima"
      ],
      [
        "to",
        "ɔ"
      ],
      [
        "kwa",
        "eɛ"
      ],
      [
        "at",
        "wa"
      ],
      [
        "adu",
        "ane"
      ],
      [
        "te",
        "te"
      ],
      [
        "ɔ",
        "te"
      ],
      [
        "t",
        "s"
      ],
      [
        "mo",
        "mma"
      ],
      [
        "s",
        "ta"
      ],
      [
        "nn",
        "ya"
      ],
      [
        "an",
        "ka"
      ],
      [
        "a",
        "yare"
      ],
      [
        "akyi",
        "ri"
      ],
      [
        "dɔ",
        "ɔ"
      ],
      [
        "wo",
        "se"
      ],
      [
        "m",
        "on"
      ],
      [
        "anida",
        "soɔ"
      ],
      [
        "daa",
        "kye"
      ],
      [
        "ad",
        "an"
      ],
      [
        "a",
        "to"
      ],
      [
        "dw",
        "om"
      ],
      [
        "m",
        "fo"
      ],
      [
        "ɔ",
        "se"
      ],
      [
        "Ɔ",
        "kraman"
      ],
      [
        "ama",
        "mmerɛ"
      ],
      [
        "ɛ",
        "de"
      ],
      [
        "hunu",
        "u"
      ],
      [
        "ɔ",
        "kraman"
      ],
      [
        "sɛ",
        "deɛ"
      ],
      [
        "nu",
        "anom"
      ],
      [
        "na",
        "m"
      ],
      [
        "re",
        "n"
      ],
      [
        "kyerɛ",
        "kyerɛ"
      ],
      [
        "ayare",
        "sa"
      ],
      [
        "a",
        "c"
      ],
      [
        "bɛ",
        "tumi"
      ],
      [
        "an",
        "ko"
      ],
      [
        "nhyehyɛ",
        "eɛ"
      ],
      [
        "ye",
        "ra"
      ],
      [
        "Af",
        "ri"
      ],
      [
        "p",
        "ro"
      ],
      [
        "ko",
        "ro"
      ],
      [
        "anim",
        "foɔ"
      ],
      [
        "g",
        "h"
      ],
      [
        "a",
        "bɛ"
      ],
      [
        "wo",
        "ate"
      ],
      [
        "ɛma",
        "a"
      ],
      [
        "ɔ",
        "foɔ"
      ],
      [
        "po",
        "li"
      ],
      [
        "C",
        "O"
      ],
      [
        "ɔ",
        "no"
      ],
      [
        "yɛ",
        "ma"
      ],
      [
        "su",
        "kuu"
      ],
      [
        "B",
        "o"
      ],
      [
        "Ɛ",
        "nsɛ"
      ],
      [
        "aman",
        "eɛ"
      ],
      [
        "p",
        "anin"
      ],
      [
        "c",
        "ra"
      ],
      [
        "sɛ",
        "ɛ"
      ],
      [
        "ɛ",
        "ba"
      ],
      [
        "so",
        "ro"
      ],
      [
        "ka",
        "eɛ"
      ],
      [
        "hyi",
        "aa"
      ],
      [
        "fa",
        "m"
      ],
      [
        "a",
        "wi"
      ],
      [
        "asi",
        "ane"
      ],
      [
        "re",
        "ba"
      ],
      [
        "k",
        "uro"
      ],
      [
        "kye",
        "re"
      ],
      [
        "akwan",
        "kyerɛ"
      ],
      [
        "a",
        "sɛ"
      ],
      [
        "efi",
        "sɛ"
      ],
      [
        "v",
        "er"
      ],
      [
        "w",
        "ɛ"
      ],
      [
        "N",
        "e"
      ],
      [
        "nk",
        "on"
      ],
      [
        "c",
        "on"
      ],
      [
        "ɛ",
        "ne"
      ],
      [
        "S",
        "ta"
      ],
      [
        "Si",
        "ka"
      ],
      [
        "yɛ",
        "hu"
      ],
      [
        "N",
        "P"
      ],
      [
        "J",
        "o"
      ],
      [
        "wo",
        "a"
      ],
      [
        "f",
        "aa"
      ],
      [
        "nn",
        "ye"
      ],
      [
        "ɛ",
        "tɔ"
      ],
      [
        "N",
        "kur"
      ],
      [
        "R",
        "e"
      ],
      [
        "kyerɛ",
        "w"
      ],
      [
        "g",
        "o"
      ],
      [
        "H",
        "wɛ"
      ],
      [
        "ti",
        "onal"
      ],
      [
        ",",
        "\""
      ],
      [
        "M",
        "a"
      ],
      [
        "a",
        "hyɛ"
      ],
      [
        "fo",
        "r"
      ],
      [
        "A",
        "ba"
      ],
      [
        "t",
        "w"
      ],
      [
        "ta",
        "m"
      ],
      [
        "tu",
        "o"
      ],
      [
        "Ɛ",
        "te"
      ],
      [
        "Be",
        "re"
      ],
      [
        "S",
        "e"
      ],
      [
        "basa",
        "basa"
      ],
      [
        "c",
        "y"
      ],
      [
        "uma",
        "di"
      ],
      [
        "NP",
        "P"
      ],
      [
        "A",
        "sɛm"
      ],
      [
        "fu",
        "o"
      ],
      [
        "awerɛ",
        "ho"
      ],
      [
        "s",
        "si"
      ],
      [
        "bɛ",
        "di"
      ],
      [
        "bi",
        "saa"
      ],
      [
        "pa",
        "pa"
      ],
      [
        "wɔn",
        "ni"
      ],
      [
        "yɛn",
        "nyɛ"
      ],
      [
        "kɛ",
        "kɛ"
      ],
      [
        "aman",
        "aman"
      ],
      [
        "ra",
        "l"
      ],
      [
        "di",
        "a"
      ],
      [
        "to",
        "r"
      ],
      [
        "aba",
        "toɔ"
      ],
      [
        "nne",
        "yɛ"
      ],
      [
        "bɔɔl",
        "bɔ"
      ],
      [
        "ɛ",
        "m"
      ],
      [
        "mme",
        "a"
      ],
      [
        "ɔ",
        "kɔ"
      ],
      [
        "me",
        "kae"
      ],
      [
        "nku",
        "too"
      ],
      [
        "an",
        "d"
      ],
      [
        "a",
        "boa"
      ],
      [
        "nkra",
        "taa"
      ],
      [
        "A",
        "u"
      ],
      [
        "N",
        "i"
      ],
      [
        "mp",
        "animfoɔ"
      ],
      [
        "n",
        "si"
      ],
      [
        "ci",
        "al"
      ],
      [
        "ag",
        "umadi"
      ],
      [
        "o",
        "nipa"
      ],
      [
        "a",
        "so"
      ],
      [
        "nku",
        "nim"
      ],
      [
        "mmara",
        "hyɛ"
      ],
      [
        "e",
        "bi"
      ],
      [
        "g",
        "y"
      ],
      [
        "ba",
        "ll"
      ],
      [
        "adwumayɛ",
        "foɔ"
      ],
      [
        "re",
        "ɛ"
      ],
      [
        "wɔre",
        "yɛ"
      ],
      [
        "1",
        "9"
      ],
      [
        "l",
        "li"
[...]
